{
  "eos": 0, 
  "UNK": 1, 
  ",": 2, 
  ".": 3, 
  "r@@": 4, 
  "und": 5, 
  "i@@": 6, 
  "die": 7, 
  "t@@": 8, 
  "l@@": 9, 
  "e@@": 10, 
  "a@@": 11, 
  "o@@": 12, 
  "s@@": 13, 
  "u@@": 14, 
  "f@@": 15, 
  "das": 16, 
  "der": 17, 
  "ich": 18, 
  "k@@": 19, 
  "es": 20, 
  "h@@": 21, 
  "ist": 22, 
  "wir": 23, 
  "p@@": 24, 
  "in": 25, 
  "g@@": 26, 
  "m@@": 27, 
  "zu": 28, 
  "n@@": 29, 
  "sie": 30, 
  "b@@": 31, 
  "t": 32, 
  "er@@": 33, 
  "an@@": 34, 
  "ch@@": 35, 
  "ei@@": 36, 
  "w@@": 37, 
  "er": 38, 
  "d@@": 39, 
  "z@@": 40, 
  "en@@": 41, 
  "ä@@": 42, 
  "ein": 43, 
  "&quot;": 44, 
  "ti@@": 45, 
  "eine": 46, 
  "von": 47, 
  "dass": 48, 
  "nicht": 49, 
  "den": 50, 
  "en": 51, 
  "in@@": 52, 
  "mit": 53, 
  "ü@@": 54, 
  "st@@": 55, 
  "Sie": 56, 
  "S@@": 57, 
  "wie": 58, 
  "e": 59, 
  "sch@@": 60, 
  "auf": 61, 
  "es@@": 62, 
  "el@@": 63, 
  "c@@": 64, 
  "sich": 65, 
  "sind": 66, 
  "ar@@": 67, 
  "haben": 68, 
  "man": 69, 
  "aber": 70, 
  "was": 71, 
  "B@@": 72, 
  "wenn": 73, 
  "für": 74, 
  ":": 75, 
  "ten": 76, 
  "or@@": 77, 
  "?": 78, 
  "an": 79, 
  "M@@": 80, 
  "al@@": 81, 
  "@-@": 82, 
  "te": 83, 
  "K@@": 84, 
  "als": 85, 
  "ver@@": 86, 
  "um": 87, 
  "li@@": 88, 
  "ge@@": 89, 
  "so": 90, 
  "P@@": 91, 
  "diese": 92, 
  "s": 93, 
  "un@@": 94, 
  "war": 95, 
  "-": 96, 
  "is@@": 97, 
  "on@@": 98, 
  "v@@": 99, 
  "F@@": 100, 
  "im": 101, 
  "ung": 102, 
  "ö@@": 103, 
  "T@@": 104, 
  "A@@": 105, 
  "also": 106, 
  "dem": 107, 
  "einen": 108, 
  "H@@": 109, 
  "G@@": 110, 
  "re@@": 111, 
  "uns": 112, 
  "können": 113, 
  "hier": 114, 
  "be@@": 115, 
  "werden": 116, 
  "des": 117, 
  "at@@": 118, 
  "oder": 119, 
  "hat": 120, 
  "aus": 121, 
  "W@@": 122, 
  "au@@": 123, 
  "as@@": 124, 
  "auch": 125, 
  "über": 126, 
  "l": 127, 
  "D@@": 128, 
  "einer": 129, 
  "kann": 130, 
  "L@@": 131, 
  "dann": 132, 
  "sehr": 133, 
  "y@@": 134, 
  "ein@@": 135, 
  "R@@": 136, 
  "g": 137, 
  "wird": 138, 
  "einem": 139, 
  "di@@": 140, 
  "nur": 141, 
  "--": 142, 
  "et@@": 143, 
  "E@@": 144, 
  "gibt": 145, 
  "le@@": 146, 
  "gen": 147, 
  "N@@": 148, 
  "ge": 149, 
  "sehen": 150, 
  "ab@@": 151, 
  "mich": 152, 
  "Menschen": 153, 
  "sein": 154, 
  "om@@": 155, 
  "am@@": 156, 
  "Sch@@": 157, 
  "os@@": 158, 
  "etwas": 159, 
  "der@@": 160, 
  "gen@@": 161, 
  "C@@": 162, 
  "a": 163, 
  "dieser": 164, 
  "habe": 165, 
  "on": 166, 
  "noch": 167, 
  "ent@@": 168, 
  "de@@": 169, 
  "nach": 170, 
  "ter@@": 171, 
  "mir": 172, 
  "alle": 173, 
  "aus@@": 174, 
  "zu@@": 175, 
  "Welt": 176, 
  "mehr": 177, 
  "r": 178, 
  "vor": 179, 
  "k": 180, 
  "bei": 181, 
  "Ver@@": 182, 
  "meine": 183, 
  "ungen": 184, 
  "ß@@": 185, 
  "machen": 186, 
  "wirklich": 187, 
  "auf@@": 188, 
  "weil": 189, 
  "nun": 190, 
  "d": 191, 
  "Ihnen": 192, 
  "da": 193, 
  "zum": 194, 
  "dies": 195, 
  "ert": 196, 
  "dieses": 197, 
  "wurde": 198, 
  "ot@@": 199, 
  "n": 200, 
  "de": 201, 
  "immer": 202, 
  "m": 203, 
  "am": 204, 
  "eren": 205, 
  "An@@": 206, 
  "tun": 207, 
  "durch": 208, 
  "Z@@": 209, 
  "ie": 210, 
  "jetzt": 211, 
  "unsere": 212, 
  "sagen": 213, 
  "hatte": 214, 
  "wissen": 215, 
  "keine": 216, 
  "um@@": 217, 
  "ter": 218, 
  "x@@": 219, 
  "Leute": 220, 
  "O@@": 221, 
  "viele": 222, 
  "i": 223, 
  "viel": 224, 
  "y": 225, 
  "ihre": 226, 
  "Dinge": 227, 
  "sagte": 228, 
  "J@@": 229, 
  "denn": 230, 
  "Zeit": 231, 
  "diesem": 232, 
  "ern": 233, 
  "ges@@": 234, 
  "einfach": 235, 
  "In@@": 236, 
  "diesen": 237, 
  "eines": 238, 
  "zwei": 239, 
  "ihr": 240, 
  "müssen": 241, 
  "1@@": 242, 
  "waren": 243, 
  "alles": 244, 
  "Leben": 245, 
  "all": 246, 
  "bin": 247, 
  "Jahren": 248, 
  "vor@@": 249, 
  "wo": 250, 
  "Art": 251, 
  "andere": 252, 
  "ber@@": 253, 
  "Er@@": 254, 
  "du": 255, 
  "chen": 256, 
  "o": 257, 
  "damit": 258, 
  "j@@": 259, 
  "z": 260, 
  "mein": 261, 
  "le": 262, 
  "geht": 263, 
  "würde": 264, 
  "ungs@@": 265, 
  "ma@@": 266, 
  "lich": 267, 
  "ch": 268, 
  "se": 269, 
  "I@@": 270, 
  "V@@": 271, 
  "anderen": 272, 
  "vielleicht": 273, 
  "bis": 274, 
  "st": 275, 
  "sen": 276, 
  "her@@": 277, 
  "gehen": 278, 
  "zur": 279, 
  "Jahre": 280, 
  "gut": 281, 
  "über@@": 282, 
  "ischen": 283, 
  "ger@@": 284, 
  "muss": 285, 
  "selbst": 286, 
  "kommen": 287, 
  "gel@@": 288, 
  "St@@": 289, 
  "Re@@": 290, 
  "ische": 291, 
  "kl@@": 292, 
  "tatsächlich": 293, 
  "heute": 294, 
  "schon": 295, 
  "0@@": 296, 
  "Ge@@": 297, 
  "möchte": 298, 
  "ja": 299, 
  "einige": 300, 
  "sten": 301, 
  "9@@": 302, 
  "warum": 303, 
  "davon": 304, 
  "ihnen": 305, 
  "wieder": 306, 
  "dort": 307, 
  "ger": 308, 
  "geben": 309, 
  "lichen": 310, 
  "lassen": 311, 
  "f": 312, 
  "&apos;": 313, 
  "werde": 314, 
  "men": 315, 
  "Geschichte": 316, 
  "ganz": 317, 
  "drei": 318, 
  "tet": 319, 
  "al": 320, 
  "ere": 321, 
  "liche": 322, 
  "genau": 323, 
  "Be@@": 324, 
  "ob": 325, 
  "denken": 326, 
  "end": 327, 
  "darüber": 328, 
  "nen": 329, 
  "ste": 330, 
  "ihn": 331, 
  "hatten": 332, 
  "Kinder": 333, 
  "den@@": 334, 
  "könnte": 335, 
  "Jahr": 336, 
  "ten@@": 337, 
  "wollen": 338, 
  "Ein@@": 339, 
  "denke": 340, 
  "stellen": 341, 
  "gesch@@": 342, 
  "meiner": 343, 
  "paar": 344, 
  "gemacht": 345, 
  ".@@": 346, 
  "seine": 347, 
  "kommt": 348, 
  "wurden": 349, 
  ";": 350, 
  "mit@@": 351, 
  "mal": 352, 
  "erte": 353, 
  "ken": 354, 
  "us": 355, 
  "gab": 356, 
  "macht": 357, 
  "jeder": 358, 
  "finden": 359, 
  "Beispiel": 360, 
  "denen": 361, 
  "che": 362, 
  "Vor@@": 363, 
  "während": 364, 
  "glaube": 365, 
  "natürlich": 366, 
  "h": 367, 
  "Problem": 368, 
  "kon@@": 369, 
  "unter@@": 370, 
  "weiter": 371, 
  "!": 372, 
  "kein": 373, 
  "U@@": 374, 
  "bringen": 375, 
  "dazu": 376, 
  "me": 377, 
  "Teil": 378, 
  "hin@@": 379, 
  "vom": 380, 
  "nehmen": 381, 
  "zeigen": 382, 
  "wäre": 383, 
  "Aus@@": 384, 
  "weiß": 385, 
  "unserer": 386, 
  "einmal": 387, 
  "neue": 388, 
  "eln": 389, 
  "vielen": 390, 
  "sogar": 391, 
  "dafür": 392, 
  "2@@": 393, 
  "sondern": 394, 
  "Tag": 395, 
  "zwischen": 396, 
  "unser": 397, 
  "q@@": 398, 
  "Ab@@": 399, 
  "nichts": 400, 
  "isch": 401, 
  "ohne": 402, 
  "doch": 403, 
  "würden": 404, 
  "sprechen": 405, 
  "Prozent": 406, 
  "zurück": 407, 
  "passiert": 408, 
  "will": 409, 
  "gerade": 410, 
  "unter": 411, 
  "Kon@@": 412, 
  "Millionen": 413, 
  "sieht": 414, 
  "ben": 415, 
  "Frage": 416, 
  "ellen": 417, 
  "erste": 418, 
  "verstehen": 419, 
  "leben": 420, 
  "nie": 421, 
  "konnte": 422, 
  "letzten": 423, 
  "ihren": 424, 
  "ziemlich": 425, 
  "bekommen": 426, 
  "ging": 427, 
  "em": 428, 
  "meinen": 429, 
  "ersten": 430, 
  "Arbeit": 431, 
  "daran": 432, 
  "Idee": 433, 
  "arbeiten": 434, 
  "ende": 435, 
  "ts": 436, 
  "ek@@": 437, 
  "sagt": 438, 
  "Frauen": 439, 
  "etwa": 440, 
  "u": 441, 
  "sollten": 442, 
  "kam": 443, 
  "dabei": 444, 
  "zen": 445, 
  "sollte": 446, 
  "große": 447, 
  "welche": 448, 
  "ganze": 449, 
  "tes": 450, 
  "wollte": 451, 
  "enden": 452, 
  "and": 453, 
  "Dollar": 454, 
  "Bild": 455, 
  "Sache": 456, 
  "ne": 457, 
  "meisten": 458, 
  "is": 459, 
  "Di@@": 460, 
  "könnten": 461, 
  "meinem": 462, 
  "Land": 463, 
  "wichtig": 464, 
  "Weg": 465, 
  "durch@@": 466, 
  "eigentlich": 467, 
  "erung": 468, 
  "gesehen": 469, 
  "darauf": 470, 
  "halten": 471, 
  "b": 472, 
  "Wasser": 473, 
  "Seite": 474, 
  "kleinen": 475, 
  "ale": 476, 
  "zusammen": 477, 
  "ins": 478, 
  "tern": 479, 
  "Mann": 480, 
  "ihrer": 481, 
  "vier": 482, 
  "Geld": 483, 
  "bedeutet": 484, 
  "brauchen": 485, 
  "Un@@": 486, 
  "dachte": 487, 
  "ab": 488, 
  "Mal": 489, 
  "kleine": 490, 
  "Technologie": 491, 
  "jemand": 492, 
  "besser": 493, 
  "...": 494, 
  "10": 495, 
  "weniger": 496, 
  "Ende": 497, 
  "wer": 498, 
  "Menge": 499, 
  "3@@": 500, 
  "Ihre": 501, 
  "Weise": 502, 
  "ihm": 503, 
  "be": 504, 
  "elle": 505, 
  "versuchen": 506, 
  "Daten": 507, 
  "000": 508, 
  "p": 509, 
  "erten": 510, 
  "Über@@": 511, 
  "jedes": 512, 
  "unseren": 513, 
  "gesagt": 514, 
  "Frau": 515, 
  "großen": 516, 
  "jeden": 517, 
  "ganzen": 518, 
  "schauen": 519, 
  "Raum": 520, 
  "bar": 521, 
  "seit": 522, 
  "Ich": 523, 
  "as": 524, 
  "20": 525, 
  "tische": 526, 
  "aten": 527, 
  "tischen": 528, 
  "zusammen@@": 529, 
  "ungefähr": 530, 
  "nein": 531, 
  "allen": 532, 
  "keinen": 533, 
  "8@@": 534, 
  "glauben": 535, 
  "Auf@@": 536, 
  "schaffen": 537, 
  "Zukunft": 538, 
  "heraus": 539, 
  "ges": 540, 
  "alen": 541, 
  "licher": 542, 
  "Grund": 543, 
  "wahrscheinlich": 544, 
  "gute": 545, 
  "indem": 546, 
  "Person": 547, 
  "lernen": 548, 
  "nach@@": 549, 
  "gegen": 550, 
  "beim": 551, 
  "tisch": 552, 
  "schen": 553, 
  "jede": 554, 
  "Gehirn": 555, 
  "hätte": 556, 
  "wenig": 557, 
  "Dank": 558, 
  "stehen": 559, 
  "später": 560, 
  "funktioniert": 561, 
  "eigenen": 562, 
  "danke": 563, 
  "Unter@@": 564, 
  "lange": 565, 
  "erzählen": 566, 
  "50": 567, 
  "sah": 568, 
  "Erde": 569, 
  "heißt": 570, 
  "ens": 571, 
  "zurück@@": 572, 
  "fünf": 573, 
  "Kind": 574, 
  "at": 575, 
  "5@@": 576, 
  "2": 577, 
  "führen": 578, 
  "fast": 579, 
  "bauen": 580, 
  "weise": 581, 
  "System": 582, 
  "richtig": 583, 
  "Mutter": 584, 
  "Ort": 585, 
  "pro": 586, 
  "7@@": 587, 
  "genug": 588, 
  "sicher": 589, 
  "zeigt": 590, 
  "konnten": 591, 
  "schnell": 592, 
  "möglich": 593, 
  "Fall": 594, 
  "erst": 595, 
  "los": 596, 
  "hin": 597, 
  "lang": 598, 
  "Ent@@": 599, 
  "Moment": 600, 
  "Probleme": 601, 
  "gehört": 602, 
  "oft": 603, 
  "4@@": 604, 
  "hören": 605, 
  "seiner": 606, 
  "x": 607, 
  "liches": 608, 
  "gern": 609, 
  "bisschen": 610, 
  "Ideen": 611, 
  "Mar@@": 612, 
  "v": 613, 
  "nutzen": 614, 
  "Computer": 615, 
  "helfen": 616, 
  "alten": 617, 
  "Mädchen": 618, 
  "sei": 619, 
  "fragen": 620, 
  "anders": 621, 
  "spielen": 622, 
  "unserem": 623, 
  "darum": 624, 
  "überall": 625, 
  "reden": 626, 
  "Leuten": 627, 
  "Afrika": 628, 
  "Milliarden": 629, 
  "heraus@@": 630, 
  "6@@": 631, 
  "begann": 632, 
  "ziehen": 633, 
  "manchmal": 634, 
  "kennen": 635, 
  "nächsten": 636, 
  "Energie": 637, 
  "tig": 638, 
  "Q@@": 639, 
  "30": 640, 
  "entwickelt": 641, 
  "Arten": 642, 
  "neuen": 643, 
  "seinen": 644, 
  "Planeten": 645, 
  "sagten": 646, 
  "Punkt": 647, 
  "bevor": 648, 
  "Körper": 649, 
  "teilen": 650, 
  "euch": 651, 
  "zer@@": 652, 
  "erkennen": 653, 
  "Licht": 654, 
  "Mit@@": 655, 
  "ers": 656, 
  "steht": 657, 
  "Form": 658, 
  "verschiedene": 659, 
  "ange@@": 660, 
  "nennen": 661, 
  "Schule": 662, 
  "alt": 663, 
  "deshalb": 664, 
  "gte": 665, 
  "bereits": 666, 
  "ieren": 667, 
  "3": 668, 
  "anderes": 669, 
  "liegt": 670, 
  "okay": 671, 
  "Buch": 672, 
  "je": 673, 
  "benutzen": 674, 
  "tieren": 675, 
  "oben": 676, 
  "Zu@@": 677, 
  "Lebens@@": 678, 
  "stand": 679, 
  "Minuten": 680, 
  "onen": 681, 
  "klar": 682, 
  "verändern": 683, 
  "Ä@@": 684, 
  "TED": 685, 
  "Um@@": 686, 
  "Indien": 687, 
  "fand": 688, 
  "braucht": 689, 
  ",@@": 690, 
  "100": 691, 
  "sage": 692, 
  "gerne": 693, 
  "eins": 694, 
  "machte": 695, 
  "weit": 696, 
  "Gott": 697, 
  "irgendwie": 698, 
  "ihrem": 699, 
  "Informationen": 700, 
  "musste": 701, 
  "namens": 702, 
  "hätten": 703, 
  "essen": 704, 
  "Stadt": 705, 
  "Nach@@": 706, 
  "wegen": 707, 
  "OK": 708, 
  "darin": 709, 
  "Projekt": 710, 
  "USA": 711, 
  "seinem": 712, 
  "erreichen": 713, 
  "ischer": 714, 
  "Musik": 715, 
  "besonders": 716, 
  "stellt": 717, 
  "Antwort": 718, 
  "sechs": 719, 
  "5": 720, 
  "einander": 721, 
  "Internet": 722, 
  "Ihr": 723, 
  "Natur": 724, 
  "her": 725, 
  "Gruppe": 726, 
  "New": 727, 
  "Bilder": 728, 
  "tragen": 729, 
  "gleich": 730, 
  "A": 731, 
  "soll": 732, 
  "Kopf": 733, 
  "innerhalb": 734, 
  "Möglichkeit": 735, 
  "einigen": 736, 
  "gar": 737, 
  "iert": 738, 
  "%": 739, 
  "Lebens": 740, 
  "Geschichten": 741, 
  "gleichen": 742, 
  "Hand": 743, 
  "fahren": 744, 
  "ß": 745, 
  "Familie": 746, 
  "Sachen": 747, 
  "weiter@@": 748, 
  "Design": 749, 
  "einzige": 750, 
  "Gesellschaft": 751, 
  "niemand": 752, 
  "8": 753, 
  "weg": 754, 
  "ändern": 755, 
  "bewegen": 756, 
  "Gefühl": 757, 
  "jedem": 758, 
  "Augen": 759, 
  "Sprache": 760, 
  "treffen": 761, 
  "Universum": 762, 
  "system": 763, 
  "Film": 764, 
  "vorstellen": 765, 
  "dessen": 766, 
  "entwickeln": 767, 
  "sche": 768, 
  "lichkeit": 769, 
  "obwohl": 770, 
  "Stunden": 771, 
  "gestellt": 772, 
  "dich": 773, 
  "verschiedenen": 774, 
  "beginnen": 775, 
  "Gen@@": 776, 
  "beiden": 777, 
  "Fragen": 778, 
  "China": 779, 
  "erhalten": 780, 
  "genommen": 781, 
  "setzen": 782, 
  "Vater": 783, 
  "recht": 784, 
  "weg@@": 785, 
  "nahmen": 786, 
  "Wissenschaft": 787, 
  "herum": 788, 
  "6": 789, 
  "Ö@@": 790, 
  "nämlich": 791, 
  "fühlen": 792, 
  "15": 793, 
  "getan": 794, 
  "menschlichen": 795, 
  "lässt": 796, 
  "unglaublich": 797, 
  "verwenden": 798, 
  "Länder": 799, 
  "ausge@@": 800, 
  "nimmt": 801, 
  "hoch": 802, 
  "bringt": 803, 
  "legen": 804, 
  "tut": 805, 
  "Dingen": 806, 
  "Lage": 807, 
  "schwer": 808, 
  "daher": 809, 
  "Patienten": 810, 
  "versucht": 811, 
  "bitte": 812, 
  "verändert": 813, 
  "kamen": 814, 
  "überhaupt": 815, 
  "damals": 816, 
  "1": 817, 
  "Männer": 818, 
  "7": 819, 
  "enen": 820, 
  "Kindern": 821, 
  "Oh": 822, 
  "falls": 823, 
  "it": 824, 
  "zeit": 825, 
  "Glück": 826, 
  "Regierung": 827, 
  "wohl": 828, 
  "4": 829, 
  "allem": 830, 
  "Hause": 831, 
  "zwar": 832, 
  "auszu@@": 833, 
  "schreiben": 834, 
  "wollten": 835, 
  "unten": 836, 
  "Unternehmen": 837, 
  "aller": 838, 
  "nächste": 839, 
  "besten": 840, 
  "Auto": 841, 
  "kurz": 842, 
  "Stück": 843, 
  "führt": 844, 
  "worden": 845, 
  "betrachten": 846, 
  "groß": 847, 
  "Wort": 848, 
  "eher": 849, 
  "deren": 850, 
  "Haus": 851, 
  "weitere": 852, 
  "letzte": 853, 
  "kaufen": 854, 
  "wachsen": 855, 
  "eben": 856, 
  "Kultur": 857, 
  "welches": 858, 
  "gleiche": 859, 
  "Grunde": 860, 
  "fanden": 861, 
  "lesen": 862, 
  "Y@@": 863, 
  "Macht": 864, 
  "genauso": 865, 
  "dir": 866, 
  "sterben": 867, 
  "Staaten": 868, 
  "mag": 869, 
  "schließlich": 870, 
  "Unterschied": 871, 
  "treten": 872, 
  "meines": 873, 
  "nahm": 874, 
  "Kunst": 875, 
  "findet": 876, 
  "40": 877, 
  "nachdem": 878, 
  "mögen": 879, 
  "Eltern": 880, 
  "Hilfe": 881, 
  "York": 882, 
  "to": 883, 
  "interessant": 884, 
  "suchen": 885, 
  "Video": 886, 
  "Entwicklung": 887, 
  "Tiere": 888, 
  "w": 889, 
  "jedoch": 890, 
  "bleiben": 891, 
  "falsch": 892, 
  "Sinn": 893, 
  "Spiel": 894, 
  "stellte": 895, 
  "danach": 896, 
  "eigene": 897, 
  "isches": 898, 
  "lieben": 899, 
  "erinnern": 900, 
  "Tage": 901, 
  "wahr": 902, 
  "lösen": 903, 
  "Angst": 904, 
  "Möglichkeiten": 905, 
  "voll": 906, 
  "ans": 907, 
  "Erfahrung": 908, 
  "menschliche": 909, 
  "gebracht": 910, 
  "Bau@@": 911, 
  "Grund@@": 912, 
  "Wasser@@": 913, 
  "zweite": 914, 
  "&#91;": 915, 
  "Anfang": 916, 
  "&#93;": 917, 
  "Wochen": 918, 
  "Freunde": 919, 
  "solche": 920, 
  "c": 921, 
  "Fähigkeit": 922, 
  "schön": 923, 
  "wusste": 924, 
  "wären": 925, 
  "sieben": 926, 
  "laufen": 927, 
  "Namen": 928, 
  "Schul@@": 929, 
  "frei@@": 930, 
  "gefunden": 931, 
  "besteht": 932, 
  "mussten": 933, 
  "manche": 934, 
  "neu": 935, 
  "Publikum": 936, 
  "Zellen": 937, 
  "Krebs": 938, 
  "Lehrer": 939, 
  "sollen": 940, 
  "gebaut": 941, 
  "Ziel": 942, 
  "fragte": 943, 
  "Woche": 944, 
  "gegeben": 945, 
  "CA": 946, 
  "sehe": 947, 
  "glücklich": 948, 
  "bare": 949, 
  "Spiel@@": 950, 
  "möchten": 951, 
  "innen": 952, 
  "Gebäude": 953, 
  "plötzlich": 954, 
  "hast": 955, 
  "direkt": 956, 
  "Liebe": 957, 
  "gewesen": 958, 
  "Verbindung": 959, 
  "fangen": 960, 
  "liebe": 961, 
  "Prozess": 962, 
  "Gedanken": 963, 
  "Essen": 964, 
  "mache": 965, 
  "Wirtschaft": 966, 
  "völlig": 967, 
  "zuerst": 968, 
  "Tatsache": 969, 
  "Verhalten": 970, 
  "genannt": 971, 
  "draußen": 972, 
  "zuvor": 973, 
  "Krieg": 974, 
  "Monate": 975, 
  "hinter": 976, 
  "Lösung": 977, 
  "Luft": 978, 
  "Bewegung": 979, 
  "acht": 980, 
  "Roboter": 981, 
  "anfangen": 982, 
  "daraus": 983, 
  "passieren": 984, 
  "Ihren": 985, 
  "erschaffen": 986, 
  "os": 987, 
  "S": 988, 
  "bekommt": 989, 
  "Thema": 990, 
  "brachte": 991, 
  "anderer": 992, 
  "C": 993, 
  "jemals": 994, 
  "Autos": 995, 
  "Richtung": 996, 
  "Muster": 997, 
  "scheint": 998, 
  "Mensch": 999, 
  "guten": 1000, 
  "gelernt": 1001, 
  "größte": 1002, 
  "Jahrhundert": 1003, 
  "9": 1004, 
  "Tages": 1005, 
  "kleines": 1006, 
  "zeige": 1007, 
  "geworden": 1008, 
  "tat": 1009, 
  "niemals": 1010, 
  "Technik": 1011, 
  "testen": 1012, 
  "erklären": 1013, 
  "beide": 1014, 
  "Zahl": 1015, 
  "funktionieren": 1016, 
  "zehn": 1017, 
  "unseres": 1018, 
  "miteinander": 1019, 
  "bekannt": 1020, 
  "egal": 1021, 
  "gingen": 1022, 
  "DNA": 1023, 
  "schwierig": 1024, 
  "sonst": 1025, 
  "bereit": 1026, 
  "Rück@@": 1027, 
  "Amerika": 1028, 
  "liegen": 1029, 
  "Technologien": 1030, 
  "Gemeinschaft": 1031, 
  "Anzahl": 1032, 
  "bewusst": 1033, 
  "60": 1034, 
  "leicht": 1035, 
  "gleich@@": 1036, 
  "baren": 1037, 
  "verwendet": 1038, 
  "anstatt": 1039, 
  "Modell": 1040, 
  "schlecht": 1041, 
  "beginnt": 1042, 
  "aussehen": 1043, 
  "Wissen": 1044, 
  "Schritt": 1045, 
  "Herz@@": 1046, 
  "nachdenken": 1047, 
  "arbeitet": 1048, 
  "gesprochen": 1049, 
  "Ländern": 1050, 
  "D": 1051, 
  "Situation": 1052, 
  "bilden": 1053, 
  "geschrieben": 1054, 
  "Haupt@@": 1055, 
  "fest": 1056, 
  "halb": 1057, 
  "bist": 1058, 
  "Du": 1059, 
  "Wissenschaftler": 1060, 
  "Teile": 1061, 
  "E": 1062, 
  "ums": 1063, 
  "Bildung": 1064, 
  "80": 1065, 
  "finde": 1066, 
  "Reihe": 1067, 
  "jemanden": 1068, 
  "langen": 1069, 
  "Ding": 1070, 
  "Wahrheit": 1071, 
  "HIV": 1072, 
  "aufzu@@": 1073, 
  "gezeigt": 1074, 
  "erreicht": 1075, 
  "fliegen": 1076, 
  "kleiner": 1077, 
  "of": 1078, 
  "offensichtlich": 1079, 
  "verbunden": 1080, 
  "schrieb": 1081, 
  "Meinung": 1082, 
  "gekommen": 1083, 
  "entfernt": 1084, 
  "ständig": 1085, 
  "benutzt": 1086, 
  "Ihrem": 1087, 
  "hoffe": 1088, 
  "Boden": 1089, 
  "Kraft": 1090, 
  "fallen": 1091, 
  "Bereich": 1092, 
  "Karte": 1093, 
  "-@@": 1094, 
  "Gesundheit": 1095, 
  "geschieht": 1096, 
  "Welt@@": 1097, 
  "lagen": 1098, 
  "verloren": 1099, 
  "stimmt": 1100, 
  "Vorstellung": 1101, 
  "Aufgabe": 1102, 
  "Mitgefühl": 1103, 
  "25": 1104, 
  "lebt": 1105, 
  "hoch@@": 1106, 
  "hält": 1107, 
  "trotzdem": 1108, 
  "einzu@@": 1109, 
  "Platz": 1110, 
  "ansehen": 1111, 
  "Rest": 1112, 
  "gesamte": 1113, 
  "Veränderung": 1114, 
  "Hälfte": 1115, 
  "herauszufinden": 1116, 
  "sahen": 1117, 
  "Ihrer": 1118, 
  "Gesicht": 1119, 
  "Struktur": 1120, 
  "Mitte": 1121, 
  "absolut": 1122, 
  "Rolle": 1123, 
  "Größe": 1124, 
  "nennt": 1125, 
  "geboren": 1126, 
  "denkt": 1127, 
  "Vereinigten": 1128, 
  "Tat": 1129, 
  "bewegt": 1130, 
  "gearbeitet": 1131, 
  "Umgebung": 1132, 
  "Schulen": 1133, 
  "normalerweise": 1134, 
  "sprach": 1135, 
  "Herausforderung": 1136, 
  "Selbst@@": 1137, 
  "wert": 1138, 
  "Stimme": 1139, 
  "alte": 1140, 
  "Nacht": 1141, 
  "statt": 1142, 
  "Bedeutung": 1143, 
  "beste": 1144, 
  "12": 1145, 
  "T": 1146, 
  "Foto": 1147, 
  "wann": 1148, 
  "interessiert": 1149, 
  "na": 1150, 
  "Meter": 1151, 
  "holen": 1152, 
  "Erfolg": 1153, 
  "Generation": 1154, 
  "Sonne": 1155, 
  "G": 1156, 
  "Regeln": 1157, 
  "stark": 1158, 
  "machten": 1159, 
  "Firma": 1160, 
  "soziale": 1161, 
  "Kosten": 1162, 
  "♫": 1163, 
  "allein": 1164, 
  "Oberfläche": 1165, 
  "möglichen": 1166, 
  "gleichzeitig": 1167, 
  "Preis": 1168, 
  "übrigens": 1169, 
  "Sicherheit": 1170, 
  "200": 1171, 
  "Studenten": 1172, 
  "einfache": 1173, 
  "größten": 1174, 
  "sobald": 1175, 
  "gegangen": 1176, 
  "Seiten": 1177, 
  "länger": 1178, 
  "Das": 1179, 
  "dachten": 1180, 
  "ender": 1181, 
  "komplett": 1182, 
  "Labor": 1183, 
  "schneller": 1184, 
  "Eis@@": 1185, 
  "Team": 1186, 
  "Maschine": 1187, 
  "Information": 1188, 
  "einzelne": 1189, 
  "Krankheit": 1190, 
  "sofort": 1191, 
  "Groß@@": 1192, 
  "ähnlich": 1193, 
  "gegenüber": 1194, 
  "kannst": 1195, 
  "500": 1196, 
  "anschauen": 1197, 
  "Beziehung": 1198, 
  "Google": 1199, 
  "heutzutage": 1200, 
  "passierte": 1201, 
  "Fehler": 1202, 
  "wieso": 1203, 
  "richtige": 1204, 
  "vergessen": 1205, 
  "Bücher": 1206, 
  "Europa": 1207, 
  "Ergebnis": 1208, 
  "Orte": 1209, 
  "bekam": 1210, 
  "Theorie": 1211, 
  "per": 1212, 
  "Reise": 1213, 
  "begannen": 1214, 
  "Öl": 1215, 
  "junge": 1216, 
  "Land@@": 1217, 
  "art": 1218, 
  "Straße": 1219, 
  "schließen": 1220, 
  "Studie": 1221, 
  "neues": 1222, 
  "Monaten": 1223, 
  "weltweit": 1224, 
  "Computer@@": 1225, 
  "Evolution": 1226, 
  "Material": 1227, 
  "tischer": 1228, 
  "gemeinsam": 1229, 
  "großer": 1230, 
  "bestimmt": 1231, 
  "Realität": 1232, 
  "I": 1233, 
  "wichtiger": 1234, 
  "Freund": 1235, 
  "hört": 1236, 
  "Aufmerksamkeit": 1237, 
  "bald": 1238, 
  "Wert": 1239, 
  "voller": 1240, 
  "bleibt": 1241, 
  "richtigen": 1242, 
  "Fähigkeiten": 1243, 
  "verstanden": 1244, 
  "Vortrag": 1245, 
  "Entscheidungen": 1246, 
  "produzieren": 1247, 
  "Forschung": 1248, 
  "Chris": 1249, 
  "langsam": 1250, 
  "außerdem": 1251, 
  "Gruppen": 1252, 
  "bestimmten": 1253, 
  "Gebiet": 1254, 
  "Umwelt": 1255, 
  "verlieren": 1256, 
  "Zahlen": 1257, 
  "Tagen": 1258, 
  "Markt": 1259, 
  "Arbeits@@": 1260, 
  "herum@@": 1261, 
  "außer": 1262, 
  "richten": 1263, 
  "Revolution": 1264, 
  "folgen": 1265, 
  "wichtige": 1266, 
  "selben": 1267, 
  "Ozean": 1268, 
  "ließen": 1269, 
  "vorher": 1270, 
  "Kontrolle": 1271, 
  "sitzen": 1272, 
  "formen": 1273, 
  "zumindest": 1274, 
  "Hoffnung": 1275, 
  "Wirklichkeit": 1276, 
  "nenne": 1277, 
  "Gerät": 1278, 
  "größer": 1279, 
  "läuft": 1280, 
  "diejenigen": 1281, 
  "fällt": 1282, 
  "18": 1283, 
  "geschehen": 1284, 
  "hab": 1285, 
  "weisen": 1286, 
  "versuchte": 1287, 
  "/": 1288, 
  "führte": 1289, 
  "versuche": 1290, 
  "Medien": 1291, 
  "Monat": 1292, 
  "erzählt": 1293, 
  "Kunst@@": 1294, 
  "Gesundheits@@": 1295, 
  "Blick": 1296, 
  "werfen": 1297, 
  "Stelle": 1298, 
  "irgendwo": 1299, 
  "endlich": 1300, 
  "gewinnen": 1301, 
  "deine": 1302, 
  "Spaß": 1303, 
  "links": 1304, 
  "Zeit@@": 1305, 
  "befinden": 1306, 
  "erlaubt": 1307, 
  "dadurch": 1308, 
  "erzeugen": 1309, 
  "leider": 1310, 
  "früher": 1311, 
  "gaben": 1312, 
  "wussten": 1313, 
  "M": 1314, 
  "welcher": 1315, 
  "Alter": 1316, 
  "fing": 1317, 
  "B": 1318, 
  "Ebene": 1319, 
  "Vergangenheit": 1320, 
  "abzu@@": 1321, 
  "Künstler": 1322, 
  "stecken": 1323, 
  "Herz": 1324, 
  "frage": 1325, 
  "deswegen": 1326, 
  "sammeln": 1327, 
  "Orten": 1328, 
  "großes": 1329, 
  "schicken": 1330, 
  "arten": 1331, 
  "Bevölkerung": 1332, 
  "aussieht": 1333, 
  "Grenzen": 1334, 
  "Experiment": 1335, 
  "drücken": 1336, 
  "Und": 1337, 
  "messen": 1338, 
  "arbeitete": 1339, 
  "beobachten": 1340, 
  "klein": 1341, 
  "Spezies": 1342, 
  "bessere": 1343, 
  "handelt": 1344, 
  "nachzudenken": 1345, 
  "schlagen": 1346, 
  "sowohl": 1347, 
  "herstellen": 1348, 
  "Amerikaner": 1349, 
  "ihres": 1350, 
  "Gene": 1351, 
  "frei": 1352, 
  "neben": 1353, 
  "erin": 1354, 
  "Nachricht": 1355, 
  "Nummer": 1356, 
  "0": 1357, 
  "Pflanzen": 1358, 
  "entdecken": 1359, 
  "großartige": 1360, 
  "Wahl": 1361, 
  "Meeres@@": 1362, 
  "Typ": 1363, 
  "warten": 1364, 
  "fühlt": 1365, 
  "verlassen": 1366, 
  "CO2": 1367, 
  "verbessern": 1368, 
  "Einfluss": 1369, 
  "Städte": 1370, 
  "gefragt": 1371, 
  "Programm": 1372, 
  "bestimmte": 1373, 
  "Nachrichten": 1374, 
  "steigen": 1375, 
  "Beispiele": 1376, 
  "dreht": 1377, 
  "Sekunden": 1378, 
  "raus": 1379, 
  "stelle": 1380, 
  "Job": 1381, 
  "Daten@@": 1382, 
  "halt": 1383, 
  "taten": 1384, 
  "hundert": 1385, 
  "dasselbe": 1386, 
  "Sicht": 1387, 
  "hörte": 1388, 
  "entweder": 1389, 
  "entdeckt": 1390, 
  "komme": 1391, 
  "Software": 1392, 
  "solchen": 1393, 
  "Prinzip": 1394, 
  "Dorf": 1395, 
  "Farbe": 1396, 
  "Nahrung": 1397, 
  "Ressourcen": 1398, 
  "Demokratie": 1399, 
  "Menschheit": 1400, 
  "Gewalt": 1401, 
  "Mathematik": 1402, 
  "schaut": 1403, 
  "zogen": 1404, 
  "Eis": 1405, 
  "jungen": 1406, 
  "teil": 1407, 
  "einzelnen": 1408, 
  "Zeug": 1409, 
  "gesetzt": 1410, 
  "Universität": 1411, 
  "wählen": 1412, 
  "reichen": 1413, 
  "Studien": 1414, 
  "Medizin": 1415, 
  "Hoch@@": 1416, 
  "rechts": 1417, 
  "tausende": 1418, 
  "Million": 1419, 
  "ebenso": 1420, 
  "drehen": 1421, 
  "Formen": 1422, 
  "hinaus": 1423, 
  "halte": 1424, 
  "Ordnung": 1425, 
  "aufgrund": 1426, 
  "toll": 1427, 
  "Politik": 1428, 
  "entscheiden": 1429, 
  "spricht": 1430, 
  "Sinne": 1431, 
  "Worte": 1432, 
  "zunächst": 1433, 
  "Sohn": 1434, 
  "bisher": 1435, 
  "spielt": 1436, 
  "neun": 1437, 
  "herzustellen": 1438, 
  "betrachtet": 1439, 
  "unmöglich": 1440, 
  "arbeite": 1441, 
  "verbinden": 1442, 
  "großartig": 1443, 
  "geschaffen": 1444, 
  "Tod": 1445, 
  "ebenfalls": 1446, 
  "traf": 1447, 
  "entschieden": 1448, 
  "gesamten": 1449, 
  "Produkt": 1450, 
  "außerhalb": 1451, 
  "Name": 1452, 
  "Linie": 1453, 
  "Konzept": 1454, 
  "Bakterien": 1455, 
  "riesige": 1456, 
  "erstens": 1457, 
  "setzt": 1458, 
  "Schüler": 1459, 
  "interessante": 1460, 
  "Geist": 1461, 
  "ca.": 1462, 
  "Gründe": 1463, 
  "sozialen": 1464, 
  "trifft": 1465, 
  "Personen": 1466, 
  "passt": 1467, 
  "Arm": 1468, 
  "Morgen": 1469, 
  "passen": 1470, 
  "Zeitpunkt": 1471, 
  "heben": 1472, 
  "Objekt": 1473, 
  "naja": 1474, 
  "Krankheiten": 1475, 
  "O": 1476, 
  "Gesetz": 1477, 
  "Innovation": 1478, 
  "spreche": 1479, 
  "90": 1480, 
  "z.B.": 1481, 
  "Auswirkungen": 1482, 
  "Ergebnisse": 1483, 
  "öffnen": 1484, 
  "dritte": 1485, 
  "retten": 1486, 
  "herausfinden": 1487, 
  "extrem": 1488, 
  "darf": 1489, 
  "Umwelt@@": 1490, 
  "amerikanischen": 1491, 
  "schafft": 1492, 
  "näher": 1493, 
  "Armut": 1494, 
  "Die": 1495, 
  "Religion": 1496, 
  "weiss": 1497, 
  "rund": 1498, 
  "Es": 1499, 
  "zieht": 1500, 
  "Zugang": 1501, 
  "Stunde": 1502, 
  "gehe": 1503, 
  "untersuchen": 1504, 
  "hinein": 1505, 
  "Kinder@@": 1506, 
  "Tier": 1507, 
  "leisten": 1508, 
  "Mittel": 1509, 
  "Behandlung": 1510, 
  "getroffen": 1511, 
  "Himmel": 1512, 
  "Liste": 1513, 
  "Wachstum": 1514, 
  "70": 1515, 
  "Artikel": 1516, 
  "fertig": 1517, 
  "Hände": 1518, 
  "hängt": 1519, 
  "daß": 1520, 
  "Punkte": 1521, 
  "Bühne": 1522, 
  "befindet": 1523, 
  "lasst": 1524, 
  "zweiten": 1525, 
  "Wesen": 1526, 
  "hilft": 1527, 
  "erzählte": 1528, 
  "letztes": 1529, 
  "stellten": 1530, 
  "Beginn": 1531, 
  "Biologie": 1532, 
  "Selbst": 1533, 
  "Wand": 1534, 
  "fähig": 1535, 
  "erfahren": 1536, 
  "Version": 1537, 
  "Systeme": 1538, 
  "Bewusstsein": 1539, 
  "Firmen": 1540, 
  "globalen": 1541, 
  "ehrlich": 1542, 
  "ermöglicht": 1543, 
  "Architektur": 1544, 
  "kaum": 1545, 
  "Englisch": 1546, 
  "unterschiedliche": 1547, 
  "einfachen": 1548, 
  "kenne": 1549, 
  "kostet": 1550, 
  "hielt": 1551, 
  "Fotos": 1552, 
  "Auge": 1553, 
  "ha": 1554, 
  "Meer": 1555, 
  "Licht@@": 1556, 
  "verkaufen": 1557, 
  "Virus": 1558, 
  "Verständnis": 1559, 
  "angefangen": 1560, 
  "Ahnung": 1561, 
  "Methode": 1562, 
  "Arzt": 1563, 
  "mehrere": 1564, 
  "unglaubliche": 1565, 
  "Finger": 1566, 
  "Osten": 1567, 
  "ließ": 1568, 
  "Landes": 1569, 
  "brechen": 1570, 
  "Lösungen": 1571, 
  "Papier": 1572, 
  "verrückt": 1573, 
  "Netzwerk": 1574, 
  "nehme": 1575, 
  "fuhr": 1576, 
  "geschah": 1577, 
  "Versuch": 1578, 
  "Interesse": 1579, 
  "Gehirns": 1580, 
  "Chance": 1581, 
  "U": 1582, 
  "behandeln": 1583, 
  "keiner": 1584, 
  "Zentrum": 1585, 
  "gedacht": 1586, 
  "begonnen": 1587, 
  "Bezug": 1588, 
  "schlechte": 1589, 
  "Jungen": 1590, 
  "lernte": 1591, 
  "Zustand": 1592, 
  "erfolgreich": 1593, 
  "rufen": 1594, 
  "Familien": 1595, 
  "zweitens": 1596, 
  "echte": 1597, 
  "Designer": 1598, 
  "Verantwortung": 1599, 
  "öffentlichen": 1600, 
  "dein": 1601, 
  "Entscheidung": 1602, 
  "legt": 1603, 
  "lose": 1604, 
  "zeigte": 1605, 
  "ok": 1606, 
  "erinnere": 1607, 
  "tief": 1608, 
  "fühle": 1609, 
  "Körper@@": 1610, 
  "wichtigsten": 1611, 
  "runter": 1612, 
  "Materialien": 1613, 
  "schönen": 1614, 
  "Baby": 1615, 
  "Organisation": 1616, 
  "Regierungen": 1617, 
  "stattdessen": 1618, 
  "einzigen": 1619, 
  "Projekte": 1620, 
  "16": 1621, 
  "seines": 1622, 
  "sicherlich": 1623, 
  "jemandem": 1624, 
  "Kollegen": 1625, 
  "Uhr": 1626, 
  "überleben": 1627, 
  "konzentrieren": 1628, 
  "geschafft": 1629, 
  "wenden": 1630, 
  "erwarten": 1631, 
  "Tür": 1632, 
  "Grad": 1633, 
  "Kamera": 1634, 
  "Werkzeuge": 1635, 
  "Worten": 1636, 
  "Typen": 1637, 
  "US": 1638, 
  "handeln": 1639, 
  "existiert": 1640, 
  "jene": 1641, 
  "Medikamente": 1642, 
  "guter": 1643, 
  "unterstützen": 1644, 
  "lief": 1645, 
  "Flugzeug": 1646, 
  "Region": 1647, 
  "Jahrhunderts": 1648, 
  "form": 1649, 
  "heutigen": 1650, 
  "produziert": 1651, 
  "Geschäft": 1652, 
  "verbringen": 1653, 
  "AIDS": 1654, 
  "Tisch": 1655, 
  "P": 1656, 
  "Teilen": 1657, 
  "11": 1658, 
  "W": 1659, 
  "echt": 1660, 
  "Schönheit": 1661, 
  "Tier@@": 1662, 
  "wenige": 1663, 
  "Krankenhaus": 1664, 
  "Freude": 1665, 
  "Zeiten": 1666, 
  "erfunden": 1667, 
  "Recht": 1668, 
  "Büro": 1669, 
  "Freiheit": 1670, 
  "Komplexität": 1671, 
  "Herzen": 1672, 
  "Materie": 1673, 
  "frühen": 1674, 
  "Eigenschaften": 1675, 
  "fühlte": 1676, 
  "Zusammenhang": 1677, 
  "300": 1678, 
  "Wirtschafts@@": 1679, 
  "Gehirn@@": 1680, 
  "eigenes": 1681, 
  "gutes": 1682, 
  "desto": 1683, 
  "gehalten": 1684, 
  "genutzt": 1685, 
  "K": 1686, 
  "größeren": 1687, 
  "verhalten": 1688, 
  "schützen": 1689, 
  "gebe": 1690, 
  "fängt": 1691, 
  "Farben": 1692, 
  "rechten": 1693, 
  "größere": 1694, 
  "alter": 1695, 
  "Maschinen": 1696, 
  "Tochter": 1697, 
  "gelöst": 1698, 
  "allerdings": 1699, 
  "nahe": 1700, 
  "Straßen": 1701, 
  "geführt": 1702, 
  "Geschwindigkeit": 1703, 
  "senden": 1704, 
  "vollen": 1705, 
  "irgendwann": 1706, 
  "älter": 1707, 
  "globale": 1708, 
  "Gefühle": 1709, 
  "lag": 1710, 
  "deutlich": 1711, 
  "Strom": 1712, 
  "lautet": 1713, 
  "brauchte": 1714, 
  "lebte": 1715, 
  "Wege": 1716, 
  "entschied": 1717, 
  "km": 1718, 
  "sozusagen": 1719, 
  "Denken": 1720, 
  "Reaktion": 1721, 
  "Spielen": 1722, 
  "erlauben": 1723, 
  "worüber": 1724, 
  "Universums": 1725, 
  "hart": 1726, 
  "tausend": 1727, 
  "seien": 1728, 
  "schätzen": 1729, 
  "aktiv": 1730, 
  "erwartet": 1731, 
  "erstaunlich": 1732, 
  "Kilometer": 1733, 
  "kosten": 1734, 
  "Konferenz": 1735, 
  "Traum": 1736, 
  "Regel": 1737, 
  "Netz": 1738, 
  "Westen": 1739, 
  "Einkommen": 1740, 
  "welt": 1741, 
  "gestern": 1742, 
  "bestehen": 1743, 
  "treiben": 1744, 
  "dorthin": 1745, 
  "Leidenschaft": 1746, 
  "habt": 1747, 
  "Dr.": 1748, 
  "Werte": 1749, 
  "eure": 1750, 
  "Botschaft": 1751, 
  "somit": 1752, 
  "Verfügung": 1753, 
  "Zelle": 1754, 
  "Wunsch": 1755, 
  "rechte": 1756, 
  "Freunden": 1757, 
  "vorbei": 1758, 
  "Physik": 1759, 
  "Kreativität": 1760, 
  "wiederum": 1761, 
  "Antworten": 1762, 
  "erinnert": 1763, 
  "Wörter": 1764, 
  "Sekunde": 1765, 
  "leid": 1766, 
  "dauert": 1767, 
  "veröffentlicht": 1768, 
  "John": 1769, 
  "Sex": 1770, 
  "wen": 1771, 
  "tritt": 1772, 
  "verfolgen": 1773, 
  "verkauft": 1774, 
  "dagegen": 1775, 
  "verursacht": 1776, 
  "Ärzte": 1777, 
  "Vielfalt": 1778, 
  "Position": 1779, 
  "Ansatz": 1780, 
  "Höhe": 1781, 
  "Loch": 1782, 
  "wuchs": 1783, 
  "trägt": 1784, 
  "natürliche": 1785, 
  "Fenster": 1786, 
  "Sterne": 1787, 
  "online": 1788, 
  "Fernsehen": 1789, 
  "Veränderungen": 1790, 
  "trotz": 1791, 
  "wohin": 1792, 
  "gelegt": 1793, 
  "Produkte": 1794, 
  "zeichnen": 1795, 
  "modernen": 1796, 
  "Unterschiede": 1797, 
  "Afghanistan": 1798, 
  "herausgefunden": 1799, 
  "selber": 1800, 
  "Junge": 1801, 
  "wächst": 1802, 
  "Was": 1803, 
  "Haut": 1804, 
  "Wir": 1805, 
  "Spitze": 1806, 
  "klingt": 1807, 
  "14": 1808, 
  "linken": 1809, 
  "kriegen": 1810, 
  "brachten": 1811, 
  "hoffentlich": 1812, 
  "beeinflusst": 1813, 
  "welchen": 1814, 
  "L": 1815, 
  "Infrastruktur": 1816, 
  "erstes": 1817, 
  "Gelegenheit": 1818, 
  "weiterhin": 1819, 
  "besitzen": 1820, 
  "Druck": 1821, 
  "Brot": 1822, 
  "nochmal": 1823, 
  "einfacher": 1824, 
  "Tieren": 1825, 
  "aufgenommen": 1826, 
  "Luft@@": 1827, 
  "Männern": 1828, 
  "City": 1829, 
  "benötigen": 1830, 
  "zahlen": 1831, 
  "Sommer": 1832, 
  "rein": 1833, 
  "möglicherweise": 1834, 
  "Jahres": 1835, 
  "hinein@@": 1836, 
  "24": 1837, 
  "Sprachen": 1838, 
  "erzeugt": 1839, 
  "beschäftigt": 1840, 
  "tolle": 1841, 
  "glaubt": 1842, 
  "Beziehungen": 1843, 
  "steckt": 1844, 
  "Moleküle": 1845, 
  "gestalten": 1846, 
  "behalten": 1847, 
  "vermutlich": 1848, 
  "wirst": 1849, 
  "erleben": 1850, 
  "beeinflussen": 1851, 
  "benötigt": 1852, 
  "riesigen": 1853, 
  "Abend": 1854, 
  "fragt": 1855, 
  "lebten": 1856, 
  "Milliarde": 1857, 
  "Bäume": 1858, 
  "offen": 1859, 
  "letztendlich": 1860, 
  "V": 1861, 
  "entwickelten": 1862, 
  "Wind": 1863, 
  "derzeit": 1864, 
  "London": 1865, 
  "davor": 1866, 
  "gilt": 1867, 
  "entstehen": 1868, 
  "kommunizieren": 1869, 
  "erklärt": 1870, 
  "politische": 1871, 
  "wichtigste": 1872, 
  "dieselbe": 1873, 
  "hunderte": 1874, 
  "hängen": 1875, 
  "Nähe": 1876, 
  "Hey": 1877, 
  "Suche": 1878, 
  "investieren": 1879, 
  "reich": 1880, 
  "Vergleich": 1881, 
  "Hund": 1882, 
  "scheinen": 1883, 
  "hauptsächlich": 1884, 
  "schien": 1885, 
  "tue": 1886, 
  "fiel": 1887, 
  "Filme": 1888, 
  "20.": 1889, 
  "Jungs": 1890, 
  "durchgeführt": 1891, 
  "Erfahrungen": 1892, 
  "Intelligenz": 1893, 
  "politischen": 1894, 
  "Boot": 1895, 
  "Verbindungen": 1896, 
  "steigt": 1897, 
  "Industrie": 1898, 
  "entsteht": 1899, 
  "gelangen": 1900, 
  "buchstäblich": 1901, 
  "Bildungs@@": 1902, 
  "verdienen": 1903, 
  "kontrollieren": 1904, 
  "kümmern": 1905, 
  "erforschen": 1906, 
  "sitzt": 1907, 
  "Kunden": 1908, 
  "kämpfen": 1909, 
  "ganzes": 1910, 
  "David": 1911, 
  "Soldaten": 1912, 
  "alleine": 1913, 
  "lass": 1914, 
  "zog": 1915, 
  "Risiko": 1916, 
  "vollständig": 1917, 
  "entlang": 1918, 
  "behandelt": 1919, 
  "schöne": 1920, 
  "gelassen": 1921, 
  "Finanz@@": 1922, 
  "heisst": 1923, 
  "baut": 1924, 
  "bitten": 1925, 
  "sodass": 1926, 
  "wisst": 1927, 
  "Strukturen": 1928, 
  "meistens": 1929, 
  "Bedingungen": 1930, 
  "ändert": 1931, 
  "woher": 1932, 
  "reagieren": 1933, 
  "nächstes": 1934, 
  "Masse": 1935, 
  "bezahlen": 1936, 
  "Herr": 1937, 
  "weiteren": 1938, 
  "töten": 1939, 
  "täglich": 1940, 
  "unbedingt": 1941, 
  "laut": 1942, 
  "beschreiben": 1943, 
  "betrifft": 1944, 
  "mögliche": 1945, 
  "Spiele": 1946, 
  "wissenschaftliche": 1947, 
  "zufällig": 1948, 
  "vollkommen": 1949, 
  "oh": 1950, 
  "Museum": 1951, 
  "dennoch": 1952, 
  "cool": 1953, 
  "starb": 1954, 
  "hielten": 1955, 
  "Augen@@": 1956, 
  "saß": 1957, 
  "gefallen": 1958, 
  "glücklicherweise": 1959, 
  "Hintergrund": 1960, 
  "gewonnen": 1961, 
  "Karten": 1962, 
  "dauern": 1963, 
  "Gesetze": 1964, 
  "könnt": 1965, 
  "liebt": 1966, 
  "gezogen": 1967, 
  "losen": 1968, 
  "Familien@@": 1969, 
  "praktisch": 1970, 
  "Modelle": 1971, 
  "hergestellt": 1972, 
  "ermöglichen": 1973, 
  "unterschiedlichen": 1974, 
  "brauche": 1975, 
  "Fortschritt": 1976, 
  "reicht": 1977, 
  "eingesetzt": 1978, 
  "verbreitet": 1979, 
  "morgen": 1980, 
  "Gesellschaften": 1981, 
  "Insekten": 1982, 
  "Galaxien": 1983, 
  "euer": 1984, 
  "Meilen": 1985, 
  "weiteres": 1986, 
  "Lebewesen": 1987, 
  "wunderbare": 1988, 
  "erstellen": 1989, 
  "Plan": 1990, 
  "Großbritannien": 1991, 
  "Teilchen": 1992, 
  "begeistert": 1993, 
  "Ü@@": 1994, 
  "Test": 1995, 
  "400": 1996, 
  "Energie@@": 1997, 
  "irgendetwas": 1998, 
  "Unterstützung": 1999, 
  "Kommunikation": 2000, 
  "Mond": 2001, 
  "Fisch": 2002, 
  "bieten": 2003, 
  "neuer": 2004, 
  "2000": 2005, 
  "besseren": 2006, 
  "Sorgen": 2007, 
  "Klimawandel": 2008, 
  "sucht": 2009, 
  "sorgen": 2010, 
  "kürzlich": 2011, 
  "Blut": 2012, 
  "Massen@@": 2013, 
  "R": 2014, 
  "kurze": 2015, 
  "Aktivität": 2016, 
  "falsche": 2017, 
  "Fische": 2018, 
  "anderem": 2019, 
  "Klasse": 2020, 
  "übertragen": 2021, 
  "$": 2022, 
  "dürfen": 2023, 
  "45": 2024, 
  "Atmosphäre": 2025, 
  "basiert": 2026, 
  "lieber": 2027, 
  "stieg": 2028, 
  "unternehmen": 2029, 
  "weder": 2030, 
  "Handy": 2031, 
  "Videos": 2032, 
  "Japan": 2033, 
  "fingen": 2034, 
  "Norden": 2035, 
  "gehabt": 2036, 
  "kennt": 2037, 
  "herunter@@": 2038, 
  "Haufen": 2039, 
  "getötet": 2040, 
  "Frieden": 2041, 
  "Basis": 2042, 
  "abhängig": 2043, 
  "gerät": 2044, 
  "sichtbar": 2045, 
  "Ausdruck": 2046, 
  "erzähle": 2047, 
  "H": 2048, 
  "Geräte": 2049, 
  "nannte": 2050, 
  "Händen": 2051, 
  "gruppe": 2052, 
  "perfekt": 2053, 
  "Problemen": 2054, 
  "starke": 2055, 
  "umgehen": 2056, 
  "normale": 2057, 
  "verbracht": 2058, 
  "The": 2059, 
  "10.000": 2060, 
  "verhindern": 2061, 
  "tauchen": 2062, 
  "Telefon": 2063, 
  "erkannte": 2064, 
  "13": 2065, 
  "rief": 2066, 
  "zählen": 2067, 
  "Werkzeug": 2068, 
  "Phänomen": 2069, 
  "ungs": 2070, 
  "Lieblings@@": 2071, 
  "Gefängnis": 2072, 
  "Web": 2073, 
  "gehören": 2074, 
  "hohen": 2075, 
  "verantwortlich": 2076, 
  "dritten": 2077, 
  "Bildern": 2078, 
  "amerikanische": 2079, 
  "entwickelte": 2080, 
  "jährige": 2081, 
  "Emotionen": 2082, 
  "las": 2083, 
  "Schmerz": 2084, 
  "September": 2085, 
  "dienen": 2086, 
  "Gründen": 2087, 
  "Objekte": 2088, 
  "Richard": 2089, 
  "Vision": 2090, 
  "gelesen": 2091, 
  "hinweg": 2092, 
  "wirkt": 2093, 
  "Organisationen": 2094, 
  "Großteil": 2095, 
  "Schluss": 2096, 
  "spüren": 2097, 
  "gespielt": 2098, 
  "setzte": 2099, 
  "brauchten": 2100, 
  "Gedanke": 2101, 
  "Irak": 2102, 
  "wirtschaftlichen": 2103, 
  "spiele": 2104, 
  "usw.": 2105, 
  "versuchten": 2106, 
  "Jobs": 2107, 
  "Schwester": 2108, 
  "Experten": 2109, 
  "überzeugt": 2110, 
  "Qualität": 2111, 
  "San": 2112, 
  "dahin": 2113, 
  "Zusammenarbeit": 2114, 
  "interagieren": 2115, 
  "Lied": 2116, 
  "gewissen": 2117, 
  "häufig": 2118, 
  "aufhören": 2119, 
  "weißt": 2120, 
  "tem": 2121, 
  "Nutzen": 2122, 
  "total": 2123, 
  "echten": 2124, 
  "Fällen": 2125, 
  "Ecke": 2126, 
  "Nationen": 2127, 
  "fort": 2128, 
  "unterscheiden": 2129, 
  "musst": 2130, 
  "Lernen": 2131, 
  "Babys": 2132, 
  "verbreiten": 2133, 
  "gewisse": 2134, 
  "Mars": 2135, 
  "Experimente": 2136, 
  "starten": 2137, 
  "sowie": 2138, 
  "150": 2139, 
  "Kern@@": 2140, 
  "jährigen": 2141, 
  "Forschungs@@": 2142, 
  "entwerfen": 2143, 
  "Ausbildung": 2144, 
  "Patient": 2145, 
  "Städten": 2146, 
  "Charakter": 2147, 
  "leiden": 2148, 
  "Bildschirm": 2149, 
  "Gewicht": 2150, 
  "schaute": 2151, 
  "Begriff": 2152, 
  "Ton": 2153, 
  "Neuronen": 2154, 
  "systeme": 2155, 
  "wunderbar": 2156, 
  "existieren": 2157, 
  "drin": 2158, 
  "Leistung": 2159, 
  "lernt": 2160, 
  "normalen": 2161, 
  "600": 2162, 
  "bedeuten": 2163, 
  "gestorben": 2164, 
  "ernst": 2165, 
  "Gegenteil": 2166, 
  "Organismen": 2167, 
  "Details": 2168, 
  "wissenschaftlichen": 2169, 
  "soviel": 2170, 
  "mindestens": 2171, 
  "Knochen": 2172, 
  "Individuen": 2173, 
  "erster": 2174, 
  "roten": 2175, 
  "Herausforderungen": 2176, 
  "mitten": 2177, 
  "Waffen": 2178, 
  "Affen": 2179, 
  "definieren": 2180, 
  "sparen": 2181, 
  "Kontakt": 2182, 
  "sowas": 2183, 
  "Feuer": 2184, 
  "drüben": 2185, 
  "5.000": 2186, 
  "entspricht": 2187, 
  "Wahrscheinlichkeit": 2188, 
  "Kampf": 2189, 
  "Beine": 2190, 
  "lachen": 2191, 
  "Verstand": 2192, 
  "Mütter": 2193, 
  "hohe": 2194, 
  "Einsatz": 2195, 
  "bestimmen": 2196, 
  "treibt": 2197, 
  "Polizei": 2198, 
  "verwandeln": 2199, 
  "Gemeinde": 2200, 
  "Minute": 2201, 
  "bezahlt": 2202, 
  "Erkenntnis": 2203, 
  "nah": 2204, 
  "genauer": 2205, 
  "bekannten": 2206, 
  "schlimmer": 2207, 
  "Kontext": 2208, 
  "lustig": 2209, 
  "Baum": 2210, 
  "überzeugen": 2211, 
  "Präsident": 2212, 
  "Fleisch": 2213, 
  "ähnliche": 2214, 
  "Sauerstoff": 2215, 
  "vergleichen": 2216, 
  "Nachbarn": 2217, 
  "gefangen": 2218, 
  "Fluss": 2219, 
  "Opfer": 2220, 
  "relativ": 2221, 
  "Geburt": 2222, 
  "grundlegende": 2223, 
  "bemerkt": 2224, 
  "17": 2225, 
  "Ameisen": 2226, 
  "Einstein": 2227, 
  "arbeiteten": 2228, 
  "Stufe": 2229, 
  "quasi": 2230, 
  "grosse": 2231, 
  "Facebook": 2232, 
  "Lern@@": 2233, 
  "Gegensatz": 2234, 
  "Perspektive": 2235, 
  "grundsätzlich": 2236, 
  "reisen": 2237, 
  "spielte": 2238, 
  "Institutionen": 2239, 
  "meiste": 2240, 
  "Iran": 2241, 
  "Code": 2242, 
  "morgens": 2243, 
  "stolz": 2244, 
  "Themen": 2245, 
  "Effekt": 2246, 
  "Washington": 2247, 
  "geschickt": 2248, 
  "früh": 2249, 
  "führten": 2250, 
  "Partner": 2251, 
  "Zeichen": 2252, 
  "Times": 2253, 
  "the": 2254, 
  "Körpers": 2255, 
  "nötig": 2256, 
  "Staat": 2257, 
  "jedenfalls": 2258, 
  "wirken": 2259, 
  "aufbauen": 2260, 
  "rede": 2261, 
  "fragten": 2262, 
  "Ihres": 2263, 
  "müsste": 2264, 
  "s.": 2265, 
  "Website": 2266, 
  "seitdem": 2267, 
  "Fuß": 2268, 
  "Generationen": 2269, 
  "Krise": 2270, 
  "springen": 2271, 
  "beinahe": 2272, 
  "Wandel": 2273, 
  "Netzwerke": 2274, 
  "College": 2275, 
  "zerstören": 2276, 
  "hoffen": 2277, 
  "durchschnittliche": 2278, 
  "höher": 2279, 
  "notwendig": 2280, 
  "dran": 2281, 
  "Anderson": 2282, 
  "doppelt": 2283, 
  "verbindet": 2284, 
  "Kerl": 2285, 
  "Al": 2286, 
  "krank": 2287, 
  "einsetzen": 2288, 
  "einiger": 2289, 
  "Elemente": 2290, 
  "Drittel": 2291, 
  "wenigen": 2292, 
  "99": 2293, 
  "nutzt": 2294, 
  "gefährlich": 2295, 
  "England": 2296, 
  "gewöhnlich": 2297, 
  "verteilt": 2298, 
  "Der": 2299, 
  "öffnet": 2300, 
  "Eindruck": 2301, 
  "Feld": 2302, 
  "anwenden": 2303, 
  "Erklärung": 2304, 
  "normal": 2305, 
  "Werbung": 2306, 
  "modell": 2307, 
  "Spieler": 2308, 
  "verschwinden": 2309, 
  "solch": 2310, 
  "stammt": 2311, 
  "Forscher": 2312, 
  "Beste": 2313, 
  "interessieren": 2314, 
  "westlichen": 2315, 
  "entstanden": 2316, 
  "stimmen": 2317, 
  "Augenblick": 2318, 
  "Planet": 2319, 
  "National": 2320, 
  "Titel": 2321, 
  "Weile": 2322, 
  "kurzen": 2323, 
  "sprachen": 2324, 
  "Karriere": 2325, 
  "natürlichen": 2326, 
  "fördern": 2327, 
  "achten": 2328, 
  "Hinsicht": 2329, 
  "bekamen": 2330, 
  "erscheinen": 2331, 
  "Zimmer": 2332, 
  "Funktion": 2333, 
  "welchem": 2334, 
  "N": 2335, 
  "verfügbar": 2336, 
  "wirklichen": 2337, 
  "erhält": 2338, 
  "wobei": 2339, 
  "beantworten": 2340, 
  "MIT": 2341, 
  "persönlich": 2342, 
  "Grenze": 2343, 
  "klasse": 2344, 
  "Vorteil": 2345, 
  "Vorfahren": 2346, 
  "annehmen": 2347, 
  "studieren": 2348, 
  "trinken": 2349, 
  "wesentlich": 2350, 
  "Rede": 2351, 
  "Viren": 2352, 
  "Vertrauen": 2353, 
  "Ansicht": 2354, 
  "Bienen": 2355, 
  "feststellen": 2356, 
  "Aufgaben": 2357, 
  "folgt": 2358, 
  "3D": 2359, 
  "Unternehmer": 2360, 
  "Glauben": 2361, 
  "Bürger": 2362, 
  "Schlüssel": 2363, 
  "fährt": 2364, 
  "Quelle": 2365, 
  "Bewegungen": 2366, 
  "Landwirtschaft": 2367, 
  "Gefahr": 2368, 
  "Plastik": 2369, 
  "wichtigen": 2370, 
  "rein@@": 2371, 
  "Kalifornien": 2372, 
  "beschlossen": 2373, 
  "Stellen": 2374, 
  "Linien": 2375, 
  "Bill": 2376, 
  "Nation": 2377, 
  "Vögel": 2378, 
  "Maus": 2379, 
  "gäbe": 2380, 
  "armen": 2381, 
  "erkennt": 2382, 
  "kurzem": 2383, 
  "übrig": 2384, 
  "hinten": 2385, 
  "Rücken": 2386, 
  "höre": 2387, 
  "Galaxie": 2388, 
  "Laufe": 2389, 
  "selten": 2390, 
  "Temperatur": 2391, 
  "Wunder": 2392, 
  "gebeten": 2393, 
  "Kaffee": 2394, 
  "erscheint": 2395, 
  "Internet@@": 2396, 
  "persönlichen": 2397, 
  "Sicherheits@@": 2398, 
  "wahre": 2399, 
  "Arbeiten": 2400, 
  "halbe": 2401, 
  "zuhören": 2402, 
  "Gewebe": 2403, 
  "willst": 2404, 
  "Dinosaurier": 2405, 
  "versteht": 2406, 
  "besondere": 2407, 
  "danken": 2408, 
  "Zweck": 2409, 
  "öffentliche": 2410, 
  "solange": 2411, 
  "Rahmen": 2412, 
  "Genom": 2413, 
  "vorne": 2414, 
  "35": 2415, 
  "insbesondere": 2416, 
  "wirtschaftliche": 2417, 
  "Mund": 2418, 
  "Schutz": 2419, 
  "vertraut": 2420, 
  "Mission": 2421, 
  "Verhältnis": 2422, 
  "lediglich": 2423, 
  "verbrachte": 2424, 
  "aufgebaut": 2425, 
  "Kindheit": 2426, 
  "Wald": 2427, 
  "schlechten": 2428, 
  "Tausende": 2429, 
  "standen": 2430, 
  "Identität": 2431, 
  "dunkle": 2432, 
  "wirkliche": 2433, 
  "Satz": 2434, 
  "Folie": 2435, 
  "Elektrizität": 2436, 
  "Präsentation": 2437, 
  "vertrauen": 2438, 
  "unabhängig": 2439, 
  "erstaunliche": 2440, 
  "Gehirne": 2441, 
  "bloß": 2442, 
  "brach": 2443, 
  "Südafrika": 2444, 
  "Großmutter": 2445, 
  "bezüglich": 2446, 
  "gefällt": 2447, 
  "Damen": 2448, 
  "schwarze": 2449, 
  "Produktion": 2450, 
  "Ziele": 2451, 
  "Dimensionen": 2452, 
  "unterschiedlich": 2453, 
  "Freundin": 2454, 
  "Folge": 2455, 
  "Zeitalter": 2456, 
  "trug": 2457, 
  "Potential": 2458, 
  "probieren": 2459, 
  "steuern": 2460, 
  "Herren": 2461, 
  "Insel": 2462, 
  "X": 2463, 
  "blieb": 2464, 
  "Wie": 2465, 
  "Bereiche": 2466, 
  "folgendes": 2467, 
  "aufregend": 2468, 
  "erlebt": 2469, 
  "überrascht": 2470, 
  "Mexiko": 2471, 
  "aufzubauen": 2472, 
  "berührt": 2473, 
  "selbe": 2474, 
  "wechseln": 2475, 
  "Bereichen": 2476, 
  "deinen": 2477, 
  "gegründet": 2478, 
  "Bruder": 2479, 
  "langer": 2480, 
  "Charles": 2481, 
  "Anwendung": 2482, 
  "Zeitung": 2483, 
  "Klang": 2484, 
  "angesehen": 2485, 
  "Kreis": 2486, 
  "bereich": 2487, 
  "dar": 2488, 
  "lebenden": 2489, 
  "Malaria": 2490, 
  "Bett": 2491, 
  "reduzieren": 2492, 
  "positive": 2493, 
  "Ganze": 2494, 
  "lasse": 2495, 
  "Statistiken": 2496, 
  "verstand": 2497, 
  "medizinische": 2498, 
  "Zivilisation": 2499, 
  "Israel": 2500, 
  "Helden": 2501, 
  "grossen": 2502, 
  "beschäftigen": 2503, 
  "Methoden": 2504, 
  "beobachtet": 2505, 
  "Kulturen": 2506, 
  "beinhaltet": 2507, 
  "See": 2508, 
  "Webseite": 2509, 
  "gesund": 2510, 
  "selbstverständlich": 2511, 
  "vermitteln": 2512, 
  "traditionellen": 2513, 
  "besuchen": 2514, 
  "menschliches": 2515, 
  "Inhalt": 2516, 
  "Stammzellen": 2517, 
  "Hallo": 2518, 
  "seht": 2519, 
  "Operation": 2520, 
  "Stimmen": 2521, 
  "zerstört": 2522, 
  "Medikament": 2523, 
  "berichten": 2524, 
  "persönliche": 2525, 
  "moderne": 2526, 
  "fantastisch": 2527, 
  "Schwierigkeiten": 2528, 
  "angenommen": 2529, 
  "anstelle": 2530, 
  "Nein": 2531, 
  "Wesentlichen": 2532, 
  "komplexe": 2533, 
  "Kräfte": 2534, 
  "Wahrnehmung": 2535, 
  "bietet": 2536, 
  "Wikipedia": 2537, 
  "NASA": 2538, 
  "inspiriert": 2539, 
  "Molekül": 2540, 
  "Nicht": 2541, 
  "gelebt": 2542, 
  "Fälle": 2543, 
  "Religionen": 2544, 
  "malen": 2545, 
  "entfernen": 2546, 
  "entworfen": 2547, 
  "menschlicher": 2548, 
  "Ozeane": 2549, 
  "stärker": 2550, 
  "müssten": 2551, 
  "einiges": 2552, 
  "besitzt": 2553, 
  "Aspekt": 2554, 
  "tot": 2555, 
  "erwähnt": 2556, 
  "verstehe": 2557, 
  "ansieht": 2558, 
  "moralische": 2559, 
  "Gesichter": 2560, 
  "effektiv": 2561, 
  "geändert": 2562, 
  "Show": 2563, 
  "singen": 2564, 
  "Zitat": 2565, 
  "wofür": 2566, 
  "nützlich": 2567, 
  "schaue": 2568, 
  "schlechter": 2569, 
  "Entdeckung": 2570, 
  "Gegend": 2571, 
  "erfinden": 2572, 
  "erkannt": 2573, 
  "unterstützt": 2574, 
  "wovon": 2575, 
  "Öffentlichkeit": 2576, 
  "soweit": 2577, 
  "Politiker": 2578, 
  "atmen": 2579, 
  "schwimmen": 2580, 
  "Twitter": 2581, 
  "teuer": 2582, 
  "erstellt": 2583, 
  "leiten": 2584, 
  "bestand": 2585, 
  "blau": 2586, 
  "Konflikt": 2587, 
  "momentan": 2588, 
  "seid": 2589, 
  "vorhanden": 2590, 
  "entdeckte": 2591, 
  "gebraucht": 2592, 
  "Zucker": 2593, 
  "inzwischen": 2594, 
  "Beweise": 2595, 
  "bat": 2596, 
  "gekauft": 2597, 
  "kreieren": 2598, 
  "Glas": 2599, 
  "gegenseitig": 2600, 
  "dieselben": 2601, 
  "Diagramm": 2602, 
  "ergibt": 2603, 
  "trafen": 2604, 
  "Laptop": 2605, 
  "beispielsweise": 2606, 
  "2008": 2607, 
  "Neues": 2608, 
  "Film@@": 2609, 
  "Landschaft": 2610, 
  "wieviel": 2611, 
  "Theater": 2612, 
  "darstellen": 2613, 
  "worauf": 2614, 
  "realen": 2615, 
  "Gen": 2616, 
  "genetische": 2617, 
  "arm": 2618, 
  "Gesundheitswesen": 2619, 
  "Definition": 2620, 
  "Bedürfnisse": 2621, 
  "21.": 2622, 
  "Absicht": 2623, 
  "Löcher": 2624, 
  "digitalen": 2625, 
  "Kabel": 2626, 
  "gründen": 2627, 
  "zugänglich": 2628, 
  "anfing": 2629, 
  "Beweis": 2630, 
  "Tests": 2631, 
  "beweisen": 2632, 
  "angeht": 2633, 
  "Euch": 2634, 
  "unterrichten": 2635, 
  "Wüste": 2636, 
  "Afrikas": 2637, 
  "Armen": 2638, 
  "irgendjemand": 2639, 
  "Golf": 2640, 
  "heißen": 2641, 
  "seltsam": 2642, 
  "Träume": 2643, 
  "Stand": 2644, 
  "Grafik": 2645, 
  "Stücke": 2646, 
  "woran": 2647, 
  "Metapher": 2648, 
  "enorme": 2649, 
  "Gottes": 2650, 
  "Rätsel": 2651, 
  "schauten": 2652, 
  "Pakistan": 2653, 
  "enthalten": 2654, 
  "Stuhl": 2655, 
  "arme": 2656, 
  "Harvard": 2657, 
  "wenigstens": 2658, 
  "hierher": 2659, 
  "Nase": 2660, 
  "Chemie": 2661, 
  "anschaut": 2662, 
  "suchte": 2663, 
  "Verbreitung": 2664, 
  "Kern": 2665, 
  "bemerken": 2666, 
  "Signale": 2667, 
  "Kohlenstoff": 2668, 
  "Unterhaltung": 2669, 
  "bekomme": 2670, 
  "Wow": 2671, 
  "Mikroben": 2672, 
  "dauerte": 2673, 
  "ernsthaft": 2674, 
  "Wirkung": 2675, 
  "Nigeria": 2676, 
  "darstellt": 2677, 
  "rot": 2678, 
  "Gerechtigkeit": 2679, 
  "afrikanischen": 2680, 
  "Darwin": 2681, 
  "Pinguine": 2682, 
  "Entwicklungsländern": 2683, 
  "Chemikalien": 2684, 
  "Pfund": 2685, 
  "75": 2686, 
  "kompliziert": 2687, 
  "automatisch": 2688, 
  "schreibt": 2689, 
  "blauen": 2690, 
  "11.": 2691, 
  "zweimal": 2692, 
  "wirft": 2693, 
  "teilweise": 2694, 
  "meinte": 2695, 
  "Resultat": 2696, 
  "mittlerweile": 2697, 
  "vieles": 2698, 
  "akzeptieren": 2699, 
  "freie": 2700, 
  "positiv": 2701, 
  "weißen": 2702, 
  "School": 2703, 
  "setzten": 2704, 
  "worum": 2705, 
  "überraschend": 2706, 
  "Erfindung": 2707, 
  "Francisco": 2708, 
  "hörten": 2709, 
  "rote": 2710, 
  "digitale": 2711, 
  "vorzustellen": 2712, 
  "Magie": 2713, 
  "froh": 2714, 
  "freien": 2715, 
  "Sand": 2716, 
  "High": 2717, 
  "Abschluss": 2718, 
  "baute": 2719, 
  "darunter": 2720, 
  "Bibel": 2721, 
  "Ausmaß": 2722, 
  "Häuser": 2723, 
  "Islam": 2724, 
  "zusätzlich": 2725, 
  "Strategie": 2726, 
  "außen": 2727, 
  "ersetzen": 2728, 
  "Text": 2729, 
  "durchführen": 2730, 
  "überlegen": 2731, 
  "verbessert": 2732, 
  "lokalen": 2733, 
  "folgende": 2734, 
  "Annahme": 2735, 
  "Professor": 2736, 
  "J": 2737, 
  "Grundlage": 2738, 
  "Kontinent": 2739, 
  "Werk": 2740, 
  "Achse": 2741, 
  "X@@": 2742, 
  "großartigen": 2743, 
  "Gemeinden": 2744, 
  "Online": 2745, 
  "beibringen": 2746, 
  "liebte": 2747, 
  "unglaublichen": 2748, 
  "Gemeinschaften": 2749, 
  "gefahren": 2750, 
  "mach": 2751, 
  "kannte": 2752, 
  "manchen": 2753, 
  "solcher": 2754, 
  "auseinander": 2755, 
  "schrecklich": 2756, 
  "Maßstab": 2757, 
  "besorgt": 2758, 
  "gebildet": 2759, 
  "Existenz": 2760, 
  "untersucht": 2761, 
  "Führer": 2762, 
  "Brust": 2763, 
  "Phase": 2764, 
  "kostenlos": 2765, 
  "Momente": 2766, 
  "aufnehmen": 2767, 
  "Tradition": 2768, 
  "nebenbei": 2769, 
  "perfekte": 2770, 
  "bauten": 2771, 
  "glaubte": 2772, 
  "Level": 2773, 
  "Restaurant": 2774, 
  "irgendeine": 2775, 
  "Mitarbeiter": 2776, 
  "Kombination": 2777, 
  "Untersuchung": 2778, 
  "derselben": 2779, 
  "genetischen": 2780, 
  "Bank": 2781, 
  "Tumor": 2782, 
  "Schaden": 2783, 
  "Situationen": 2784, 
  "Kampagne": 2785, 
  "Ereignis": 2786, 
  "zeigten": 2787, 
  "Proteine": 2788, 
  "dank": 2789, 
  "Park": 2790, 
  "Zähne": 2791, 
  "internationalen": 2792, 
  "hervor": 2793, 
  "eingeführt": 2794, 
  "scheinbar": 2795, 
  "chinesische": 2796, 
  "grünen": 2797, 
  "beenden": 2798, 
  "organisieren": 2799, 
  "Fortschritte": 2800, 
  "Brücke": 2801, 
  "Aussage": 2802, 
  "funktionierte": 2803, 
  "Kapital": 2804, 
  "erweitern": 2805, 
  "fasziniert": 2806, 
  "äußerst": 2807, 
  "gewählt": 2808, 
  "Schimpansen": 2809, 
  "Tonnen": 2810, 
  "Bauern": 2811, 
  "19.": 2812, 
  "Krieges": 2813, 
  "Michael": 2814, 
  "behaupten": 2815, 
  "überwinden": 2816, 
  "Chinesen": 2817, 
  "womit": 2818, 
  "voneinander": 2819, 
  "wartet": 2820, 
  "Kenia": 2821, 
  "vorbereitet": 2822, 
  "vermeiden": 2823, 
  "erhöhen": 2824, 
  "biologische": 2825, 
  "landen": 2826, 
  "Verlust": 2827, 
  "Open": 2828, 
  "DH": 2829, 
  "Mehrheit": 2830, 
  "übernehmen": 2831, 
  "eindeutig": 2832, 
  "komm": 2833, 
  "wem": 2834, 
  "Rechte": 2835, 
  "Küste": 2836, 
  "Regionen": 2837, 
  "konzentriert": 2838, 
  "George": 2839, 
  "Programme": 2840, 
  "Faktor": 2841, 
  "dargestellt": 2842, 
  "Lektion": 2843, 
  "Motor": 2844, 
  "Geheimnis": 2845, 
  "Architekten": 2846, 
  "zählt": 2847, 
  "weshalb": 2848, 
  "Emissionen": 2849, 
  "Band": 2850, 
  "enorm": 2851, 
  "Fakten": 2852, 
  "schlafen": 2853, 
  "nationale": 2854, 
  "Versuche": 2855, 
  "Ja": 2856, 
  "trat": 2857, 
  "wünschte": 2858, 
  "elektrische": 2859, 
  "speziellen": 2860, 
  "enthält": 2861, 
  "nachgedacht": 2862, 
  "Anteil": 2863, 
  "beschloss": 2864, 
  "Diskussion": 2865, 
  "fehlt": 2866, 
  "Garten": 2867, 
  "weiterer": 2868, 
  "Folgendes": 2869, 
  "kaufte": 2870, 
  "entstand": 2871, 
  "50.000": 2872, 
  "Vorteile": 2873, 
  "1.000": 2874, 
  "nett": 2875, 
  "Nachbarschaft": 2876, 
  "Stärke": 2877, 
  "lebe": 2878, 
  "Tiefe": 2879, 
  "besessen": 2880, 
  "lebende": 2881, 
  "Potenzial": 2882, 
  "Gras": 2883, 
  "Vorstellungen": 2884, 
  "stoppen": 2885, 
  "UN": 2886, 
  "Respekt": 2887, 
  "aufgewachsen": 2888, 
  "spezielle": 2889, 
  "Buchstaben": 2890, 
  "Afrikaner": 2891, 
  "Weltraum": 2892, 
  "aufs": 2893, 
  "gewisser": 2894, 
  "folgenden": 2895, 
  "Schritte": 2896, 
  "Gutes": 2897, 
  "meist": 2898, 
  "basierend": 2899, 
  "Durchschnitt": 2900, 
  "Art.": 2901, 
  "Mail": 2902, 
  "Mengen": 2903, 
  "liefern": 2904, 
  "Vorstellungskraft": 2905, 
  "tausenden": 2906, 
  "James": 2907, 
  "Haie": 2908, 
  "verglichen": 2909, 
  "blaue": 2910, 
  "gemeinsame": 2911, 
  "Kirche": 2912, 
  "Schuhe": 2913, 
  "Steve": 2914, 
  "Dach": 2915, 
  "Laden": 2916, 
  "veränderte": 2917, 
  "medizinischen": 2918, 
  "Wohlstand": 2919, 
  "BF": 2920, 
  "legte": 2921, 
  "ausgeben": 2922, 
  "weltweiten": 2923, 
  "Los": 2924, 
  "100.000": 2925, 
  "stehe": 2926, 
  "zufrieden": 2927, 
  "lehren": 2928, 
  "Handel": 2929, 
  "eingeladen": 2930, 
  "schwarzen": 2931, 
  "langsamer": 2932, 
  "YouTube": 2933, 
  "fantastische": 2934, 
  "aufgeregt": 2935, 
  "gelangt": 2936, 
  "Gebiete": 2937, 
  "genügend": 2938, 
  "anhand": 2939, 
  "Prinzipien": 2940, 
  "machst": 2941, 
  "gesammelt": 2942, 
  "dahinter": 2943, 
  "Chaos": 2944, 
  "Lager": 2945, 
  "Jahrzehnt": 2946, 
  "internationale": 2947, 
  "Kameras": 2948, 
  "Konsequenzen": 2949, 
  "Signal": 2950, 
  "ausgesetzt": 2951, 
  "hinzu": 2952, 
  "World": 2953, 
  "geholfen": 2954, 
  "starben": 2955, 
  "Ägypten": 2956, 
  "Gleiche": 2957, 
  "unterwegs": 2958, 
  "Einfachheit": 2959, 
  "2005": 2960, 
  "lebendig": 2961, 
  "Quellen": 2962, 
  "einst": 2963, 
  "Darstellung": 2964, 
  "bezeichnet": 2965, 
  "gemessen": 2966, 
  "Nun": 2967, 
  "Schicht": 2968, 
  "grüne": 2969, 
  "Entfernung": 2970, 
  "mittels": 2971, 
  "Witz": 2972, 
  "hieß": 2973, 
  "Rand": 2974, 
  "verschwunden": 2975, 
  "Gegenwart": 2976, 
  "jener": 2977, 
  "mitnehmen": 2978, 
  "Innovationen": 2979, 
  "betrieben": 2980, 
  "Gang": 2981, 
  "Paul": 2982, 
  "betreiben": 2983, 
  "Grippe": 2984, 
  "Bedrohung": 2985, 
  "verwandelt": 2986, 
  "bezeichnen": 2987, 
  "Wenn": 2988, 
  "Volk": 2989, 
  "Wagen": 2990, 
  "verfolgt": 2991, 
  "Ingenieure": 2992, 
  "Ohren": 2993, 
  "Chancen": 2994, 
  "bemerkenswert": 2995, 
  "kontrolliert": 2996, 
  "junger": 2997, 
  "Küche": 2998, 
  "Bau": 2999, 
  "Seele": 3000, 
  "Apple": 3001, 
  "DNS": 3002, 
  "andererseits": 3003, 
  "Risiken": 3004, 
  "Überleben": 3005, 
  "Aspekte": 3006, 
  "Willen": 3007, 
  "letztlich": 3008, 
  "vierte": 3009, 
  "Gemälde": 3010, 
  "ähnlichen": 3011, 
  "faszinierend": 3012, 
  "Schuld": 3013, 
  "etc.": 3014, 
  "Epidemie": 3015, 
  "Schweden": 3016, 
  "Polio": 3017, 
  "starken": 3018, 
  "B.": 3019, 
  "Haiti": 3020, 
  "Räume": 3021, 
  "Obama": 3022, 
  "Ernährung": 3023, 
  "Computern": 3024, 
  "Deutschland": 3025, 
  "Müll": 3026, 
  "Süden": 3027, 
  "Schatten": 3028, 
  "biologischen": 3029, 
  "Spiegel": 3030, 
  "komplex": 3031, 
  "jung": 3032, 
  "Literatur": 3033, 
  "Gewinn": 3034, 
  "Kohle": 3035, 
  "Berg": 3036, 
  "höhere": 3037, 
  "schwieriger": 3038, 
  "verliert": 3039, 
  "21": 3040, 
  "ursprünglich": 3041, 
  "umgeben": 3042, 
  "Systemen": 3043, 
  "Billionen": 3044, 
  "tiefer": 3045, 
  "Erinnerung": 3046, 
  "Brief": 3047, 
  "Mama": 3048, 
  "Geräusch": 3049, 
  "hinzufügen": 3050, 
  "Thomas": 3051, 
  "F": 3052, 
  "Vergnügen": 3053, 
  "Psychologie": 3054, 
  "Zerstörung": 3055, 
  "Inseln": 3056, 
  "Verbrechen": 3057, 
  "traurig": 3058, 
  "Welten": 3059, 
  "König": 3060, 
  "offenen": 3061, 
  "Hotel": 3062, 
  "2007": 3063, 
  "infiziert": 3064, 
  "iPhone": 3065, 
  "Neuigkeiten": 3066, 
  "anzusehen": 3067, 
  "moralischen": 3068, 
  "wunderbaren": 3069, 
  "Ursprung": 3070, 
  "spät": 3071, 
  "Weltkrieg": 3072, 
  "Brasilien": 3073, 
  "SMS": 3074, 
  "1000": 3075, 
  "Island": 3076, 
  "Einstellung": 3077, 
  "benutze": 3078, 
  "Korruption": 3079, 
  "geworfen": 3080, 
  "eng": 3081, 
  "aktuelle": 3082, 
  "glücklicher": 3083, 
  "Bein": 3084, 
  "Aktion": 3085, 
  "Sonnenlicht": 3086, 
  "Status": 3087, 
  "Detail": 3088, 
  "Handys": 3089, 
  "Medium": 3090, 
  "unteren": 3091, 
  "Zuschauer": 3092, 
  "gemeinsamen": 3093, 
  "lokale": 3094, 
  "..": 3095, 
  "trennen": 3096, 
  "Null": 3097, 
  "Instrument": 3098, 
  "Samen": 3099, 
  "bildet": 3100, 
  "Geburtstag": 3101, 
  "wahrnehmen": 3102, 
  "falten": 3103, 
  "schließt": 3104, 
  "merken": 3105, 
  "insgesamt": 3106, 
  "Armee": 3107, 
  "Babies": 3108, 
  "Schmerzen": 3109, 
  "Folgen": 3110, 
  "Australien": 3111, 
  "Er": 3112, 
  "Zuhause": 3113, 
  "Leiden": 3114, 
  "beides": 3115, 
  "Hunde": 3116, 
  "vielmehr": 3117, 
  "Aber": 3118, 
  "Weisheit": 3119, 
  "Ganzen": 3120, 
  "Pollen": 3121, 
  "Pferd": 3122, 
  "Echtzeit": 3123, 
  "Vogel": 3124, 
  "Gemüse": 3125, 
  "Institut": 3126, 
  "Umfeld": 3127, 
  "Physiker": 3128, 
  "genießen": 3129, 
  "Problems": 3130, 
  "Paar": 3131, 
  "falschen": 3132, 
  "Umständen": 3133, 
  "Hunger": 3134, 
  "weiße": 3135, 
  "Verlauf": 3136, 
  "organisiert": 3137, 
  "Wettbewerb": 3138, 
  "Winter": 3139, 
  "fürs": 3140, 
  "technischen": 3141, 
  "mächtig": 3142, 
  "Lauf": 3143, 
  "interessanter": 3144, 
  "Element": 3145, 
  "Gericht": 3146, 
  "Instrumente": 3147, 
  "wunderschöne": 3148, 
  "antwortete": 3149, 
  "Lebenserwartung": 3150, 
  "neigen": 3151, 
  "erhöht": 3152, 
  "Ära": 3153, 
  "Moral": 3154, 
  "struktur": 3155, 
  "beschrieben": 3156, 
  "vorsichtig": 3157, 
  "Blumen": 3158, 
  "dunkel": 3159, 
  "hinterlassen": 3160, 
  "stirbt": 3161, 
  "Erlebnis": 3162, 
  "leichter": 3163, 
  "Richtungen": 3164, 
  "getrennt": 3165, 
  "beachten": 3166, 
  "repräsentiert": 3167, 
  "Berge": 3168, 
  "schießen": 3169, 
  "deiner": 3170, 
  "Kleidung": 3171, 
  "interessanten": 3172, 
  "drittens": 3173, 
  "Organe": 3174, 
  "Inspiration": 3175, 
  "Zufall": 3176, 
  "vergangenen": 3177, 
  "herunter": 3178, 
  "Ereignisse": 3179, 
  "Viertel": 3180, 
  "still": 3181, 
  "Schrift": 3182, 
  "anscheinend": 3183, 
  "Studio": 3184, 
  "studiert": 3185, 
  "kulturelle": 3186, 
  "Cent": 3187, 
  "Sichtweise": 3188, 
  "Proben": 3189, 
  "verursachen": 3190, 
  "Gebäuden": 3191, 
  "Trend": 3192, 
  "Mangel": 3193, 
  "beteiligt": 3194, 
  "schlussendlich": 3195, 
  "definiert": 3196, 
  "Kanada": 3197, 
  "grundlegenden": 3198, 
  "begegnen": 3199, 
  "zusammenarbeiten": 3200, 
  "Kongo": 3201, 
  "Gas": 3202, 
  "Saal": 3203, 
  "besagt": 3204, 
  "begreifen": 3205, 
  "betroffen": 3206, 
  "Gegenden": 3207, 
  "Ruf": 3208, 
  "einfaches": 3209, 
  "grün": 3210, 
  "letzter": 3211, 
  "Teufel": 3212, 
  "investiert": 3213, 
  "Paris": 3214, 
  "Änderungen": 3215, 
  "Impfstoff": 3216, 
  "nannten": 3217, 
  "Frankreich": 3218, 
  "schrieben": 3219, 
  "Lebensmittel": 3220, 
  "berühren": 3221, 
  "Auswahl": 3222, 
  "gerettet": 3223, 
  "Ball": 3224, 
  "Musiker": 3225, 
  "West": 3226, 
  "identifizieren": 3227, 
  "cm": 3228, 
  "verschieden": 3229, 
  "bedeutete": 3230, 
  "Jahrzehnten": 3231, 
  "mehreren": 3232, 
  "Techniken": 3233, 
  "späten": 3234, 
  "konfrontiert": 3235, 
  "Schiff": 3236, 
  "Russland": 3237, 
  "ernähren": 3238, 
  "Fliegen": 3239, 
  "Population": 3240, 
  "erklärte": 3241, 
  "könne": 3242, 
  "entscheidend": 3243, 
  "versteckt": 3244, 
  "Einheit": 3245, 
  "Inhalte": 3246, 
  "Kurve": 3247, 
  "Geräusche": 3248, 
  "Resultate": 3249, 
  "reduziert": 3250, 
  "Dame": 3251, 
  "Geschäfte": 3252, 
  "erfüllen": 3253, 
  "Belohnung": 3254, 
  "chinesischen": 3255, 
  "übersetzen": 3256, 
  "Schicksal": 3257, 
  "Symptome": 3258, 
  "Militär": 3259, 
  "zurückkehren": 3260, 
  "Brustkrebs": 3261, 
  "elektrischen": 3262, 
  "seltsame": 3263, 
  "Asien": 3264, 
  "Einrichtungen": 3265, 
  "Analyse": 3266, 
  "Debatte": 3267, 
  "verdient": 3268, 
  "Würde": 3269, 
  "bewirken": 3270, 
  "Diabetes": 3271, 
  "wozu": 3272, 
  "2006": 3273, 
  "Bericht": 3274, 
  "beigebracht": 3275, 
  "drehte": 3276, 
  "Bibliothek": 3277, 
  "Ah": 3278, 
  "All": 3279, 
  "65": 3280, 
  "trage": 3281, 
  "Aufnahme": 3282, 
  "Geschenk": 3283, 
  "Drogen": 3284, 
  "Aktivitäten": 3285, 
  "sogenannte": 3286, 
  "half": 3287, 
  "schlug": 3288, 
  "nachts": 3289, 
  "verschiedener": 3290, 
  "anpassen": 3291, 
  "Philosophie": 3292, 
  "Erste": 3293, 
  "Erwachsenen": 3294, 
  "beschreibt": 3295, 
  "Arme": 3296, 
  "reale": 3297, 
  "Januar": 3298, 
  "erhielt": 3299, 
  "Zufriedenheit": 3300, 
  "visuelle": 3301, 
  "Fokus": 3302, 
  "Marketing": 3303, 
  "wieviele": 3304, 
  "zurückgehen": 3305, 
  "irgendeinem": 3306, 
  "emotionale": 3307, 
  "Serie": 3308, 
  "Interaktion": 3309, 
  "ergeben": 3310, 
  "positiven": 3311, 
  "Klassenzimmer": 3312, 
  "oberen": 3313, 
  "Investitionen": 3314, 
  "Nutzung": 3315, 
  "Persönlichkeit": 3316, 
  "Warum": 3317, 
  "Radio": 3318, 
  "Eigenschaft": 3319, 
  "kümmert": 3320, 
  "Katastrophe": 3321, 
  "Treffen": 3322, 
  "Dinger": 3323, 
  "Jahrzehnte": 3324, 
  "Mut": 3325, 
  "erfassen": 3326, 
  "nervös": 3327, 
  "Street": 3328, 
  "Verwendung": 3329, 
  "zentrale": 3330, 
  "Wissenschaftlern": 3331, 
  "Presse": 3332, 
  "Funktionen": 3333, 
  "künstliche": 3334, 
  "veröffentlichen": 3335, 
  "abgesehen": 3336, 
  "planen": 3337, 
  "bedenken": 3338, 
  "komplexen": 3339, 
  "diskutieren": 3340, 
  "winzig": 3341, 
  "Tja": 3342, 
  "ausmachen": 3343, 
  "heilen": 3344, 
  "wundervolle": 3345, 
  "saßen": 3346, 
  "Sport": 3347, 
  "Akt": 3348, 
  "kb": 3349, 
  "Wein": 3350, 
  "speziell": 3351, 
  "General": 3352, 
  "Ehre": 3353, 
  "Blatt": 3354, 
  "jeweils": 3355, 
  "Großen": 3356, 
  "knapp": 3357, 
  "feiern": 3358, 
  "Bahn": 3359, 
  "langweilig": 3360, 
  "besucht": 3361, 
  "eigentliche": 3362, 
  "Center": 3363, 
  "Zug": 3364, 
  "Dunkelheit": 3365, 
  "chemische": 3366, 
  "schwarz": 3367, 
  "95": 3368, 
  "blind": 3369, 
  "Strand": 3370, 
  "Gespräch": 3371, 
  "gründete": 3372, 
  "bewahren": 3373, 
  "Schulter": 3374, 
  "intelligente": 3375, 
  "ausschließlich": 3376, 
  "Blog": 3377, 
  "gewann": 3378, 
  "Anwendungen": 3379, 
  "bemerkte": 3380, 
  "Zeitraum": 3381, 
  "gewöhnt": 3382, 
  "zunehmend": 3383, 
  "Ökosystem": 3384, 
  "berechnen": 3385, 
  "Richtige": 3386, 
  "Bush": 3387, 
  "verlangen": 3388, 
  "Dienst": 3389, 
  "draussen": 3390, 
  "Mittleren": 3391, 
  "Microsoft": 3392, 
  "Ach": 3393, 
  "schnelle": 3394, 
  "120": 3395, 
  "Bus": 3396, 
  "niemanden": 3397, 
  "Ausgaben": 3398, 
  "schlägt": 3399, 
  "Teams": 3400, 
  "Anruf": 3401, 
  "berühmt": 3402, 
  "besseres": 3403, 
  "hassen": 3404, 
  "Wahlen": 3405, 
  "echtes": 3406, 
  "indischen": 3407, 
  "Erwärmung": 3408, 
  "erwähnen": 3409, 
  "visuellen": 3410, 
  "Flasche": 3411, 
  "Inneren": 3412, 
  "Standpunkt": 3413, 
  "fließt": 3414, 
  "schlimm": 3415, 
  "Uganda": 3416, 
  "beträgt": 3417, 
  "schwierige": 3418, 
  "begrenzt": 3419, 
  "Robert": 3420, 
  "Erwachsene": 3421, 
  "Cola": 3422, 
  "Top": 3423, 
  "höheren": 3424, 
  "kalt": 3425, 
  "umzugehen": 3426, 
  "2004": 3427, 
  "Hitze": 3428, 
  "Teilnehmer": 3429, 
  "Überraschung": 3430, 
  "angehen": 3431, 
  "250": 3432, 
  "besuchte": 3433, 
  "voraus": 3434, 
  "19": 3435, 
  "Gebrauch": 3436, 
  "dunklen": 3437, 
  "glaubten": 3438, 
  "Zeitungen": 3439, 
  "Anführer": 3440, 
  "Niveau": 3441, 
  "Täuschung": 3442, 
  "Blätter": 3443, 
  "University": 3444, 
  "Designs": 3445, 
  "Muskeln": 3446, 
  "interessanterweise": 3447, 
  "physische": 3448, 
  "Mathematiker": 3449, 
  "Klima": 3450, 
  "Büchern": 3451, 
  "Reisen": 3452, 
  "neulich": 3453, 
  "wundervoll": 3454, 
  "erforscht": 3455, 
  "gesunden": 3456, 
  "verschwindet": 3457, 
  "Erwartungen": 3458, 
  "Hinblick": 3459, 
  "Ausstellung": 3460, 
  "Boston": 3461, 
  "vorhin": 3462, 
  "Male": 3463, 
  "Verteilung": 3464, 
  "Eins": 3465, 
  "Ausnahme": 3466, 
  "Stein": 3467, 
  "schwere": 3468, 
  "Weltbevölkerung": 3469, 
  "Fahrrad": 3470, 
  "Trick": 3471, 
  "Gleichung": 3472, 
  "fliegt": 3473, 
  "ländlichen": 3474, 
  "Poster": 3475, 
  "weibliche": 3476, 
  "Biologen": 3477, 
  "Ratten": 3478, 
  "Toten": 3479, 
  "Metern": 3480, 
  "Waffe": 3481, 
  "anbieten": 3482, 
  "dazwischen": 3483, 
  "Interessen": 3484, 
  "Faktoren": 3485, 
  "Ebenen": 3486, 
  "Ruanda": 3487, 
  "angesichts": 3488, 
  "Stift": 3489, 
  "live": 3490, 
  "Blickwinkel": 3491, 
  "Vagina": 3492, 
  "20.000": 3493, 
  "Projekten": 3494, 
  "Batterie": 3495, 
  "riesiges": 3496, 
  "werdet": 3497, 
  "Student": 3498, 
  "Ausrüstung": 3499, 
  "innere": 3500, 
  "kulturellen": 3501, 
  "kreiert": 3502, 
  "Stil": 3503, 
  "Fläche": 3504, 
  "Chicago": 3505, 
  "kreative": 3506, 
  "geöffnet": 3507, 
  "Schnitt": 3508, 
  "inspirieren": 3509, 
  "Aufbau": 3510, 
  "exakt": 3511, 
  "vorwärts": 3512, 
  "Kuh": 3513, 
  "hingehen": 3514, 
  "geh": 3515, 
  "wiederholen": 3516, 
  "Box": 3517, 
  "RB": 3518, 
  "billig": 3519, 
  "drauf": 3520, 
  "benutzte": 3521, 
  "jenen": 3522, 
  "Mitglieder": 3523, 
  "technische": 3524, 
  "Tasche": 3525, 
  "Regen": 3526, 
  "irgendwas": 3527, 
  "mittleren": 3528, 
  "Kiste": 3529, 
  "Tony": 3530, 
  "Sorge": 3531, 
  "Noten": 3532, 
  "besonderen": 3533, 
  "benutzten": 3534, 
  "Gedicht": 3535, 
  "2001": 3536, 
  "Schwestern": 3537, 
  "umso": 3538, 
  "Entdeckungen": 3539, 
  "höchsten": 3540, 
  "jenseits": 3541, 
  "wiederholt": 3542, 
  "Geschmack": 3543, 
  "Ballon": 3544, 
  "versorgen": 3545, 
  "Origami": 3546, 
  "Konzepte": 3547, 
  "Korallen": 3548, 
  "nochmals": 3549, 
  "Universitäten": 3550, 
  "keinem": 3551, 
  "gegessen": 3552, 
  "Rad": 3553, 
  "Gleichgewicht": 3554, 
  "Lächeln": 3555, 
  "wahren": 3556, 
  "Denkweise": 3557, 
  "Kindersterblichkeit": 3558, 
  "heiß": 3559, 
  "kreativen": 3560, 
  "Szene": 3561, 
  "geraten": 3562, 
  "Stoff": 3563, 
  "gestartet": 3564, 
  "Explosion": 3565, 
  "Trends": 3566, 
  "tanzen": 3567, 
  "Ein": 3568, 
  "Training": 3569, 
  "befassen": 3570, 
  "Märkte": 3571, 
  "Führung": 3572, 
  "Depression": 3573, 
  "Unfall": 3574, 
  "800": 3575, 
  "Laptops": 3576, 
  "Konsumenten": 3577, 
  "Beitrag": 3578, 
  "Gebieten": 3579, 
  "Figur": 3580, 
  "Tanz": 3581, 
  "schreibe": 3582, 
  "winzigen": 3583, 
  "Papa": 3584, 
  "fotografiert": 3585, 
  "Vorschlag": 3586, 
  "kreativ": 3587, 
  "Atem": 3588, 
  "Eier": 3589, 
  "einziges": 3590, 
  "allgemeine": 3591, 
  "amp": 3592, 
  "Bedarf": 3593, 
  "2009": 3594, 
  "Leid": 3595, 
  "wunderschön": 3596, 
  "Oxford": 3597, 
  "Symmetrie": 3598, 
  "trainieren": 3599, 
  "kauft": 3600, 
  "Gold": 3601, 
  "einzigartig": 3602, 
  "Schwanz": 3603, 
  "Videospiele": 3604, 
  "zurückkommen": 3605, 
  "Ghana": 3606, 
  "schickte": 3607, 
  "Symbol": 3608, 
  "nachdenkt": 3609, 
  "Gespräche": 3610, 
  "empfinden": 3611, 
  "Zwei": 3612, 
  "Stiftung": 3613, 
  "Präsidenten": 3614, 
  "Fabrik": 3615, 
  "hinauf": 3616, 
  "Source": 3617, 
  "eingehen": 3618, 
  "verbrauchen": 3619, 
  "stammen": 3620, 
  "global": 3621, 
  "verlangt": 3622, 
  "Terrorismus": 3623, 
  "Poesie": 3624, 
  "schreckliche": 3625, 
  "spielten": 3626, 
  "sogenannten": 3627, 
  "erfüllt": 3628, 
  "Onkel": 3629, 
  "Lehre": 3630, 
  "Applaus": 3631, 
  "Welle": 3632, 
  "verließ": 3633, 
  "schieben": 3634, 
  "übersetzt": 3635, 
  "zukünftigen": 3636, 
  "höchste": 3637, 
  "neugierig": 3638, 
  "Quadrat": 3639, 
  "harte": 3640, 
  "profitieren": 3641, 
  "Wurzeln": 3642, 
  "vorn": 3643, 
  "Statistik": 3644, 
  "Feind": 3645, 
  "Homo": 3646, 
  "circa": 3647, 
  "Anstieg": 3648, 
  "ausgegeben": 3649, 
  "Pflanze": 3650, 
  "kaputt": 3651, 
  "Intuition": 3652, 
  "ausgebildet": 3653, 
  "Kindes": 3654, 
  "Komponenten": 3655, 
  "Systems": 3656, 
  "erledigt": 3657, 
  "Verfahren": 3658, 
  "Protein": 3659, 
  "Weltall": 3660, 
  "&amp;": 3661, 
  "zweieinhalb": 3662, 
  "Blogs": 3663, 
  "Haare": 3664, 
  "zusätzliche": 3665, 
  "entgegen": 3666, 
  "deinem": 3667, 
  "festgestellt": 3668, 
  "super": 3669, 
  "ungeheuer": 3670, 
  "Rat": 3671, 
  "hinsichtlich": 3672, 
  "2010": 3673, 
  "grundlegend": 3674, 
  "Science": 3675, 
  "Entstehung": 3676, 
  "Werten": 3677, 
  "Nerven": 3678, 
  "Teenager": 3679, 
  "Arbeiter": 3680, 
  "Aufnahmen": 3681, 
  "Stamm": 3682, 
  "Flüssigkeit": 3683, 
  "irgendwelche": 3684, 
  "Köpfe": 3685, 
  "23": 3686, 
  "außergewöhnlich": 3687, 
  "Sektor": 3688, 
  "bekämpfen": 3689, 
  "Stille": 3690, 
  "landete": 3691, 
  "Wohlbefinden": 3692, 
  "kochen": 3693, 
  "Flug": 3694, 
  "Teleskop": 3695, 
  "vermute": 3696, 
  "gezwungen": 3697, 
  "denselben": 3698, 
  "Ökonomen": 3699, 
  "zugleich": 3700, 
  "Magazin": 3701, 
  "schlau": 3702, 
  "Herstellung": 3703, 
  "Decke": 3704, 
  "physischen": 3705, 
  "Vorträge": 3706, 
  "Algorithmen": 3707, 
  "zuletzt": 3708, 
  "Plattform": 3709, 
  "gefüllt": 3710, 
  "Köpfen": 3711, 
  "Bier": 3712, 
  "Blase": 3713, 
  "Wände": 3714, 
  "würdest": 3715, 
  "BIP": 3716, 
  "Chip": 3717, 
  "aufrecht": 3718, 
  "Entwicklungsländer": 3719, 
  "traditionelle": 3720, 
  "geredet": 3721, 
  "sag": 3722, 
  "Reaktionen": 3723, 
  "Holz": 3724, 
  "Organismus": 3725, 
  "Abhängigkeit": 3726, 
  "ersetzt": 3727, 
  "Scham": 3728, 
  "allzu": 3729, 
  "Gipfel": 3730, 
  "Lichter": 3731, 
  "halben": 3732, 
  "ähnliches": 3733, 
  "Genen": 3734, 
  "Bord": 3735, 
  "Klinik": 3736, 
  "Höhepunkt": 3737, 
  "Meere": 3738, 
  "Operationen": 3739, 
  "Dan": 3740, 
  "erneut": 3741, 
  "Mittagessen": 3742, 
  "Katze": 3743, 
  "Berechnungen": 3744, 
  "Stämme": 3745, 
  "behaupte": 3746, 
  "Sequenz": 3747, 
  "befreien": 3748, 
  "Marke": 3749, 
  "inmitten": 3750, 
  "Gedächtnis": 3751, 
  "ursprüngliche": 3752, 
  "Fett": 3753, 
  "Mitglied": 3754, 
  "Y": 3755, 
  "é": 3756, 
  "°": 3757, 
  "½": 3758, 
  "Q": 3759, 
  "á@@": 3760, 
  "é@@": 3761, 
  "Z": 3762, 
  "+": 3763, 
  "=": 3764, 
  "j": 3765, 
  "♪": 3766, 
  "²": 3767, 
  "β@@": 3768, 
  "ó@@": 3769, 
  ")": 3770, 
  "(": 3771, 
  "à": 3772, 
  "ü": 3773, 
  "*": 3774, 
  "í@@": 3775, 
  "ñ@@": 3776, 
  "#": 3777, 
  "ä": 3778, 
  "@": 3779, 
  "ó": 3780, 
  "¥": 3781, 
  "ö": 3782, 
  "^": 3783, 
  "è@@": 3784, 
  "ã@@": 3785, 
  "ç@@": 3786, 
  "q": 3787, 
  "‟": 3788, 
  "™": 3789, 
  "â@@": 3790, 
  "®": 3791, 
  "¼": 3792, 
  "β": 3793, 
  "œ@@": 3794, 
  "": 3795, 
  "ê@@": 3796, 
  "è": 3797, 
  "Å@@": 3798, 
  "³": 3799, 
  "©": 3800, 
  "š@@": 3801, 
  "É@@": 3802, 
  "Ü": 3803, 
  "¾": 3804, 
  "葱": 3805, 
  "送@@": 3806, 
  "你@@": 3807, 
  "à@@": 3808, 
  "Ӓ@@": 3809, 
  "ø@@": 3810, 
  "£": 3811, 
  "€": 3812, 
  "ć": 3813, 
  "ë": 3814, 
  "к@@": 3815, 
  "\\": 3816, 
  "á": 3817, 
  "，": 3818, 
  "ï@@": 3819, 
  "ë@@": 3820, 
  "ý@@": 3821, 
  "ā@@": 3822, 
  "Ä": 3823
}