, 191305
. 143198
und 69983
die 63263
das 41514
ich 40893
der 39734
ist 37916
es 34883
wir 34317
in 32044
zu 29903
sie 28884
&quot; 21154
ein 20901
von 19632
eine 19555
dass 19272
nicht 19133
den 15824
mit 15270
Sie 14649
wie 14402
auf 13533
sich 12598
sind 12571
haben 12250
aber 12224
man 12093
was 12031
wenn 11925
für 11857
: 11811
? 11592
@-@ 10982
so 10396
als 10396
diese 10205
war 9966
an 9862
er 9459
- 9286
um 9213
im 8933
also 8464
dem 8145
einen 7755
uns 7535
können 7477
hier 7476
werden 7028
oder 6957
hat 6946
aus 6571
des 6297
auch 6144
über 6142
kann 6106
dann 6080
sehr 6037
einer 6035
wird 5717
einem 5631
nur 5594
-- 5501
gibt 5289
mich 5083
Menschen 5046
sehen 5005
sein 4871
etwas 4813
dieser 4715
habe 4676
noch 4529
nach 4395
mir 4183
Welt 3865
alle 3856
mehr 3830
vor 3766
bei 3709
meine 3699
wirklich 3664
nun 3629
weil 3622
Ihnen 3554
machen 3508
zum 3486
dies 3450
dieses 3432
wurde 3405
da 3331
immer 3171
tun 3118
jetzt 3018
durch 3003
unsere 2997
am 2961
hatte 2864
keine 2849
wissen 2829
Leute 2813
viele 2758
ihre 2735
Dinge 2735
sagen 2724
viel 2719
sagte 2717
denn 2677
Zeit 2668
diesem 2656
einfach 2620
diesen 2611
zwei 2583
ihr 2546
müssen 2507
eines 2506
waren 2500
alles 2498
Leben 2489
bin 2427
Jahren 2401
Art 2388
andere 2370
du 2334
damit 2324
wo 2317
würde 2275
mein 2226
anderen 2219
vielleicht 2167
bis 2125
geht 2096
zur 2094
Jahre 2078
gut 2049
muss 1974
selbst 1971
tatsächlich 1888
heute 1886
schon 1862
möchte 1843
einige 1798
warum 1773
all 1771
ja 1761
davon 1748
ihnen 1747
wieder 1734
dort 1733
&apos; 1674
werde 1665
Geschichte 1653
ganz 1619
drei 1618
gehen 1600
genau 1593
darüber 1556
ihn 1551
Kinder 1544
hatten 1543
lassen 1534
könnte 1521
Jahr 1516
wollen 1498
ob 1492
denken 1451
denke 1443
meiner 1433
paar 1430
seine 1423
wurden 1417
; 1414
gemacht 1386
jeder 1374
Beispiel 1349
kommen 1344
gab 1332
natürlich 1325
glaube 1325
während 1323
Problem 1313
! 1303
kein 1299
macht 1287
dazu 1284
Teil 1278
vom 1277
geben 1270
weiter 1266
denen 1255
wäre 1253
unserer 1248
finden 1243
einmal 1237
neue 1230
vielen 1226
kommt 1224
weiß 1222
sogar 1220
dafür 1218
sondern 1209
Tag 1204
zwischen 1203
unser 1203
nichts 1191
zeigen 1187
ohne 1183
doch 1177
würden 1176
Prozent 1173
zurück 1166
passiert 1164
will 1161
gerade 1155
Millionen 1136
Frage 1129
sieht 1127
verstehen 1122
konnte 1108
erste 1099
unter 1090
ihren 1087
ziemlich 1083
letzten 1075
Arbeit 1069
daran 1069
nie 1066
Idee 1065
mal 1056
nehmen 1053
sprechen 1040
Frauen 1036
etwa 1035
bekommen 1031
ersten 1030
sollten 1025
dabei 1022
sollte 1021
welche 1012
ganze 1006
große 1004
stellen 996
sagt 996
wollte 989
Dollar 988
Bild 982
meinen 982
Sache 980
meisten 972
könnten 969
ging 968
meinem 964
Land 959
leben 941
arbeiten 940
Weg 938
eigentlich 931
darauf 918
wichtig 916
kam 912
Wasser 902
Seite 900
zusammen 894
kleinen 890
bringen 888
Mann 888
ihrer 881
gesehen 880
Geld 878
bedeutet 877
Mal 869
Technologie 864
jemand 863
kleine 862
besser 862
dachte 855
vier 851
weniger 849
Ende 844
Menge 840
10 833
... 830
Ihre 830
Weise 829
ihm 827
brauchen 826
Daten 819
versuchen 818
jedes 807
unseren 806
Frau 798
ganzen 796
jeden 796
großen 794
ab 785
Raum 784
seit 779
Ich 776
gesagt 771
ins 769
ungefähr 760
nein 755
keinen 748
glauben 744
wer 742
Zukunft 739
heraus 737
Grund 732
Person 727
indem 727
beim 715
gute 714
jede 712
Gehirn 712
hätte 711
Dank 707
20 706
später 702
wenig 702
s 701
eigenen 699
funktioniert 698
schaffen 696
wahrscheinlich 688
Erde 683
heißt 680
erzählen 679
lernen 678
fünf 676
Kind 675
danke 672
schauen 671
allen 670
System 670
fast 669
Mutter 665
Ort 660
richtig 659
pro 659
genug 657
konnten 656
schnell 650
Fall 650
gegen 649
möglich 649
Probleme 642
oft 641
Moment 640
seiner 638
sicher 635
lange 633
bisschen 631
Ideen 628
Computer 623
helfen 613
sei 612
Mädchen 612
sah 609
nutzen 607
unserem 604
darum 603
zeigt 602
überall 601
Leuten 599
Afrika 598
Milliarden 598
begann 595
manchmal 594
gehört 590
erst 589
Energie 588
nächsten 586
reden 583
Arten 578
neuen 578
seinen 576
Planeten 575
Punkt 574
bevor 574
kennen 573
Körper 573
lang 571
anders 567
sagten 566
euch 566
halten 559
Licht 558
verschiedene 557
Form 557
nennen 555
Schule 554
deshalb 553
bereits 551
anderes 548
okay 547
entwickelt 546
Buch 545
benutzen 545
hin 542
je 542
hören 540
bauen 538
Minuten 536
verändern 532
liegt 532
steht 531
spielen 530
stehen 530
TED 530
fragen 530
50 529
Indien 529
gerne 527
oben 525
ihrem 523
irgendwie 523
Gott 523
Informationen 521
musste 519
hätten 518
erkennen 518
Stadt 518
namens 518
30 516
OK 515
darin 514
Projekt 513
USA 511
seinem 509
erreichen 508
Musik 506
weit 505
besonders 503
machte 502
Antwort 502
100 499
sechs 499
ein@@ 497
Ihr 496
Internet 496
klar 494
Natur 494
Gruppe 493
Bilder 492
New 492
soll 489
Kopf 488
innerhalb 488
Möglichkeit 487
an@@ 484
% 484
gar 483
Lebens 482
Geschichten 482
Hand 477
Familie 475
Sachen 474
einzige 471
Design 471
Gesellschaft 470
niemand 470
braucht 469
jedem 467
Gefühl 467
Augen 467
Sprache 466
Universum 465
Film 462
vorstellen 460
einigen 457
obwohl 456
sage 456
Stunden 455
bewegen 454
dich 454
verschiedenen 451
beginnen 451
beiden 450
wegen 449
Fragen 449
China 448
ab@@ 446
Vater 445
gleich 444
Wissenschaft 443
entwickeln 439
nämlich 439
erhalten 439
menschlichen 433
unglaublich 433
Länder 431
hoch 429
Dingen 426
Lage 426
alt 425
schwer 424
ändern 423
daher 422
Patienten 422
verwenden 421
bitte 421
versucht 421
überhaupt 420
damals 419
Männer 418
er@@ 418
Kindern 417
Oh 417
tut 416
herum 415
Glück 414
getan 411
gleichen 411
Hause 409
zwar 408
verändert 408
Regierung 407
wollten 405
Unternehmen 404
allem 403
aller 402
nächste 402
kurz 401
Auto 401
Stück 400
worden 399
kamen 398
betrachten 398
15 398
treffen 398
Wort 397
weitere 394
Haus 394
groß 391
weg 390
fühlen 389
unten 388
eins 387
eher 386
Kultur 385
fand 384
Grunde 383
stellt 383
dessen 382
genauso 381
Macht 381
welches 381
Staaten 379
besten 379
Unterschied 378
meines 377
führen 376
Kunst 376
dir 376
letzte 375
lässt 375
nachdem 375
bringt 374
York 374
Hilfe 374
Eltern 374
mag 373
Video 370
Tiere 369
Entwicklung 369
jedoch 369
auf@@ 368
falls 368
Spiel 367
interessant 367
falsch 367
Sinn 367
danach 366
essen 364
eigene 364
wohl 363
erinnern 362
Tage 362
gleiche 361
Angst 361
kaufen 360
Möglichkeiten 360
schreiben 358
teilen 357
Erfahrung 357
wahr 356
aus@@ 352
los 352
menschliche 351
zweite 351
Anfang 350
&#91; 350
Wochen 349
&#93; 349
bleiben 348
Freunde 347
solche 346
Fähigkeit 346
schön 346
wusste 345
wären 345
sieben 344
Namen 344
manche 342
schließlich 342
mussten 342
deren 340
Publikum 340
Zellen 339
sollen 338
Lehrer 338
Krebs 338
besteht 337
neu 337
Ziel 337
Woche 336
lesen 336
möchten 333
ge@@ 333
direkt 332
Liebe 332
Gebäude 332
hast 332
Verbindung 331
Gedanken 329
plötzlich 329
Prozess 329
recht 329
Essen 329
40 328
gewesen 328
fragte 327
Wirtschaft 326
zuerst 326
völlig 326
Tatsache 325
Verhalten 324
genannt 323
draußen 322
zuvor 322
un@@ 322
nimmt 321
mache 321
Krieg 321
sterben 320
Monate 320
hinter 320
Luft 319
Lösung 319
anfangen 317
daraus 317
Roboter 317
passieren 316
Ihren 316
erschaffen 315
sehe 315
nahm 315
jemals 314
Bewegung 314
Thema 314
Richtung 313
Autos 313
Muster 313
scheint 312
anderer 312
guten 311
Mensch 311
Jahrhundert 310
Tages 310
gern 310
kleines 309
her 309
niemals 309
Technik 308
CA 308
bekommt 307
lösen 307
erklären 307
gefunden 306
beide 306
Zahl 306
miteinander 305
funktionieren 305
unseres 305
suchen 305
DNA 304
schwierig 304
geworden 303
acht 302
führt 300
Amerika 300
Technologien 299
bereit 299
Gemeinschaft 298
Anzahl 298
be@@ 297
glücklich 296
liebe 296
fahren 295
größte 294
anstatt 294
fanden 293
Modell 293
Schritt 292
Wissen 292
egal 292
beginnt 292
ten 292
schlecht 292
gelernt 291
Ländern 290
nachdenken 290
Situation 289
aussehen 289
verwendet 288
bist 287
Du 286
leicht 286
findet 286
stellte 286
zehn 286
Teile 285
bekannt 285
Wissenschaftler 285
ver@@ 284
Bildung 284
Reihe 283
gingen 282
Ding 282
Wahrheit 282
HIV 282
gezeigt 281
kleiner 281
erreicht 281
Meinung 279
genommen 279
fest 279
verbunden 279
offensichtlich 279
gebaut 278
entfernt 278
2 277
benutzt 277
Ver@@ 277
brachte 277
Ihrem 277
mögen 276
alten 276
jemanden 275
Boden 274
Kraft 272
wachsen 271
Bereich 271
Karte 271
Gesundheit 270
geschieht 270
hoffe 270
sonst 270
verloren 269
Aufgabe 268
schrieb 268
Vorstellung 268
Mitgefühl 268
ansehen 266
setzen 266
trotzdem 266
Platz 266
Veränderung 265
gesamte 265
Rest 265
herauszufinden 264
geschrieben 264
Hälfte 264
Ihrer 264
Mitte 263
Struktur 263
absolut 263
Gesicht 263
zeige 263
Rolle 262
Größe 262
tragen 261
nennt 261
tat 261
Vereinigten 261
Tat 260
Umgebung 260
bewusst 259
Herausforderung 259
Schulen 259
normalerweise 259
Nacht 258
Foto 258
Bedeutung 258
ziehen 258
Stimme 258
wann 257
interessiert 257
Meter 255
Erfolg 254
laufen 254
finde 253
Generation 253
Firma 253
Sonne 253
Regeln 253
soziale 252
Kosten 252
stimmt 252
allein 252
Oberfläche 252
♫ 252
Preis 251
übrigens 251
Sicherheit 251
gleichzeitig 251
einfache 250
ent@@ 250
beste 250
Studenten 250
sobald 249
Das 249
Seiten 249
länger 249
Labor 248
komplett 248
stand 247
bewegt 247
Team 247
fliegen 247
Maschine 247
schneller 247
stark 246
geboren 245
Information 245
einzelne 245
machten 244
Krankheit 244
gegeben 243
sofort 243
kannst 243
anschauen 242
gearbeitet 242
gesprochen 242
Beziehung 241
Google 241
heutzutage 241
te 241
ähnlich 240
liegen 240
200 240
gegenüber 240
Fehler 240
passierte 240
An@@ 239
größten 239
Ergebnis 239
Europa 239
vergessen 239
Bücher 239
Orte 238
begannen 238
statt 238
Theorie 238
bekam 238
denkt 238
Reise 238
en@@ 237
dachten 237
junge 236
richtige 236
Studie 236
Straße 236
Öl 236
Monaten 234
25 234
weltweit 234
3 233
möglichen 233
sahen 233
Material 233
Evolution 233
neues 232
gemeinsam 231
bestimmt 230
wichtiger 229
Realität 229
Freund 229
Aufmerksamkeit 228
E 228
großer 227
lieben 227
Wert 227
Fähigkeiten 226
richtigen 226
Vortrag 225
langsam 225
Forschung 225
außerdem 225
Chris 225
bald 225
Entscheidungen 225
12 224
bestimmten 224
Umwelt 224
verlieren 224
1 224
Gruppen 224
sprach 224
Gebiet 224
Markt 223
Tagen 223
Zahlen 223
Revolution 222
außer 222
Ozean 221
Kontrolle 221
vorher 221
na 221
zumindest 221
nenne 220
größer 220
80 220
Wirklichkeit 220
Hoffnung 220
bleibt 220
wichtige 220
Gerät 220
diejenigen 220
en 220
hab 219
geschehen 219
versuchte 219
/ 219
enden 218
Monat 217
Medien 217
60 216
Stelle 216
gekommen 216
arbeitet 216
Blick 216
erlaubt 215
links 215
erzählt 215
deine 215
Spaß 215
befinden 215
dadurch 214
gebracht 214
bilden 214
erzeugen 214
versuche 213
früher 213
wussten 213
welcher 212
Alter 212
Künstler 211
Herz 211
Ebene 211
Vergangenheit 211
Orten 210
ständig 210
deswegen 210
Bevölkerung 209
sitzen 209
aussieht 209
Experiment 209
wieso 209
Grenzen 209
produzieren 208
Spezies 208
beobachten 208
klein 208
nachzudenken 208
bessere 208
Und 208
großes 207
irgendwo 207
ihres 207
einander 207
sowohl 207
5 207
Amerikaner 207
Gene 207
neben 206
alte 206
Nachricht 206
großartige 205
Pflanzen 205
Wahl 205
Ab@@ 205
Nummer 205
Typ 204
18 203
verbessern 203
CO2 203
verlassen 203
entdecken 202
gefragt 202
Städte 202
Einfluss 202
voller 202
Beispiele 201
gewinnen 201
Programm 201
Nachrichten 201
raus 200
Sekunden 200
eben 200
bestimmte 199
Job 199
entweder 198
dasselbe 198
Sicht 198
handelt 198
solchen 197
Dorf 197
Software 197
Prinzip 197
Farbe 196
Nahrung 196
herstellen 196
Menschheit 196
Gewalt 196
Ressourcen 196
Demokratie 196
fing 196
einzelnen 195
jungen 195
Mathematik 195
Eis 195
arbeitete 194
fangen 194
Zeug 194
Universität 194
entdeckt 194
Studien 194
frei 193
Medizin 193
Ein@@ 192
Million 192
Formen 192
Ordnung 192
ebenso 192
führte 191
toll 191
entscheiden 191
verstanden 191
aufgrund 191
messen 191
Politik 191
of 190
rechts 189
gestellt 189
Sinne 189
bisher 189
Sohn 189
zunächst 189
neun 189
Worte 189
betrachtet 188
verbinden 188
unmöglich 188
geschaffen 187
Tod 187
ebenfalls 187
entschieden 187
großartig 187
gesamten 187
Bakterien 186
leider 186
Produkt 186
Aus@@ 186
riesige 186
Linie 186
warten 186
Konzept 186
hörte 186
Name 186
außerhalb 186
interessante 185
ca. 185
Geist 185
schicken 185
Schüler 185
erstens 185
hinaus 185
selben 184
lebt 184
Gründe 184
sozialen 184
Personen 184
sammeln 184
nahmen 183
voll 183
Objekt 183
Morgen 183
Zeitpunkt 183
naja 183
Arm 183
arbeite 182
Ergebnisse 182
Krankheiten 182
k@@ 182
Innovation 182
komme 182
traf 182
Auswirkungen 182
Gesetz 182
z.B. 182
dritte 181
näher 181
Armut 181
extrem 181
herausfinden 181
de 181
amerikanischen 181
retten 181
rund 180
schaut 180
weiss 180
Religion 180
Die 180
untersuchen 179
Zugang 179
Stunde 179
folgen 178
Mittel 178
Es 178
Tier 178
Behandlung 178
getroffen 177
Liste 176
hält 176
Hände 176
Artikel 176
Wachstum 176
taten 176
legen 176
Himmel 176
ern 175
Bühne 175
zweiten 175
Punkte 175
ter 175
Wesen 175
befindet 175
spricht 174
gehe 174
erzählte 174
Beginn 174
fällt 174
Selbst 174
Biologie 174
daß 174
Wand 174
spielt 173
erfahren 173
Systeme 173
Version 173
Bewusstsein 173
90 173
hilft 172
kaum 172
Firmen 172
gegangen 172
Architektur 172
ermöglicht 172
Englisch 172
letztes 172
fertig 172
globalen 172
unterschiedliche 172
Fotos 172
ung 172
Meer 171
verkaufen 171
hinein 171
läuft 171
Auge 171
Verständnis 171
angefangen 171
Virus 171
unglaubliche 170
mehrere 170
Ahnung 170
Methode 170
Arzt 170
Finger 170
-@@ 169
Lösungen 169
Osten 169
ehrlich 169
durch@@ 169
Landes 169
geschah 168
Netzwerk 168
leisten 168
Papier 168
verrückt 168
Versuch 168
keiner 167
begonnen 167
Interesse 167
Chance 167
behandeln 167
Gehirns 167
Zentrum 167
Jungen 166
Familien 166
erfolgreich 166
Zustand 166
schlechte 166
zweitens 166
fallen 166
Bezug 166
werfen 165
Verantwortung 165
herzustellen 165
Designer 165
gedacht 165
hört 165
A 164
Entscheidung 164
erinnere 163
ungen 163
tief 163
stattdessen 162
runter 162
Organisation 162
endlich 162
öffentlichen 162
Materialien 162
500 162
dein 162
einzigen 162
Baby 162
Regierungen 162
überleben 161
Uhr 161
konzentrieren 161
Projekte 161
zeigte 161
sicherlich 161
über@@ 161
seines 161
Kollegen 161
Kamera 160
fühle 160
erwarten 160
nehme 160
Werkzeuge 160
Tür 160
hundert 160
Grad 160
jene 159
existiert 159
Typen 159
Worten 159
Region 158
Jahrhunderts 158
testen 158
guter 158
unterstützen 158
Flugzeug 158
lasst 158
Medikamente 158
verbringen 157
echte 157
Geschäft 157
Tisch 157
Er@@ 157
wert 157
heutigen 157
Teilen 156
4 156
US 156
wichtigsten 156
jemandem 155
erfunden 155
Sch@@ 155
Krankenhaus 155
spreche 155
Freude 155
Schönheit 155
wenige 155
Zeiten 155
Komplexität 154
frühen 154
Büro 154
Recht 154
Herzen 154
Eigenschaften 154
Materie 154
Freiheit 154
einfachen 153
Zusammenhang 153
desto 153
gutes 153
eigenes 153
schützen 152
größeren 152
produziert 152
Farben 152
nahe 151
geschafft 151
16 151
Tochter 151
allerdings 151
000 151
Maschinen 151
langen 151
drehen 151
irgendwann 150
echt 150
globale 150
Geschwindigkeit 150
Gefühle 150
lernte 150
Straßen 150
lautet 149
ließ 149
Wege 149
fühlte 149
Strom 149
rechten 149
trifft 149
sozusagen 148
kostet 148
größere 148
entschied 148
Spielen 148
Denken 148
worüber 148
Reaktion 148
erlauben 148
erstaunlich 147
kenne 147
Universums 147
a 147
hielt 147
seien 147
Regel 146
Traum 146
Leidenschaft 146
Netz 146
wählen 146
Kilometer 146
dorthin 146
Konferenz 146
Dr. 146
hart 146
Westen 146
habt 146
AIDS 146
Einkommen 146
stecken 145
Verfügung 145
fühlt 145
km 145
somit 145
Botschaft 145
Werte 145
Zelle 145
Wunsch 145
ische 144
Freunden 144
wiederum 144
Physik 144
gebe 144
vorbei 144
Kreativität 144
verkauft 143
Sekunde 143
Wörter 143
verursacht 143
dagegen 143
John 143
erinnert 143
Antworten 143
Ärzte 143
Sex 143
m 143
Höhe 142
hoch@@ 142
Ansatz 142
300 142
Loch 142
Position 142
Vielfalt 142
bestehen 142
trotz 141
hin@@ 141
Veränderungen 141
online 141
lag 141
Produkte 141
Un@@ 141
Fernsehen 141
Fenster 141
Sterne 141
chen 140
veröffentlicht 140
selber 140
Junge 140
halte 140
modernen 140
handeln 140
Was 140
Unterschiede 140
herausgefunden 140
Afghanistan 140
Haut 139
Spitze 139
um@@ 139
Wir 139
beeinflusst 139
hoffentlich 139
lief 138
holen 138
Vor@@ 138
Infrastruktur 138
öffnen 138
gestern 138
Gelegenheit 138
ere 138
besitzen 137
brauchte 137
einfacher 137
weiterhin 137
nochmal 137
Brot 137
Druck 137
aufgenommen 136
Tieren 136
Männern 136
benötigen 136
K@@ 136
klingt 136
erstes 135
tolle 135
Sommer 135
Auf@@ 135
Sprachen 135
Jahres 135
möglicherweise 135
erzeugt 135
beschäftigt 135
genutzt 135
Moleküle 134
in@@ 134
erleben 134
beeinflussen 134
70 134
Beziehungen 134
vermutlich 134
benötigt 134
wirst 134
natürliche 133
offen 133
Bäume 133
Abend 133
Milliarde 133
14 133
hängt 133
tes 133
riesigen 133
darf 133
entstehen 132
letztendlich 132
London 132
Wasser@@ 132
Wind 132
6 132
dreht 132
verfolgen 132
formen 132
davor 132
gilt 132
sten 131
Haupt@@ 131
dieselbe 131
kommunizieren 131
system 131
investieren 131
Hund 131
gen 131
Nähe 131
Suche 131
Hey 131
A@@ 131
politische 131
eren 131
schafft 131
erklärt 131
Vergleich 131
Verbindungen 130
stelle 130
g@@ 130
20. 130
stellten 130
Jungs 130
tue 130
Erfahrungen 130
Boot 130
City 130
durchgeführt 130
Filme 130
Intelligenz 130
politischen 130
hauptsächlich 130
B@@ 129
gelangen 129
David 129
ans 129
Industrie 129
ganzes 129
wohin 129
kümmern 129
verdienen 129
erforschen 129
Kunden 129
st 129
buchstäblich 129
S@@ 129
entsteht 129
kontrollieren 129
sitzt 129
24 128
hunderte 128
Soldaten 128
ischen 128
entlang 128
alleine 128
Risiko 128
erwartet 127
heisst 127
bitten 127
steckt 127
scheinen 127
entwickelten 127
ens 127
liche 127
gestalten 127
heraus@@ 126
meistens 126
Strukturen 126
deutlich 126
11 126
nächstes 126
ändert 126
reagieren 126
Bedingungen 126
Masse 126
tausende 126
behandelt 126
sodass 126
welchen 126
woher 126
wisst 126
laut 125
geführt 125
beschreiben 125
unbedingt 125
wichtigste 125
wächst 125
Herr 125
bezahlen 125
schöne 125
töten 125
betrifft 125
ende 125
Spiele 125
saß 124
wissenschaftliche 124
rein 124
zufällig 124
8 124
Museum 124
cool 124
dennoch 124
linken 123
i 123
kämpfen 123
innen 123
könnt 123
Hintergrund 123
P@@ 123
gewonnen 123
F@@ 123
Karten 123
frage 123
Gesetze 123
ermöglichen 122
and 122
unterschiedlichen 122
gaben 122
vollständig 122
Modelle 122
Gesellschaften 121
vollkommen 121
starb 121
vor@@ 121
weiteren 121
zu@@ 121
Insekten 121
eingesetzt 121
Galaxien 121
s@@ 121
Fortschritt 121
weiteres 120
irgendetwas 120
Lebewesen 120
H@@ 120
Test 120
Plan 120
neuer 120
wunderbare 120
Unterstützung 120
schließen 120
Sorgen 120
begeistert 120
2000 120
Kommunikation 120
brauche 120
Meilen 120
besseren 120
Großbritannien 120
Mond 120
Teilchen 120
erstellen 120
R@@ 120
Fisch 120
Fische 119
ge 119
d@@ 119
kurze 119
verbreitet 119
U 119
falsche 119
kürzlich 119
Aktivität 119
Blut 119
Klimawandel 119
anderem 118
lieber 118
übertragen 118
Handy 118
$ 118
praktisch 118
aktiv 118
al@@ 118
Atmosphäre 118
Klasse 118
Basis 117
Haufen 117
Japan 117
kennt 117
gehabt 117
erzähle 117
Ausdruck 117
Videos 117
dauert 117
Frieden 117
Norden 117
getötet 117
lichen 116
Problemen 116
verbracht 116
nannte 116
Händen 116
Telefon 116
gehalten 116
perfekt 116
verhindern 116
Geräte 116
10.000 116
umgehen 116
setzt 116
sorgen 116
kriegen 116
verhalten 116
The 116
t@@ 115
hergestellt 115
Be@@ 115
Gefängnis 115
kosten 115
hohen 115
verantwortlich 115
fragt 115
schönen 115
Web 115
Bildern 115
Phänomen 115
nach@@ 115
brachten 115
Emotionen 115
abhängig 115
Werkzeug 115
basiert 115
dritten 115
Vision 114
Gründen 114
September 114
Objekte 114
reichen 114
Organisationen 114
Schmerz 114
hinweg 114
dürfen 114
Richard 114
usw. 113
Irak 113
überzeugt 113
versuchten 113
Jobs 113
e@@ 113
Schluss 113
Experten 113
mit@@ 113
Gedanke 113
Ge@@ 113
Qualität 113
morgen 113
Großteil 113
Schwester 113
starke 112
interagieren 112
Zusammenarbeit 112
San 112
Ecke 112
dahin 112
unterscheiden 112
weißt 112
Nutzen 112
Lied 112
total 112
fähig 112
Fällen 112
gewissen 112
steigen 112
aufhören 112
amerikanische 112
Nationen 112
häufig 112
sowie 111
150 111
zahlen 111
behalten 111
Lernen 111
starten 111
gewisse 111
Experimente 111
verbreiten 111
Mars 111
zog 111
weder 111
Babys 111
musst 111
Gewicht 110
Bildschirm 110
Städten 110
Ausbildung 110
gelesen 110
entwerfen 110
Begriff 110
Ton 110
normale 110
e 110
Neuronen 110
wunderbar 110
E@@ 110
Charakter 110
roten 109
Organismen 109
normalen 109
ste 109
Knochen 109
bedeuten 109
echten 109
mindestens 109
Details 109
Individuen 109
ernst 109
gestorben 109
Gegenteil 109
eure 109
erster 109
treten 109
Leistung 109
Mütter 108
Beine 108
drüben 108
Herausforderungen 108
Kontakt 108
Wahrscheinlichkeit 108
entspricht 108
Feuer 108
sowas 108
mitten 108
lachen 108
Verstand 108
trägt 108
Waffen 108
Affen 108
Patient 108
Kampf 108
Gemeinde 107
t 107
verwandeln 107
bestimmen 107
Erkenntnis 107
genauer 107
Einsatz 107
Polizei 107
soviel 107
Minute 107
Kontext 107
schlimmer 107
her@@ 107
hohe 107
Fluss 106
Fleisch 106
Nachbarn 106
lass 106
vergleichen 106
Präsident 106
T@@ 106
Sauerstoff 106
lustig 106
herum@@ 106
Baum 106
überzeugen 106
definieren 106
Opfer 106
wissenschaftlichen 105
l@@ 105
grosse 105
Facebook 105
Geburt 105
Stufe 105
Perspektive 105
Einstein 105
grundsätzlich 105
Ameisen 105
grundlegende 105
quasi 105
fuhr 105
relativ 105
lebte 105
Gegensatz 105
Themen 104
ließen 104
brauchten 104
stolz 104
o 104
fängt 104
Washington 104
morgens 104
täglich 104
wuchs 104
Effekt 104
Institutionen 104
existieren 104
meiste 104
bezahlt 104
Iran 104
Code 104
Partner 103
In@@ 103
Staat 103
glaubt 103
G@@ 103
per 103
Times 103
erkannte 103
re@@ 103
Zeichen 103
früh 103
zusammen@@ 103
Körpers 103
lich 102
400 102
Wandel 102
fort 102
Generationen 102
seitdem 102
müsste 102
Netzwerke 102
jedenfalls 102
Website 102
beinahe 102
Fuß 102
zerstören 102
höher 102
Ihres 102
schaute 102
13 102
Krise 102
tausend 102
College 102
krank 101
wenigen 101
gelöst 101
nutzt 101
ch@@ 101
oh 101
dran 101
Drittel 101
verbindet 101
fiel 101
Elemente 101
Anderson 101
Al 101
erten 101
einsetzen 101
Kerl 101
ungs@@ 101
lernt 101
gefährlich 101
spielte 101
solch 100
entwickelte 100
Spieler 100
bemerkt 100
verschwinden 100
gehören 100
Eindruck 100
Erklärung 100
zählen 100
verteilt 100
anwenden 100
Feld 100
interessieren 100
Beste 100
schlagen 100
ok 100
passt 100
f@@ 100
Forscher 100
Der 100
England 100
Werbung 100
älter 100
aufbauen 99
durchschnittliche 99
Karriere 99
einiger 99
isch 99
National 99
Weile 99
Schul@@ 99
Hinsicht 99
bekamen 99
entstanden 99
kurzen 99
steigt 99
ähnliche 99
Titel 99
geschickt 99
Augenblick 99
normal 99
zeit 98
welchem 98
zieht 98
hoffen 98
Grenze 98
lebten 98
MIT 98
drin 98
nah 98
Funktion 98
wobei 98
persönlich 98
Zimmer 98
notwendig 98
erscheinen 98
erhält 98
beantworten 98
verfügbar 98
Viren 97
Unternehmer 97
O@@ 97
Aufgaben 97
Bienen 97
Bürger 97
is 97
studieren 97
es@@ 97
Glauben 97
bieten 97
Ansicht 97
Vorteil 97
feststellen 97
Vertrauen 97
Vorfahren 97
gespielt 97
3D 97
Rede 97
annehmen 97
wesentlich 97
I 97
natürlichen 96
tische 96
Stellen 96
Bewegungen 96
el@@ 96
Kalifornien 96
17 96
wichtigen 96
beschlossen 96
600 96
Landwirtschaft 96
wirtschaftlichen 96
Schlüssel 96
Bill 96
Grund@@ 96
Linien 96
liches 96
passen 96
setzte 96
Gefahr 96
westlichen 96
Quelle 96
Plastik 96
Wunder 95
arbeiteten 95
hinten 95
derzeit 95
Laufe 95
kurzem 95
gäbe 95
end 95
las 95
Temperatur 95
übrig 95
Planet 95
Vögel 95
Nation 95
Maus 95
Galaxie 95
s. 95
Rücken 95
erscheint 94
g 94
vorne 94
gebeten 94
Rahmen 94
persönlichen 94
sparen 94
versteht 94
Zweck 94
D@@ 94
wahre 94
Arbeiten 94
halbe 94
nötig 94
solange 94
besondere 94
zurück@@ 94
öffentliche 94
Dinosaurier 94
willst 94
B 94
Gewebe 94
erte 94
Genom 94
Kaffee 94
ums 93
i@@ 93
p@@ 93
to 93
aufgebaut 93
as 93
Tausende 93
insbesondere 93
Schutz 93
verbrachte 93
Mission 93
schlechten 93
lediglich 93
Mund 93
Identität 93
dunkle 93
Wald 93
Verhältnis 93
vertraut 93
7 93
Kindheit 93
b@@ 93
stammt 92
Produktion 92
Südafrika 92
N@@ 92
Folie 92
Großmutter 92
Elektrizität 92
Damen 92
unterschiedlich 92
Gehirne 92
Präsentation 92
Satz 92
Freundin 92
schwarze 92
unabhängig 92
Dimensionen 92
Ziele 92
Lieblings@@ 92
gefällt 92
bloß 92
wirkliche 92
erstaunliche 92
erlebt 91
rief 91
überrascht 91
aufzubauen 91
Potential 91
Folge 91
Mexiko 91
folgendes 91
aufregend 91
sen 91
folgt 91
fragten 91
ts 91
Wie 91
Bereiche 91
em 91
Zeitalter 91
gefangen 91
99 91
Bereichen 91
sprachen 91
Herren 91
blieb 91
Insel 91
Bett 90
r@@ 90
gegründet 90
positive 90
angesehen 90
reduzieren 90
Kreis 90
deinen 90
rede 90
n 90
ger 90
Anwendung 90
sch@@ 90
langer 90
Charles 90
Zeitung 90
Klang 90
Computer@@ 90
Ganze 90
Spiel@@ 90
Bruder 90
Malaria 90
Statistiken 90
M@@ 89
Zivilisation 89
seht 89
grossen 89
z@@ 89
zerstört 89
beobachtet 89
ken 89
Webseite 89
Kulturen 89
See 89
Israel 89
Unter@@ 89
beinhaltet 89
höre 89
leid 89
traditionellen 89
Stimmen 89
Methoden 89
reicht 89
dar 89
selbstverständlich 89
beschäftigen 89
Hallo 89
Helden 89
vermitteln 89
medizinische 89
Inhalt 89
besuchen 89
menschliches 89
Operation 89
Stammzellen 89
Wahrnehmung 88
berichten 88
moderne 88
komplexe 88
Wikipedia 88
ale 88
Wesentlichen 88
gelebt 88
angenommen 88
inspiriert 88
fantastisch 88
45 88
NASA 88
anstelle 88
unternehmen 88
Nein 88
Kräfte 88
Schwierigkeiten 88
Nicht 88
Molekül 88
Medikament 88
ansieht 87
gesund 87
Ozeane 87
h 87
Show 87
besitzt 87
Fälle 87
müssten 87
einiges 87
selten 87
reich 87
Gesichter 87
Religionen 87
Aspekt 87
verstehe 87
Z@@ 87
geändert 87
weg@@ 87
erwähnt 87
entfernen 87
gesch@@ 87
menschlicher 87
entworfen 87
Zitat 87
Entdeckung 86
spüren 86
Öffentlichkeit 86
Gegend 86
T 86
schlechter 86
unterstützt 86
wovon 86
soweit 86
wofür 86
gen@@ 86
erfinden 86
achten 86
persönliche 86
fingen 86
fördern 86
Twitter 86
Politiker 86
m@@ 86
nützlich 86
erkennt 85
inzwischen 85
dieselben 85
bar 85
gebraucht 85
gekauft 85
entdeckte 85
senden 85
vorhanden 85
schätzen 85
Glas 85
Zucker 85
teuer 85
Beweise 85
blau 85
ers 85
gegenseitig 85
seid 85
Konflikt 85
kreieren 85
momentan 85
erstellt 85
Diagramm 84
on 84
ergibt 84
Arbeits@@ 84
worauf 84
Bedürfnisse 84
Absicht 84
moralische 84
beispielsweise 84
Theater 84
wieviel 84
Neues 84
Löcher 84
effektiv 84
digitalen 84
L@@ 84
isches 84
21. 84
Landschaft 84
tot 84
darstellen 84
2008 84
Definition 84
reisen 84
zeichnen 84
Gesundheitswesen 84
Gen 84
rechte 84
Kabel 84
enorme 83
Metapher 83
Euch 83
de@@ 83
h@@ 83
bare 83
beweisen 83
standen 83
Wüste 83
Tests 83
zugänglich 83
Stücke 83
Armen 83
weise 83
sucht 83
Stand 83
heißen 83
woran 83
angeht 83
springen 83
unterrichten 83
irgendjemand 83
Gottes 83
Träume 83
seltsam 83
Grafik 83
35 83
anfing 83
Afrikas 83
Beweis 83
Golf 83
stärker 82
Harvard 82
arme 82
anschaut 82
Signale 82
bemerken 82
Lebens@@ 82
Verbreitung 82
C 82
Kern 82
Kohlenstoff 82
wenigstens 82
hierher 82
Pakistan 82
Rätsel 82
Nase 82
Chemie 82
Stuhl 82
Chemikalien 81
dauerte 81
n@@ 81
Gerechtigkeit 81
darstellt 81
bezüglich 81
Laptop 81
ernsthaft 81
ert 81
Re@@ 81
schen 81
Mikroben 81
Pfund 81
rufen 81
Darwin 81
schien 81
wen 81
Unterhaltung 81
rot 81
Entwicklungsländern 81
Wirkung 81
Wow 81
afrikanischen 81
Nigeria 81
Pinguine 81
mittlerweile 80
rote 80
C@@ 80
zweimal 80
School 80
Francisco 80
vorzustellen 80
baut 80
11. 80
mögliche 80
bat 80
worum 80
akzeptieren 80
Resultat 80
at 80
Erfindung 80
überraschend 80
I@@ 80
vieles 80
meinte 80
blauen 80
teilweise 80
positiv 80
digitale 80
kompliziert 79
Professor 79
at@@ 79
automatisch 79
Online 79
überlegen 79
Grundlage 79
Gemeinden 79
High 79
Abschluss 79
Strategie 79
darunter 79
tern 79
ischer 79
ersetzen 79
Magie 79
Ausmaß 79
nen 79
freien 79
berührt 79
außen 79
Häuser 79
steuern 79
a@@ 79
froh 79
Sand 79
Bibel 79
gefallen 79
zusätzlich 79
Islam 79
W@@ 79
durchführen 79
legt 79
unter@@ 79
drücken 79
Text 79
Kontinent 79
verbessert 79
Annahme 79
Werk 79
Achse 79
großartigen 79
X 79
Gemeinschaften 78
Führer 78
st@@ 78
solcher 78
wirtschaftliche 78
men 78
glaubte 78
nebenbei 78
manchen 78
freie 78
auseinander 78
bekomme 78
Tradition 78
aufnehmen 78
Momente 78
kostenlos 78
Phase 78
Brust 78
untersucht 78
Existenz 78
besorgt 78
Maßstab 78
schrecklich 78
halt 78
weißen 78
mach 78
Mitarbeiter 78
singen 78
trinken 78
Restaurant 78
Level 78
perfekte 78
unglaublichen 78
irgendeine 78
hinein@@ 77
Park 77
bekannten 77
Situationen 77
armen 77
Kombination 77
hängen 77
derselben 77
fährt 77
Schaden 77
Selbst@@ 77
Tumor 77
Proteine 77
Untersuchung 77
Über@@ 77
Ereignis 77
schreibt 77
Kampagne 77
realen 77
licher 76
Michael 76
Kapital 76
hervor 76
lokalen 76
glücklicherweise 76
jährige 76
Bank 76
19. 76
Brücke 76
Aussage 76
funktionierte 76
äußerst 76
Tonnen 76
überwinden 76
erweitern 76
eingeführt 76
hielten 76
fasziniert 76
alter 76
leiden 76
Zähne 76
schwimmen 76
führten 76
behaupten 76
bestand 76
Fortschritte 76
Schimpansen 76
Krieges 76
internationalen 76
beenden 76
Bauern 76
chinesische 76
Küste 75
Faktor 75
beibringen 75
Programme 75
eindeutig 75
Open 75
erung 75
abzu@@ 75
Lektion 75
übernehmen 75
ges@@ 75
Chinesen 75
Rechte 75
biologische 75
kannte 75
verstand 75
dargestellt 75
Verlust 75
genetische 75
konzentriert 75
Mehrheit 75
Kenia 75
George 75
der@@ 75
Regionen 75
vermeiden 75
voneinander 75
womit 75
erhöhen 75
DH 75
weiterer 74
enthält 74
Versuche 74
the 74
ie 74
Kinder@@ 74
enorm 74
li@@ 74
kaufte 74
beschloss 74
weshalb 74
Geheimnis 74
Motor 74
nachgedacht 74
Band 74
Garten 74
baute 74
elektrische 74
Ja 74
gewählt 74
Fakten 74
speziellen 74
Folgendes 74
Anteil 74
Diskussion 74
baren 74
folgende 74
Emissionen 74
Architekten 74
Mengen 73
spezielle 73
Meeres@@ 73
Vorteile 73
Respekt 73
gründen 73
St@@ 73
Schritte 73
entstand 73
erkannt 73
Mail 73
75 73
scheinbar 73
Potenzial 73
Stärke 73
Art. 73
grünen 73
gezogen 73
gewisser 73
Weltraum 73
UN 73
eln 73
Gras 73
Buchstaben 73
dank 73
enthalten 73
genetischen 73
organisieren 73
Tiefe 73
aufgewachsen 73
besessen 73
basierend 73
Vorstellungen 73
stoppen 73
Afrikaner 73
Gutes 73
Durchschnitt 73
bietet 73
Nachbarschaft 73
weltweiten 72
Handel 72
ausgeben 72
Los 72
lehren 72
ger@@ 72
100.000 72
o@@ 72
stehe 72
eingeladen 72
Kirche 72
Schuhe 72
blaue 72
Wohlstand 72
verglichen 72
di@@ 72
veränderte 72
medizinischen 72
Dach 72
James 72
Haie 72
Vorstellungskraft 72
aufzu@@ 72
9 72
gemeinsame 72
wechseln 72
Laden 72
Steve 72
BF 72
lebe 71
komm 71
vorbereitet 71
Gebiete 71
Signal 71
ter@@ 71
aufgeregt 71
genügend 71
YouTube 71
Ägypten 71
Kameras 71
World 71
unterwegs 71
anhand 71
auszu@@ 71
halb 71
Gleiche 71
Lager 71
Prinzipien 71
fantastische 71
Einfachheit 71
schwarzen 71
langsamer 71
alen 71
geholfen 71
machst 71
hinzu 71
internationale 71
Konsequenzen 71
se 71
dahinter 71
starben 71
Jahrzehnt 71
Chaos 71
ausgesetzt 71
bezeichnet 70
verschwunden 70
Gegenwart 70
lebendig 70
Paul 70
aufs 70
Innovationen 70
Gehirn@@ 70
Schicht 70
grüne 70
mittels 70
Quellen 70
folgenden 70
mitnehmen 70
2005 70
Nun 70
Entfernung 70
Darstellung 70
jener 70
Gesundheits@@ 70
arm 70
Gang 70
Rand 70
hieß 70
Witz 70
verfolgt 69
ne 69
Bau 69
starken 69
Ohren 69
sichtbar 69
dauern 69
dienen 69
verwandelt 69
Wagen 69
letztlich 69
faszinierend 69
andererseits 69
Aspekte 69
ähnlichen 69
Volk 69
Ingenieure 69
Apple 69
bezeichnen 69
Grippe 69
Seele 69
wem 69
schauten 69
Überleben 69
lebenden 69
Willen 69
wünschte 69
Risiken 69
Schuld 69
Bedrohung 69
Daten@@ 69
junger 69
vertrauen 69
DNS 69
Wenn 69
betreiben 69
selbe 69
Chancen 69
Küche 69
gesetzt 69
bemerkenswert 69
Gemälde 69
etc. 69
Epidemie 69
Schweden 69
Polio 69
höhere 68
Ernährung 68
schwieriger 68
verliert 68
schlafen 68
bauten 68
atmen 68
1.000 68
Computern 68
Kohle 68
Berg 68
Müll 68
systeme 68
Süden 68
Gewinn 68
Systemen 68
et@@ 68
ender 68
Spiegel 68
biologischen 68
umgeben 68
hörten 68
Haiti 68
Ent@@ 68
komplex 68
Billionen 68
Schatten 68
ursprünglich 68
Literatur 68
trug 68
jung 68
Deutschland 68
Räume 68
Obama 68
gerät 68
Mama 67
Brief 67
Weltkrieg 67
moralischen 67
fehlt 67
traurig 67
Vergnügen 67
den@@ 67
anzusehen 67
brechen 67
infiziert 67
wunderbaren 67
Psychologie 67
wirken 67
Geräusch 67
hinzufügen 67
2007 67
Verbrechen 67
schaue 67
offenen 67
erin 67
Thomas 67
Zerstörung 67
Inseln 67
2@@ 67
tiefer 67
Erinnerung 67
iPhone 67
Welten 67
spät 67
Ursprung 67
Neuigkeiten 67
Hotel 67
König 67
Bein 66
Instrument 66
SMS 66
Handys 66
Status 66
lokale 66
einst 66
insgesamt 66
Sonnenlicht 66
Detail 66
1000 66
lichkeit 66
liefern 66
bereich 66
benutze 66
Einstellung 66
unteren 66
gemeinsamen 66
Medium 66
Null 66
.. 66
Samen 66
wahrnehmen 66
Island 66
aktuelle 66
Aktion 66
Brasilien 66
ei@@ 66
Geburtstag 66
betrieben 66
Zuschauer 66
Korruption 66
gefahren 66
Verlauf 65
Winter 65
trafen 65
Pferd 65
kontrolliert 65
falschen 65
Wettbewerb 65
Hunger 65
Paar 65
Umfeld 65
technischen 65
Institut 65
fürs 65
vielmehr 65
Folgen 65
Zuhause 65
beides 65
Aber 65
spiele 65
genießen 65
Physiker 65
Umständen 65
Australien 65
Pollen 65
Er 65
zeigten 65
Echtzeit 65
Armee 65
Schmerzen 65
Hunde 65
tisch 65
Leiden 65
Kon@@ 65
Weisheit 65
Ganzen 65
Babies 65
Vogel 65
Element 65
interessanter 65
Lauf 65
Tier@@ 65
Problems 65
Gemüse 65
weiße 65
on@@ 64
Zufall 64
wunderschöne 64
meist 64
repräsentiert 64
getrennt 64
neigen 64
Moral 64
be 64
Erlebnis 64
deiner 64
Instrumente 64
dunkel 64
hinterlassen 64
is@@ 64
beachten 64
vergangenen 64
Richtungen 64
Blumen 64
21 64
ausge@@ 64
stieg 64
interessanten 64
drittens 64
heben 64
Inspiration 64
Kleidung 64
Ära 64
Berge 64
Ereignisse 64
Gericht 64
stirbt 64
leichter 64
antwortete 64
jährigen 64
herunter 64
erhöht 64
Lebenserwartung 64
suchte 64
Organe 64
einfaches 63
z 63
Proben 63
verursachen 63
Kanada 63
Saal 63
Studio 63
studiert 63
Trend 63
lebende 63
3@@ 63
Ruf 63
still 63
Schrift 63
begegnen 63
Cent 63
Eis@@ 63
Gebäuden 63
beteiligt 63
Viertel 63
grün 63
betroffen 63
begreifen 63
besagt 63
Sichtweise 63
anscheinend 63
lasse 63
or@@ 63
grundlegenden 63
probieren 63
Mangel 63
brach 63
Gas 63
zusammenarbeiten 63
Kongo 63
Gegenden 63
letzter 63
kulturelle 63
schlussendlich 63
reduziert 62
Rück@@ 62
entscheidend 62
Dame 62
Kunst@@ 62
könne 62
Geräusche 62
investiert 62
organisiert 62
West 62
identifizieren 62
bedeutete 62
Paris 62
Schiff 62
konfrontiert 62
verschieden 62
Änderungen 62
vorsichtig 62
Nach@@ 62
Um@@ 62
wenden 62
Population 62
nannten 62
au@@ 62
Fliegen 62
Techniken 62
versteckt 62
Teufel 62
Musiker 62
Ball 62
Einheit 62
Kurve 62
Inhalte 62
nett 62
che 62
Jahrzehnten 62
späten 62
erklärte 62
wirkt 62
Frankreich 62
berühren 62
Russland 62
Körper@@ 62
mehreren 62
liebte 62
Resultate 62
Impfstoff 62
Auswahl 62
gerettet 62
merken 62
Lebensmittel 62
beschrieben 61
Aktivitäten 61
al 61
Licht@@ 61
Bericht 61
Einrichtungen 61
Geschäfte 61
erfüllen 61
Diabetes 61
2006 61
lagen 61
Welt@@ 61
zufrieden 61
All 61
anpassen 61
Aufnahme 61
Ah 61
as@@ 61
Zeit@@ 61
stimmen 61
sogenannte 61
Bibliothek 61
glücklicher 61
Geschenk 61
Drogen 61
verschiedener 61
beigebracht 61
übersetzen 61
bewirken 61
frei@@ 61
sche 61
seltsame 61
Bau@@ 61
Debatte 61
zurückkehren 61
Militär 61
Symptome 61
Würde 61
wozu 61
Asien 61
chinesischen 61
Schicksal 61
elektrischen 61
wirklichen 61
Belohnung 61
verdient 61
Analyse 61
Brustkrebs 61
definiert 61
Di@@ 60
emotionale 60
erhielt 60
Serie 60
Investitionen 60
Fokus 60
Radio 60
ar@@ 60
Nutzung 60
positiven 60
gel@@ 60
Dinger 60
ernähren 60
Warum 60
irgendeinem 60
Klassenzimmer 60
Street 60
Katastrophe 60
ben 60
oberen 60
Januar 60
ergeben 60
os@@ 60
tischer 60
Jahrzehnte 60
erfassen 60
visuelle 60
Erste 60
Marketing 60
wieviele 60
Arme 60
Persönlichkeit 60
Eigenschaft 60
zurückgehen 60
Erwachsenen 60
Philosophie 60
beschreibt 60
Wissenschaftlern 60
doppelt 60
Treffen 60
nervös 60
Verwendung 60
Mut 60
Interaktion 60
Zufriedenheit 60
komplexen 59
Zu@@ 59
Dunkelheit 59
chemische 59
half 59
u@@ 59
tet 59
teil 59
besucht 59
diskutieren 59
leiten 59
ungs 59
Tja 59
Presse 59
trat 59
gelassen 59
ausmachen 59
jeweils 59
ieren 59
drehte 59
Akt 59
Sport 59
tauchen 59
feiern 59
Bildungs@@ 59
art 59
richten 59
langweilig 59
Center 59
planen 59
bedenken 59
arten 59
Ehre 59
Wein 59
heilen 59
wundervolle 59
Bahn 59
trage 59
ellen 59
Zug 59
speziell 59
knapp 59
veröffentlichen 59
Funktionen 59
winzig 59
Familien@@ 59
kl@@ 59
Großen 59
Forschungs@@ 59
General 59
abgesehen 59
eigentliche 59
Umwelt@@ 59
Blatt 59
künstliche 59
kb 59
Strand 58
os 58
Ökosystem 58
form 58
vierte 58
120 58
Land@@ 58
Mittleren 58
intelligente 58
gewann 58
Richtige 58
Anwendungen 58
gewöhnt 58
trennen 58
tischen 58
Dienst 58
Microsoft 58
herunter@@ 58
landen 58
Bus 58
nachts 58
schnelle 58
draussen 58
niemanden 58
Ausgaben 58
ausschließlich 58
Ach 58
Zeitraum 58
Gespräch 58
kon@@ 58
zunehmend 58
mächtig 58
Schulter 58
Bush 58
berechnen 58
bemerkte 58
Blog 58
schlimm 57
beträgt 57
bildet 57
umzugehen 57
Teilnehmer 57
us 57
Mar@@ 57
Gebrauch 57
echtes 57
nationale 57
voraus 57
250 57
höheren 57
dunklen 57
Kern@@ 57
rein@@ 57
Standpunkt 57
hassen 57
Erwachsene 57
gesammelt 57
Uganda 57
Robert 57
kalt 57
besuchte 57
B. 57
malen 57
Flasche 57
Teams 57
2004 57
besseres 57
erwähnen 57
zuhören 57
visuellen 57
wirft 57
Inneren 57
begrenzt 57
Anruf 57
95 57
Lern@@ 57
Überraschung 57
schwierige 57
Wirtschafts@@ 57
Finanz@@ 57
Wahlen 57
Hitze 57
indischen 57
Erwärmung 57
Cola 57
schwarz 56
anbieten 56
dazwischen 56
Reisen 56
interessanterweise 56
Niveau 56
modell 56
weiter@@ 56
V@@ 56
Internet@@ 56
Male 56
Ausnahme 56
zogen 56
ländlichen 56
Gleichung 56
Ruanda 56
Muskeln 56
physische 56
wundervoll 56
verschwindet 56
Gen@@ 56
Fahrrad 56
schwere 56
Anführer 56
Stein 56
Boston 56
Büchern 56
University 56
cm 56
elle 56
Blätter 56
Faktoren 56
Ratten 56
Biologen 56
Waffe 56
wartet 56
Ebenen 56
angesichts 56
ek@@ 56
Trick 56
Interessen 56
Eins 56
vorhin 56
Ausstellung 56
saßen 56
Erwartungen 56
neulich 56
Klima 56
Designs 56
Zeitungen 56
Weltbevölkerung 56
Hinblick 56
Mathematiker 56
Verteilung 56
Täuschung 56
glaubten 56
Toten 56
Metern 56
weibliche 56
Poster 56
treiben 55
Tasche 55
eng 55
innere 55
liebt 55
Kiste 55
kulturellen 55
hingehen 55
Chicago 55
billig 55
jenen 55
kreiert 55
technische 55
ch 55
Top 55
wiederholen 55
struktur 55
50.000 55
Aufbau 55
geöffnet 55
inspirieren 55
kreative 55
Projekten 55
Kuh 55
verlangen 55
Regen 55
Ausrüstung 55
riesiges 55
vorwärts 55
blind 55
Fläche 55
Schnitt 55
Hoch@@ 55
geh 55
Mitglieder 55
irgendwas 55
berühmt 55
Stift 55
werdet 55
Student 55
Stil 55
Batterie 55
Film@@ 55
Blickwinkel 55
exakt 55
Vagina 55
mittleren 55
RB 55
geraten 54
Märkte 54
ot@@ 54
Stoff 54
vollen 54
Mit@@ 54
welt 54
Denkweise 54
Trends 54
befassen 54
fließt 54
Kindersterblichkeit 54
umso 54
800 54
Ein 54
benutzten 54
nochmals 54
keinem 54
Luft@@ 54
Tony 54
jenseits 54
Rad 54
tanzen 54
gestartet 54
Universitäten 54
geworfen 54
zählt 54
2001 54
Ballon 54
besonderen 54
Szene 54
zen 54
gegessen 54
höchsten 54
Schwestern 54
Konzepte 54
Sorge 54
wiederholt 54
Depression 54
Training 54
Führung 54
Explosion 54
Entdeckungen 54
Gedicht 54
setzten 54
Gleichgewicht 54
Origami 54
wahren 54
versorgen 54
Unfall 54
ber@@ 54
kreativen 54
Lächeln 54
Geschmack 54
Korallen 54
gesunden 54
heiß 54
Noten 54
fotografiert 53
winzigen 53
ange@@ 53
2009 53
Atem 53
Schwanz 53
Fabrik 53
Figur 53
Stiftung 53
nachdenkt 53
einzu@@ 53
lose 53
Bedarf 53
ti@@ 53
kreativ 53
Laptops 53
Vorschlag 53
Source 53
Beitrag 53
wunderschön 53
Symmetrie 53
Oxford 53
Gespräche 53
zurückkommen 53
enen 53
Box 53
Eier 53
gelegt 53
Tanz 53
Gold 53
kümmert 53
Leid 53
gewöhnlich 53
trainieren 53
Sicherheits@@ 53
empfinden 53
u 53
le 53
Massen@@ 53
allgemeine 53
zer@@ 53
19 53
treibt 53
einziges 53
schreibe 53
einzigartig 53
Präsidenten 53
Groß@@ 53
Konsumenten 53
Ghana 53
hinauf 53
Symbol 53
Videospiele 53
Gebieten 53
Zwei 53
Papa 53
Energie@@ 53
bewahren 52
ma@@ 52
Anstieg 52
iert 52
gruppe 52
tem 52
stammen 52
zukünftigen 52
profitieren 52
amp 52
schlug 52
tritt 52
eingehen 52
vorn 52
klasse 52
ausgegeben 52
höchste 52
Pflanze 52
benutzte 52
circa 52
fliegt 52
Homo 52
Wurzeln 52
kaputt 52
spielten 52
tieren 52
erfüllt 52
Applaus 52
Welle 52
Lehre 52
sogenannten 52
neugierig 52
Verfahren 52
Intuition 52
Kindes 52
schließt 52
Systems 52
Komponenten 52
Feind 52
Quadrat 52
harte 52
tig 52
verließ 52
gleich@@ 52
übersetzt 52
erledigt 52
ausgebildet 52
Onkel 52
Terrorismus 52
schreckliche 52
verlangt 52
verbrauchen 52
Poesie 52
global 52
Protein 52
Statistik 52
schrieben 51
Köpfe 51
Science 51
außergewöhnlich 51
Teenager 51
angehen 51
grundlegend 51
Magazin 51
Weltall 51
&amp; 51
Nerven 51
zugleich 51
falten 51
ungeheuer 51
Vorträge 51
Plattform 51
Herstellung 51
Aufnahmen 51
23 51
Stille 51
landete 51
Teleskop 51
me 51
gefüllt 51
aten 51
festgestellt 51
om@@ 51
denselben 51
euer 51
drauf 51
tausenden 51
Decke 51
deinem 51
onen 51
Entstehung 51
entgegen 51
Stamm 51
gemessen 51
kochen 51
gte 51
weisen 51
zuletzt 51
gezwungen 51
zweieinhalb 51
Blogs 51
danken 51
Rat 51
Werten 51
hinsichtlich 51
vermute 51
super 51
2010 51
Haare 51
Flüssigkeit 51
schlau 51
physischen 51
Köpfen 51
irgendwelche 51
Flug 51
gründete 51
Sektor 51
bekämpfen 51
Ökonomen 51
Algorithmen 51
öffnet 51
Arbeiter 51
zusätzliche 51
Wohlbefinden 51
Bord 50
gelangt 50
Fett 50
le@@ 50
kauft 50
schieben 50
Holz 50
Sequenz 50
Herz@@ 50
Höhepunkt 50
ersetzt 50
Gipfel 50
ähnliches 50
losen 50
ursprüngliche 50
Entwicklungsländer 50
Abhängigkeit 50
Lichter 50
Reaktionen 50
Marke 50
Blase 50
schlägt 50
schickte 50
erforscht 50
Organismus 50
65 50
gebildet 50
J@@ 50
live 50
ten@@ 50
allzu 50
Mitglied 50
halben 50
legte 50
behaupte 50
Katze 50
erneut 50
Berechnungen 50
Stämme 50
reale 50
traditionelle 50
geredet 50
Meere 50
Augen@@ 50
zentrale 50
am@@ 50
Scham 50
Klinik 50
Genen 50
schießen 50
sag 50
Gedächtnis 50
20.000 50
inmitten 50
Dan 50
befreien 50
it 50
ges 50
ha 50
Mittagessen 50
Operationen 50
5.000 50
Bier 50
aufrecht 50
würdest 50
Wände 50
BIP 50
Chip 50
Männchen 49
kt 49
reparieren 49
unterscheidet 49
schneiden 49
Lehrern 49
Gute 49
sozialer 49
Angeles 49
Anreize 49
lernten 49
involviert 49
außergewöhnliche 49
Preise 49
finanzieren 49
erschien 49
anzuschauen 49
religiöse 49
tige 49
Vorgang 49
Knopf 49
Mikro@@ 49
Musik@@ 49
Fernseh@@ 49
Zell@@ 49
Stanford 49
Theorien 49
tiefe 49
kg 49
verliebt 49
gebrochen 49
verteilen 49
zweites 49
Kapitel 49
ke 49
wodurch 49
Kugel 49
pflanzen 49
volle 49
Wellen 49
früheren 49
britischen 49
Schnee 49
inklusive 49
Zweifel 49
Anhänger 49
l 49
Konflikte 49
wundervollen 49
Hai 49
antworten 49
Erfinder 49
ster 49
Korea 49
Spur 49
k 49
cht@@ 49
eröffnet 49
700 49
Globalisierung 49
Oel 49
Mikroskop 49
hinunter 49
Reich 49
Wärme 49
Phantom 49
Glamour 49
Geruch 48
spiel 48
Texas 48
Super@@ 48
ra@@ 48
bewegte 48
Tom 48
erfand 48
Investition 48
täglichen 48
Umstände 48
Effizienz 48
gesunde 48
2003 48
Geschäfts@@ 48
gewissermaßen 48
Reichweite 48
vermittelt 48
verdammt 48
Werke 48
schafften 48
Bandbreite 48
ausmacht 48
bedeckt 48
flog 48
Wetter 48
altes 48
anfängt 48
ri@@ 48
Milch 48
Februar 48
anzu@@ 48
endes 48
durchzuführen 48
Gore 48
kan@@ 48
gelehrt 48
unsichtbar 48
leuchten 48
geteilt 48
ausdrücken 48
Hinweise 48
analysieren 48
Kreaturen 48
überlebt 48
drei@@ 48
Auftrag 48
Dynamik 48
Flügel 48
27 48
dient 48
wandern 48
los@@ 48
hindurch 48
tete 48
billiger 48
echter 48
TV 48
Ursache 48
Ford 48
geblieben 48
Organ 48
Tränen 48
jährlich 48
Spektrum 48
linke 48
Prototypen 48
Fahrzeuge 48
hoher 47
Se@@ 47
weltweite 47
Pro@@ 47
Business 47
1. 47
ie@@ 47
bares 47
it@@ 47
ker 47
Laufen 47
lenken 47
Dutzend 47
Prozesse 47
Summe 47
großartiger 47
geb@@ 47
raten 47
vieler 47
ignorieren 47
gewinnt 47
liefert 47
Alternative 47
Güte 47
derer 47
Uni 47
Institution 47
irgendeiner 47
Dialog 47
Kriegs@@ 47
füllen 47
schönes 47
Beruf 47
ensch@@ 47
da@@ 47
D 47
dumm 47
Königin 47
wunderschönen 47
b 47
Wichtigste 47
westliche 47
liest 47
unglücklicherweise 47
fuhren 47
Selektion 47
Übung 47
Oktober 47
Menschen@@ 47
Balance 47
interessantes 47
anhalten 47
Angriff 47
selbst@@ 47
Motivation 47
Entschuldigung 47
4@@ 47
gruppen 47
schaffte 47
Winkel 47
auszudrücken 47
22 47
Nichts 47
mochte 47
schöner 47
Budget 47
erledigen 47
arabischen 47
Nahen 47
Simulation 47
Vereinten 47
Mannes 47
Entropie 47
reicher 47
Erkrankungen 47
Cricket 47
SW 47
irgendein 46
Tragödie 46
Ruhe 46
la@@ 46
arbeit 46
17. 46
Autor 46
erfuhr 46
Cambridge 46
Valley 46
regelmäßig 46
Berechnung 46
Stress 46
vielmals 46
Angebot 46
Media 46
getestet 46
irgend 46
ck@@ 46
beitragen 46
offenbar 46
Bedürfnis 46
beginne 46
ältere 46
Wasserstoff 46
Probe 46
Pocken 46
land 46
De@@ 46
sicherstellen 46
niedrig 46
erkunden 46
Haus@@ 46
Lärm 46
Ar@@ 46
rechnen 46
Türkei 46
real 46
Zentimeter 46
Martin 46
Erinnerungen 46
ni@@ 46
jähriger 46
all@@ 46
gelb 46
abge@@ 46
Medien@@ 46
erinnerte 46
Schlüssel@@ 46
Argument 46
allgemeinen 46
löst 46
Entwicklungs@@ 46
zugeben 46
bes@@ 46
verkaufte 46
King 46
Hollywood 46
afrikanische 46
komplexer 46
optimistisch 46
gt 46
nachhaltig 46
Erdbeben 46
einge@@ 46
Anti 46
Plastik@@ 46
nahezu 46
Hand@@ 46
Also 46
ruhig 46
Flugzeuge 46
zuhause 46
Tee 46
j@@ 46
Party 46
einzusetzen 46
Ex@@ 46
Pyramide 45
geschlossen 45
inneren 45
private 45
Verkehr 45
geschichte 45
zukünftige 45
Versorgung 45
bedienen 45
Stabilität 45
Lebensqualität 45
beziehen 45
Bescheid 45
öffentlich 45
zentrum 45
Dimension 45
tisches 45
Gegenstand 45
haus 45
Institute 45
Schau 45
Jesus 45
Kopie 45
laden 45
Gletscher 45
packen 45
2.000 45
Bi@@ 45
Kolonie 45
Post 45
32 45
Internets 45
ausgehen 45
berichtet 45
jenes 45
schwarzes 45
fließen 45
Kreislauf 45
Mr. 45
allgemein 45
unterhalten 45
Hinweis 45
teten 45
Auto@@ 45
Verzweiflung 45
hand@@ 45
et 45
Änderung 45
Flug@@ 45
fokussieren 45
Bombe 45
Man 45
ler 45
älteren 45
schwerer 45
schlimmsten 45
Kom@@ 45
fällen 45
ft 45
geflogen 45
Erd@@ 45
Hirn@@ 45
Leber 45
willkommen 45
In 45
Supermarkt 45
Handlungen 45
Fasern 45
Anerkennung 45
Füße 45
nachhaltige 45
Howard 45
geschützt 45
ol@@ 44
teilnehmen 44
ds 44
endet 44
Großvater 44
Start 44
Hunderte 44
are 44
errichten 44
vorgestellt 44
ärmsten 44
reiste 44
rate 44
Handlung 44
Umgang 44
verhindert 44
Vortrags 44
Buch@@ 44
Ausgabe 44
meint 44
Sammlung 44
bringe 44
stattfindet 44
nationalen 44
geschlagen 44
verlor 44
Florida 44
sozial 44
Länge 44
Fernseher 44
Ameise 44
aufge@@ 44
chten 44
beeindruckend 44
Steine 44
Lieder 44
Durchmesser 44
heran 44
perfekten 44
Herkunft 44
politisch 44
Ehemann 44
Al@@ 44
3.000 44
raum 44
bei@@ 44
Pause 44
Jugend 44
soziales 44
Bar@@ 44
Telefon@@ 44
Pandemie 44
Doktor 44
Brüder 44
Atome 44
d 44
Spuren 44
Pazifik 44
diesmal 44
prüfen 44
Reihenfolge 44
Juni 44
kombinieren 44
Angestellten 44
Produktivität 44
Widerspruch 44
O 44
schwierigen 44
Maße 44
unterhalb 44
Füßen 44
Indiens 44
ä@@ 44
blicken 44
indische 44
herein 44
Taliban 44
Song 44
Restaurants 44
Auswirkung 44
Verbesserung 44
Hirn 44
Maß 44
Skulptur 44
Sprach@@ 44
Bedauern 44
jedesmal 43
Initiative 43
Mittelpunkt 43
Individuum 43
Untersuchungen 43
tiefen 43
Abfall 43
Fettleibigkeit 43
Geld@@ 43
eröffnen 43
PC 43
tolles 43
dreimal 43
stattfinden 43
definitiv 43
startete 43
Man@@ 43
gucken 43
angeschaut 43
Buches 43
normales 43
1960 43
ausführen 43
Große 43
fen 43
enormen 43
Per@@ 43
Öl@@ 43
ung@@ 43
Manager 43
2. 43
bekannte 43
Dezember 43
suche 43
op@@ 43
Hut 43
Strasse 43
Standard 43
Urknall 43
stoßen 43
emotionalen 43
dramatisch 43
Schülern 43
erstaunlichen 43
Vielzahl 43
Handeln 43
jagen 43
Reichtum 43
kannten 43
erwähnte 43
führenden 43
hey 43
Gesundheitssystem 43
kleinere 43
einstellen 43
Frank 43
ak@@ 43
zwingen 43
Abstand 43
ations@@ 43
Endes 43
änderte 43
verarbeiten 43
U@@ 43
greifen 43
Tendenz 43
lügen 43
dankbar 43
geschäft 43
weitermachen 43
präsentieren 43
Mark 43
Kreise 43
Heimat 43
Fach@@ 43
hierbei 43
Feynman 43
raus@@ 42
Schokolade 42
Schreibtisch 42
korrekt 42
Beinen 42
Austausch 42
wünschen 42
privaten 42
ters 42
bewältigen 42
städtischen 42
vielerlei 42
Beobachtung 42
Schlange 42
tiger 42
Ton@@ 42
komplizierte 42
bricht 42
Wissens 42
lächerlich 42
genaue 42
Weltbank 42
finanziert 42
zueinander 42
Abenteuer 42
Strahlung 42
H 42
Par@@ 42
anstellen 42
Ur@@ 42
cken 42
entdeckten 42
Rate 42
gewöhnliche 42
Autorität 42
komplette 42
verletzt 42
Star 42
ungewöhnlich 42
ausreichend 42
tötet 42
Therapie 42
Dichte 42
Manhattan 42
vorhersagen 42
Logik 42
Roman 42
verboten 42
Auflösung 42
vorkommen 42
Väter 42
daten 42
offene 42
Altern 42
Einrichtung 42
handelte 42
nimm 42
Kongress 42
bedroht 42
Partei 42
Mai 42
Farb@@ 42
kurzer 42
vierten 42
bemerkenswerte 42
warte 42
wieder@@ 42
Ben 42
anzugehen 42
fuer 42
erzielen 42
Elektronen 42
Tri@@ 42
geleitet 42
kom@@ 42
gedreht 42
entscheidende 42
Flughafen 42
reise 42
Ethik 42
Hölle 42
hebt 42
redet 42
Comics 42
r 42
Oxytocin 42
erzählten 42
Terroristen 42
Erfindungen 42
verheiratet 42
Smith 42
Prozesses 42
denkst 42
Glas@@ 42
Verletzlichkeit 42
ales 41
Schild 41
lebens@@ 41
Leiter 41
wütend 41
gi@@ 41
Abendessen 41
Management 41
fassen 41
Bäumen 41
unendlich 41
Standard@@ 41
Durchbruch 41
Ingenieur 41
zentralen 41
gestaltet 41
Dienstleistungen 41
wichtiges 41
te@@ 41
Flagge 41
wertvoll 41
überlassen 41
religiösen 41
Drucker 41
technisch 41
Punkten 41
Nordamerika 41
el 41
mitteilen 41
leeren 41
misst 41
klingen 41
üben 41
Yorker 41
aufgeben 41
teure 41
Bitte 41
Sehen 41
Holz@@ 41
Psychologen 41
Humor 41
Gerüst 41
Straßen@@ 41
Eine 41
Anzeige 41
trainiert 41
Mon@@ 41
bau 41
Chef 41
isten 41
Sonnensystem 41
virtuellen 41
berühmten 41
Sitz 41
Rechner 41
verdoppelt 41
Bob 41
si@@ 41
erter 41
Lücke 41
Verlangen 41
Gleichheit 41
fern 41
schlechtes 41
Muslime 41
stets 41
heutige 41
Regierungs@@ 41
relevant 41
ene 41
Aufstieg 41
Weißen 41
konsumieren 41
Le@@ 41
Mikro 41
Interviews 41
bezieht 41
Klimawandels 41
Traditionen 41
Ehe 41
verringern 41
fest@@ 41
überprüfen 41
Umgebungen 41
Stern 41
Weibchen 40
genetisch 40
teile 40
ankommt 40
öfter 40
industrie 40
Rhythmus 40
Schauspieler 40
ys 40
Gehör 40
cht 40
Kapitalismus 40
jenem 40
Nachfrage 40
getragen 40
coole 40
Besten 40
Schichten 40
Mischung 40
klassische 40
dar@@ 40
Erlaubnis 40
beliebt 40
one 40
Meile 40
wiegt 40
Earth 40
fe 40
durfte 40
durchlaufen 40
Drei 40
transportieren 40
Beschreibung 40
ologie 40
Danke 40
teilten 40
rennen 40
Unterricht 40
Satelliten 40
verbrennen 40
Engagement 40
winzige 40
sicherer 40
einziger 40
ansonsten 40
Katzen 40
ausgewählt 40
Mechanismus 40
kopieren 40
Hindernisse 40
G 40
Orchester 40
Lehrerin 40
tatsächliche 40
eingeschlossen 40
unabhängige 40
geformt 40
schief 40
eigentlichen 40
mischen 40
unterrichtet 40
Bild@@ 40
biologisch 40
Autoren 40
faszinierende 40
Meinungen 40
kritische 40
Liter 40
versch@@ 40
Gegen@@ 40
bewirkt 40
Allgemeinen 40
Architekt 40
Pläne 40
verrückte 40
Metaphern 40
berühmte 40
entsprechend 40
Alltag 40
Motoren 40
berechnet 40
Rezept 40
Fünf 40
Adam 40
Solarenergie 40
Menschlichkeit 40
flogen 40
Seide 40
Y 40
Koran 40
verurteilt 40
Meme 40
EM 40
gene 39
individuelle 39
streben 39
ses 39
ierten 39
Geschlecht 39
ruft 39
Italien 39
Stadt@@ 39
Kooperation 39
lokal 39
drüber 39
aktiviert 39
elt 39
glückliche 39
lo@@ 39
drückt 39
wüssten 39
ar 39
Kriege 39
hervor@@ 39
effizient 39
Tausenden 39
Anzeichen 39
dern 39
Knoten 39
Projekts 39
Wortes 39
ur@@ 39
Amerikas 39
männliche 39
Natur@@ 39
Schwerkraft 39
verhält 39
Briefe 39
fer@@ 39
ei 39
em@@ 39
Entwurf 39
interpretieren 39
Li@@ 39
dicht 39
Sternen 39
Tode 39
englischen 39
verfügen 39
Alzheimer 39
darzustellen 39
Tempo 39
reagiert 39
vergrößern 39
Erzählung 39
Aufzeichnungen 39
wüsste 39
Strategien 39
böse 39
aufeinander 39
extra 39
ben@@ 39
häufiger 39
unklar 39
verrückten 39
5@@ 39
ation 39
beizubringen 39
Geräten 39
Sp@@ 39
entschlossen 39
Diagnose 39
Sklaverei 39
Elefanten 39
Studium 39
fantastischen 39
Zusammen@@ 39
Spiels 39
repräsentieren 39
süß 39
komisch 39
Spannung 39
beschützen 39
gelähmt 39
Mauer 39
Tropfen 39
angekommen 39
Zeichnungen 39
Stufen 39
Chirurg 39
Gravitation 39
Wahl@@ 39
intelligenten 39
zwanzig 39
Anlage 39
Peter 39
Gestaltung 39
Fliege 39
ischem 39
Einzelnen 39
Gandhi 39
Bomben 39
Ray 39
uh 39
Atomenergie 39
ms 38
fressen 38
immerhin 38
Immunsystem 38
muster 38
schule 38
Gates 38
Kategorien 38
Arbeitsplätze 38
Toilette 38
ernten 38
ir@@ 38
Rückseite 38
Journalisten 38
eingestellt 38
men@@ 38
Design@@ 38
aufregende 38
heit 38
Fahrer 38
verbraucht 38
lichem 38
Nord 38
Glaube 38
Panik 38
Knie 38
klug 38
verraten 38
widmen 38
aufzunehmen 38
Foundation 38
zi@@ 38
.@@ 38
basieren 38
Biosphäre 38
gefolgt 38
ate 38
züchten 38
Schachtel 38
Stahl 38
Syndrom 38
zwölf 38
Aristoteles 38
Netzwerken 38
angetrieben 38
lage 38
Up 38
Geistes 38
lehrt 38
bedarf 38
Schwarze 38
großem 38
tierte 38
mittel 38
z. 38
akzeptiert 38
Schwimmen 38
Sprecher 38
punkt 38
Charaktere 38
drinnen 38
blieben 38
ell@@ 38
genden 38
ften 38
erfasst 38
he 38
löschen 38
Lehr@@ 38
yeah 38
Qu@@ 38
forschung 38
Wälder 38
Neugier 38
Süd 38
aufmerksam 38
Durch@@ 38
weinen 38
Illusion 38
umzusetzen 38
umgekehrt 38
Mode 38
klinischen 38
re 38
wissenschaftlich 38
Haar 38
schwanger 38
aussah 38
schuldig 38
Unrecht 38
Besitzer 38
Nadel 38
Angiogenese 38
Töchter 38
Hilfsmittel 38
Antarktis 38
konstruieren 38
barkeit 38
Gebäudes 38
Fahrzeug 38
LG 38
Künste 38
gewaltige 37
aufhalten 37
Fisch@@ 37
eh@@ 37
erer 37
rei@@ 37
möchtest 37
klare 37
lese 37
County 37
diagnostiziert 37
gelbe 37
mächtige 37
Bei@@ 37
ankommen 37
individuellen 37
hierfür 37
Redner 37
herzlichen 37
ß 37
26 37
drucken 37
breit 37
Interview 37
Falle 37
ausprobiert 37
tollen 37
abgeschlossen 37
jederzeit 37
weh 37
komplizierter 37
bereiten 37
kr@@ 37
2002 37
wagen 37
Kühe 37
Wut 37
Merkmale 37
unwahrscheinlich 37
verstecken 37
erlangen 37
physikalischen 37
Front 37
Größenordnung 37
hilfreich 37
BG 37
Ma@@ 37
Live 37
gten 37
basierte 37
Annahmen 37
Roten 37
einschließlich 37
ze 37
streiten 37
Griff 37
Saturn 37
y 37
x 37
auftauchen 37
höchst 37
großartiges 37
Streben 37
einzigartige 37
Forschungen 37
gerufen 37
aktuellen 37
nutzten 37
Programmierer 37
zuzuhören 37
anzunehmen 37
besserer 37
verwirklichen 37
Chirurgen 37
diskutiert 37
Überzeugung 37
suchten 37
Besitz 37
legten 37
durchschnittlich 37
Informations@@ 37
Kilo 37
Frei@@ 37
müsst 37
Nervenzellen 37
Foie 37
Richter 37
fair 37
Tricks 37
Sir 37
verbreitete 37
Gegenstände 37
Objekten 37
Löwen 37
Ohr 37
geringer 37
Grösse 37
Fakt 37
gewachsen 37
Meeting 37
beendet 37
abends 37
reiche 37
Treibstoff 37
Genome 37
Wörterbuch 37
warf 37
Blasen 37
Krähen 37
Sätze 37
PM 37
Abed 37
ber 36
fache 36
Antibiotika 36
kte 36
verknüpft 36
freiwillig 36
schickten 36
betonen 36
Zweiten 36
wachsende 36
Kategorie 36
woanders 36
erweitert 36
Mails 36
festhalten 36
Branche 36
April 36
ap@@ 36
generieren 36
mer@@ 36
Interface 36
° 36
angepasst 36
Blut@@ 36
freue 36
Angelegenheit 36
dringend 36
bewegung 36
Herangehensweise 36
tigen 36
begleitet 36
Distanz 36
kriegt 36
niemandem 36
30.000 36
formt 36
Pilze 36
ho@@ 36
heiße 36
Felsen 36
dick 36
wollt 36
schrecklichen 36
Völker 36
Schweine 36
intensiv 36
Lebensraum 36
Privileg 36
Kilometern 36
Ausschnitt 36
keines 36
ehe 36
chemischen 36
beantwortet 36
lauter 36
Zuhören 36
leer 36
Gleichungen 36
beschleunigt 36
wasser 36
Raumes 36
Big 36
geräte 36
gebunden 36
erlaubte 36
Erziehung 36
Kochen 36
Halluzinationen 36
riecht 36
spezifische 36
En@@ 36
ausprobieren 36
Tiefsee 36
Ressource 36
El 36
Hügel 36
L 36
tiges 36
könntest 36
einerseits 36
Mittel@@ 36
Einzel@@ 36
Wichtigkeit 36
lächeln 36
Futter 36
koennen 36
teilt 36
sorgt 36
Schriftsteller 36
Hypothese 36
negativ 36
Ansichten 36
Inder 36
Investoren 36
auswählen 36
Links 36
Dir 36
ökonomische 36
Effekte 36
Ozeans 36
Journalist 36
kombiniert 36
verwendeten 36
R 36
Anweisungen 36
überqueren 36
Flächen 36
vergewaltigt 36
Verbraucher 36
Konsum 36
Datenbank 36
programmiert 36
gross 36
steigern 36
Vorhersagen 36
Mike 36
erfordert 36
Indus 36
untere 35
Wal@@ 35
erhielten 35
problem 35
betreten 35
geeignet 35
fühlten 35
käme 35
Rechts@@ 35
Voraussetzungen 35
ent 35
tiven 35
beschleunigen 35
leere 35
mitgebracht 35
Wohn@@ 35
U.S. 35
Grün 35
zusehen 35
Bürgermeister 35
herrscht 35
verpflichtet 35
Absichten 35
gehst 35
schulen 35
plus 35
gereist 35
August 35
18@@ 35
Anliegen 35
Patent 35
Anderen 35
tatsächlichen 35
aktiven 35
Verstehen 35
eurem 35
intelligent 35
Raketen 35
ignoriert 35
lohnt 35
40.000 35
Erforschung 35
80ern 35
Expedition 35
riesiger 35
Kohlendioxid 35
Kolonien 35
48 35
durchaus 35
angewandt 35
gs 35
motiviert 35
ern@@ 35
einführen 35
ermutigen 35
toller 35
kten 35
Herbst 35
vermuten 35
Gleich@@ 35
seite 35
Neu@@ 35
Interpretation 35
generell 35
Maßnahmen 35
Not@@ 35
ell 35
Autismus 35
bislang 35
Wissenschaften 35
rückwärts 35
gebiete 35
Empathie 35
Schlacht 35
Menschenrechte 35
teilte 35
or 35
eineinhalb 35
integriert 35
rüber 35
1,5 35
heiraten 35
Rettung 35
Medikamenten 35
Sensoren 35
klinische 35
Option 35
aufstehen 35
test 35
ältesten 35
stück 35
umher 35
v@@ 35
negative 35
genannten 35
folgte 35
Ernst 35
abschließen 35
Gas@@ 35
Johnson 35
sendet 35
Tätigkeit 35
se@@ 35
Prioritäten 35
MRT 35
isst 35
Jack 35
britische 35
gewöhnlichen 35
Held 35
Auffassung 35
Praxis 35
28 35
demokratische 35
Kandidaten 35
neuesten 35
gelingt 35
Erbe 35
kurzes 35
Energien 35
Fischer 35
Wale 35
kleinsten 35
Schädel 35
Link 35
Bakterium 35
Sendung 35
beschränkt 35
ewig 35
Beleuchtung 35
Fotografie 35
Ziel@@ 35
band 35
Service 35
Mäuse 35
1@@ 35
Antrieb 35
Formel 35
Genetik 35
Notwendigkeit 35
Skala 35
Schlaf 35
Texte 35
Geographic 35
Kunststoff 35
Wörtern 35
Brian 35
Wolke 35
Kalorien 35
Kyros 35
industrielle 34
Wal 34
angeboten 34
ursprünglichen 34
konzentrierte 34
Experimenten 34
klang 34
Direktor 34
Inter@@ 34
Laser 34
Dich 34
rum 34
schütteln 34
mi@@ 34
technologische 34
begriffen 34
bedeutsam 34
Katastrophen 34
Krankenhäuser 34
Büros 34
Energieverbrauch 34
senken 34
Dollars 34
elte 34
Lebensmittel@@ 34
Klima@@ 34
wachsenden 34
gelben 34
gang 34
Zelt 34
mon@@ 34
wild 34
experimentieren 34
Verbesserungen 34
18. 34
Kino 34
Kortex 34
versetzt 34
verblüffend 34
oftmals 34
schmerzhaft 34
funktion 34
ine 34
sicherzustellen 34
anzufangen 34
möglichkeiten 34
Filmen 34
größeres 34
Versionen 34
bi@@ 34
verläuft 34
hal@@ 34
erende 34
1990 34
Weisen 34
Lunge 34
versagt 34
hingegen 34
gering 34
Schutz@@ 34
bild 34
zeichnete 34
rollen 34
½ 34
Ru@@ 34
demokratischen 34
Bauch 34
erstaunt 34
Christen 34
moralisch 34
ausbreiten 34
anzuwenden 34
wünsche 34
beeindruckt 34
langes 34
lei@@ 34
Wein@@ 34
schreien 34
hei@@ 34
beten 34
Widerstand 34
Künstlern 34
Messer 34
Ärzten 34
elektronische 34
Newton 34
weite 34
radikal 34
Ozeanen 34
Stränge 34
markiert 34
Güter 34
Ökologie 34
greift 34
Reis 34
Sozial@@ 34
Gelegenheiten 34
Rente 34
Schlagzeilen 34
gebiet 34
6@@ 34
kommenden 34
redete 34
Lügen 34
daneben 34
55 34
Taschen 34
bel@@ 34
Erzähler 34
massive 34
Sender 34
Delhi 34
Produkten 34
fügen 34
befand 34
60er 34
graben 34
Ärger 34
Analogie 34
Solar@@ 34
Shanghai 34
Atlantik 34
Stein@@ 34
Rakete 34
Metall 34
--- 34
Gefahren 34
englische 34
Erkenntnisse 34
klettern 34
wuchsen 34
Oberflächen 34
Methan 34
menschlich 34
siehst 34
schnellen 34
theit 34
exponentiell 34
Prototyp 34
umsetzen 34
els 34
Bewohner 34
Veranstaltung 34
glamourös 34
Time 34
Lincoln 34
erreichte 34
Kluft 34
existierte 34
präzise 34
Dopamin 34
woraus 34
absolute 34
Kondome 34
Anwälte 34
Tsunami 34
Carolina 33
pumpen 33
herausstellt 33
Lichts 33
Jones 33
grösser 33
praktische 33
gem 33
Leistungen 33
übernommen 33
Profit 33
Kurzem 33
Transformation 33
Zugriff 33
gewissem 33
herstellt 33
Vaters 33
zudem 33
gung 33
gebrauchen 33
Logo 33
beteiligen 33
motivieren 33
gib 33
Nahrungsmittel 33
umsonst 33
maschine 33
elles 33
Test@@ 33
sk@@ 33
geln 33
Scheibe 33
überein 33
binden 33
Robotern 33
200.000 33
verdoppeln 33
ts@@ 33
wörtlich 33
werk 33
Übertragung 33
gl@@ 33
verwandt 33
erschienen 33
quer 33
versagen 33
Wolken 33
beschrieb 33
benannt 33
Lebensunterhalt 33
Blume 33
treu 33
betreffen 33
Vogel@@ 33
überwachen 33
Ho@@ 33
ff@@ 33
fahre 33
gewohnt 33
10. 33
Union 33
Polizisten 33
Kommentare 33
Lesen 33
Schreiben 33
jegliche 33
schätze 33
sorgfältig 33
schenken 33
Frequenz 33
Atom@@ 33
gh@@ 33
mathematische 33
leise 33
barer 33
Leinwand 33
negativen 33
kleinste 33
zurzeit 33
Anreiz 33
Erzählungen 33
mathematischen 33
fundamentale 33
Übergang 33
Geometrie 33
politischer 33
wow 33
1999 33
na@@ 33
getrieben 33
Klein@@ 33
gelaufen 33
staatlichen 33
Kurs 33
träumen 33
Landkarte 33
Zutaten 33
sprang 33
Unsicherheit 33
realisieren 33
voran 33
tendieren 33
auftreten 33
wärmer 33
Truppen 33
halbes 33
Mandela 33
Entwicklungshilfe 33
Unabhängigkeit 33
öffnete 33
ck 33
Su@@ 33
heran@@ 33
eller 33
sitze 33
erschafft 33
Konzentration 33
Mt 33
tote 33
S 33
Skulpturen 33
bedeutende 33
Muskel 33
Mustern 33
nieder@@ 33
benötigte 33
tionen 33
betrachte 33
Ware 33
finanziellen 33
tiert 33
Alters 33
bösen 33
Kuchen 33
gesünder 33
muslimischen 33
Wirtschaftswachstum 33
tägliche 33
ok@@ 33
Zylinder 33
schlag 33
Übersetzung 33
erenden 33
Süd@@ 33
Slums 33
unglücklich 32
f 32
Bay 32
europäischen 32
herausgestellt 32
wesentlichen 32
Seh@@ 32
Kanal 32
Skelett 32
Talent 32
aufgestellt 32
Trennung 32
Schätzung 32
Dienste 32
60.000 32
Bio 32
2,5 32
Virginia 32
chte 32
langfristige 32
offensichtliche 32
Müll@@ 32
aufwuchs 32
Versagen 32
Kambodscha 32
agieren 32
Sonnen@@ 32
kleineren 32
November 32
Hei@@ 32
aktivieren 32
Impuls 32
nutzte 32
kraft 32
vorschlagen 32
Garage 32
kauften 32
Scan 32
solches 32
gesucht 32
ige 32
cher 32
Wachstums 32
Riesen@@ 32
Bell 32
geplant 32
zusammenfassen 32
Hawaii 32
Stock 32
sp@@ 32
nette 32
transportiert 32
manipulieren 32
Wechsel 32
Meister 32
gemeint 32
komische 32
Fremden 32
Nachmittag 32
Fundament 32
besch@@ 32
speichern 32
Anpassung 32
Taten 32
müde 32
Ultraschall 32
Komponente 32
veröffentlichte 32
Long 32
restlichen 32
ausgestattet 32
gezeichnet 32
zukommen 32
Gestalt 32
zeichnet 32
National@@ 32
Alkohol 32
vornehmen 32
Betrachtung 32
zehntausende 32
Molekülen 32
mithilfe 32
kopiert 32
nebeneinander 32
Arbeitsplatz 32
tauschen 32
fehlen 32
il@@ 32
Anstrengungen 32
bestimmtes 32
ziehe 32
ran@@ 32
wahrscheinlicher 32
durchgehen 32
frühe 32
Dis@@ 32
Militär@@ 32
endete 32
Haltung 32
20@@ 32
Schlag 32
studierte 32
zieren 32
ren 32
jüngeren 32
JH 32
Nachrichten@@ 32
Betracht 32
virtuelle 32
beobachtete 32
rational 32
Euro 32
chs 32
Project 32
Diskussionen 32
Impfstoffe 32
romantische 32
Nelson 32
freier 32
versetzen 32
Kram 32
verzweifelt 32
Connectome 32
riechen 32
liebsten 32
Angesicht 32
beschäftigte 32
60ern 32
stattfand 32
Meeresspiegel 32
festzustellen 32
Treppe 32
Fischen 32
veröffentlichten 32
globaler 32
Tiger 32
vereint 32
gefährliche 32
identisch 32
Standards 32
Visualisierung 32
Balken 32
fach 32
gelandet 32
Orbit 32
systematisch 32
warst 32
weitaus 32
zug 32
Linsen 32
Tim 32
EU 32
anschließend 32
Gesetzen 32
begehen 32
aler 32
nähern 32
Bildungssystem 32
WK 32
Algen 31
Ökosysteme 31
natürlicher 31
Dichter 31
öffentlicher 31
Massen 31
Peer 31
Kosovo 31
hing 31
umfasst 31
gesellschaftlichen 31
Rezession 31
Vermögen 31
finanzielle 31
beseitigen 31
Watt 31
integrieren 31
Eigentum 31
spezifischen 31
lege 31
körperliche 31
komplexes 31
berücksichtigt 31
unmittelbar 31
stimme 31
Fotografen 31
Amerikanischen 31
klassischen 31
Spass 31
Alpha 31
buch 31
versichern 31
obere 31
Fest@@ 31
Techniker 31
len 31
1950 31
typisch 31
Ges@@ 31
Experte 31
Käse 31
liefen 31
toten 31
tere 31
sti@@ 31
Berührung 31
Tanz@@ 31
Bestandteile 31
Entwicklungen 31
Abschnitt 31
eres 31
Mess@@ 31
wartete 31
intellektuelle 31
spontan 31
ationen 31
th@@ 31
Okay 31
br@@ 31
Demonstration 31
physisch 31
for@@ 31
Freiwilligen 31
effizienter 31
logisch 31
schalten 31
radikale 31
Haushalt 31
for 31
Mist 31
Bausteine 31
Geheimnisse 31
Einwohner 31
wohnen 31
350 31
du@@ 31
schwimmt 31
Leser 31
Jetzt 31
Benjamin 31
7@@ 31
Tafel 31
Linse 31
Hall 31
wahrhaftig 31
Zunge 31
Ober@@ 31
euren 31
starkes 31
Block 31
Mitleid 31
geglaubt 31
Felder 31
gelang 31
respektieren 31
Hersteller 31
Dauer 31
Offenheit 31
Tansania 31
Feinde 31
zellen 31
Farm 31
sinkt 31
Fischerei 31
versehen 31
Behälter 31
Tour 31
Zivilisationen 31
Bindung 31
architektonische 31
Rande 31
Motto 31
Singapur 31
Nebel 31
warm 31
Symbole 31
Apfel 31
Sahara 31
Behandlungen 31
Variationen 31
simulieren 31
markieren 31
Coca 31
ismus 31
Spenden 31
Transparenz 31
Völkermord 31
Pinguin 31
nen@@ 31
Sylvia 31
Bestes 31
älteste 31
zweiter 31
Einführung 31
Netze 31
Einnahmen 31
anfingen 31
ner 31
Mo 31
schwamm 31
Bergsteiger 31
weiblichen 30
aßen 30
furchtbar 30
Infektionen 30
Monterey 30
anzupassen 30
Schlaf@@ 30
ta@@ 30
hi@@ 30
Verhaltens 30
tung 30
Werkzeugen 30
Ak@@ 30
Silicon 30
sowieso 30
Fahrt 30
fürchten 30
Kommunikations@@ 30
Nutzer 30
Telefone 30
niedriger 30
wahnsinnig 30
Strafe 30
Wind@@ 30
zahlt 30
leitet 30
produktion 30
verschieben 30
übers 30
programmieren 30
Wohnung 30
Zentren 30
Sonder@@ 30
rasch 30
V 30
zurecht 30
werten 30
netten 30
ü@@ 30
Bewusstseins 30
Heim@@ 30
einig 30
runter@@ 30
anhören 30
begeben 30
Detektor 30
amerikanischer 30
Paradigma 30
Kontroll@@ 30
Gramm 30
72 30
Verteidigung 30
eventuell 30
Rechten 30
bedeutend 30
ton 30
Einzige 30
Batterien 30
Anzug 30
konstruiert 30
abhängt 30
Bestandteil 30
einzigartigen 30
aktive 30
fähigkeit 30
Störungen 30
teste 30
tierten 30
ko@@ 30
kleben 30
verletzen 30
Künstlerin 30
gestohlen 30
verschwand 30
Interessantes 30
Original 30
tions@@ 30
beherrschen 30
Fan 30
filmen 30
bzw. 30
zoomen 30
gesellschaft 30
jedermann 30
fläche 30
fotografieren 30
sammelt 30
verringert 30
zusammengefasst 30
Vorbild 30
geleistet 30
90ern 30
Sport@@ 30
Nest 30
Kreatur 30
Kollege 30
Adresse 30
Algorithmus 30
stürzen 30
Wichtiges 30
36 30
Rennen 30
fange 30
außerordentlich 30
wette 30
Life 30
hungrig 30
Todes@@ 30
Probanden 30
licht 30
durchs 30
Innenstadt 30
Brown 30
Eisen 30
langfristig 30
Sprung 30
ankam 30
hell 30
Benzin 30
einbringen 30
Monster 30
größtenteils 30
zustand 30
saubere 30
firma 30
Ausland 30
bau@@ 30
Banken 30
tödliche 30
angeschlossen 30
Staats@@ 30
anderswo 30
Einzelne 30
Konstruktion 30
fossilen 30
Hals 30
Computers 30
Daniel 30
Innere 30
Tinte 30
Spanien 30
Co@@ 30
Böse 30
Rollen 30
Besuch 30
Agenda 30
Kapazität 30
fall 30
Mor@@ 30
Ökonomie 30
Gesamt@@ 30
wohingegen 30
sinken 30
vergrößert 30
16. 30
folgendermaßen 30
Dankeschön 30
vorkommt 30
sinnvoll 30
Rasse 30
Universen 30
Her@@ 30
Anwalt 30
Blau 30
Botschaften 30
Interessante 30
ns 30
wissenschaft 30
29 30
Bar 30
85 30
herein@@ 30
Brille 30
intuitiv 30
Ergebnissen 30
Erdgas 30
angebracht 30
entfernten 30
Lewis 30
1994 30
Stoffwechsel 30
Charlie 30
schlimmste 30
Gefühlen 30
islamischen 30
33 30
Bergen 30
Henry 30
Dörfer 30
Nachhaltigkeit 30
Ungleichheit 30
Mio. 30
Mammographie 30
Röntgen 30
Melodie 30
Bären 30
Karo 30
Symmetrien 30
w@@ 29
stoff 29
Verschmutzung 29
To@@ 29
sen@@ 29
zwei@@ 29
organisierte 29
engagieren 29
Enkel 29
pp@@ 29
Heimatstadt 29
Berg@@ 29
leidet 29
Produktions@@ 29
Türen 29
Endeffekt 29
Jim 29
starteten 29
Clinton 29
entschloss 29
Bürger@@ 29
klappt 29
teurer 29
Millimeter 29
Zehen 29
grosser 29
stehlen 29
Shakespeare 29
festen 29
Gut 29
wesen 29
treffe 29
riesig 29
elten 29
Hauses 29
probiert 29
teilzunehmen 29
Platten 29
Frühling 29
Tech 29
Scott 29
Kisten 29
Fäden 29
8@@ 29
Hektar 29
umgewandelt 29
par@@ 29
Getreide 29
Biomasse 29
hinaus@@ 29
sauber 29
programm 29
Grundlagen 29
geh@@ 29
zutiefst 29
seltsamen 29
Ladung 29
springt 29
lau@@ 29
umwandeln 29
wunderbares 29
Bewegungs@@ 29
hob 29
Schlangen 29
Töne 29
Comedy 29
mann 29
Freizeit 29
gespannt 29
Kritiker 29
vorlesen 29
zustimmen 29
Krebs@@ 29
Albert 29
entkommen 29
Schwarzen 29
Mythos 29
einfallen 29
geschossen 29
Mühe 29
Strecke 29
bilder 29
ß@@ 29
Kommentar 29
linie 29
Aussehen 29
verlaufen 29
einzelnes 29
ausgehend 29
kriege 29
Parteien 29
hiermit 29
üblicherweise 29
Hong 29
unternommen 29
aufgezeichnet 29
Gewinner 29
lichste 29
Therapien 29
Last 29
untereinander 29
durften 29
fokussiert 29
kognitive 29
Fehl@@ 29
zugrunde 29
Goldene 29
Air 29
Plätze 29
Ski 29
Y@@ 29
Rechnung 29
9@@ 29
5. 29
chen@@ 29
ches 29
lichsten 29
Nobelpreis 29
Neu 29
schmeckt 29
ueber 29
1998 29
Atlanta 29
End@@ 29
männlichen 29
Söhne 29
satz 29
typische 29
Götter 29
analysiert 29
Premierminister 29
Ri@@ 29
stabil 29
vergleicht 29
feld 29
geradezu 29
gewaltig 29
Filter 29
demonstrieren 29
Buddha 29
schlicht 29
ökonomischen 29
Hass 29
Riff 29
Oma 29
Zusammenbruch 29
flach 29
Figuren 29
Überzeugungen 29
empfangen 29
Titan 29
Asteroiden 29
fördert 29
Sowjetunion 29
Joshua 29
Käfer 29
Artenvielfalt 29
gestoßen 29
Milo 29
Juli 29
verknüpfen 29
Nebenwirkungen 29
gerecht 29
Marken 29
beeindruckende 29
überlegt 29
kul@@ 29
Schlag@@ 29
versorgt 29
größe 29
Beobachtungen 29
enz@@ 29
beunruhigt 29
bezogen 29
Glühbirne 29
Konversation 29
Partnerschaft 29
ausgedrückt 29
Staub 29
halfen 29
Rauch 29
Sequenzen 29
Rom 29
mochten 29
weiterentwickelt 29
schufen 29
Gesten 29
Everest 29
steckte 29
Kamel 29
Älterwerden 29
weitergegeben 28
japanischen 28
Nährstoffe 28
zulassen 28
anrufen 28
entlassen 28
ki@@ 28
Kan@@ 28
Clip 28
kor@@ 28
historischen 28
industriellen 28
L.A. 28
ner@@ 28
stiegen 28
Vermächtnis 28
wirtschaftlich 28
Transport 28
erholen 28
beigetragen 28
LED 28
daraufhin 28
grossartige 28
ansah 28
Trinkwasser 28
y@@ 28
ser@@ 28
erwischt 28
Kleider 28
Wahrheiten 28
März 28
Rei@@ 28
schlimme 28
Philosophen 28
kämpft 28
wahrgenommen 28
Ägypter 28
auszuprobieren 28
tiv 28
dunkler 28
Mitteln 28
geholt 28
Hütte 28
Mahlzeit 28
Helium 28
ertes 28
Temperaturen 28
unheimlich 28
Konsequenz 28
ons 28
angezogen 28
gesunken 28
Prä@@ 28
Alexander 28
fa@@ 28
DVD 28
Ethanol 28
anderthalb 28
dergleichen 28
künstlichen 28
Atomen 28
ah 28
Har@@ 28
schlage 28
vertreten 28
inspirierend 28
bereitet 28
eingeschränkt 28
Ku@@ 28
irgendeinen 28
trinkt 28
physikalische 28
versprechen 28
Gehirnen 28
ungewöhnliche 28
merkwürdig 28
neu@@ 28
schicht 28
evolutionäre 28
GPS 28
Versprechen 28
All@@ 28
geprägt 28
ks 28
Regime 28
Behörden 28
keinerlei 28
cke 28
Feedback 28
wenigsten 28
Hausaufgaben 28
projekt 28
Koralle 28
Antikörper 28
merkt 28
systems 28
ungssystem 28
deten 28
ermöglichte 28
Vielen 28
Kevin 28
Waren 28
Forschern 28
nachher 28
zeiten 28
Diät 28
gefühlt 28
ort 28
Anspruch 28
Verletzungen 28
Hemisphäre 28
sichere 28
Johnny 28
Fotograf 28
worin 28
landet 28
37 28
42 28
entschuldigen 28
laufe 28
Reden 28
Mumbai 28
News 28
Teller 28
Chips 28
nde 28
unsichtbaren 28
M 28
setze 28
aß 28
holte 28
einfachste 28
Lachen 28
übersehen 28
angeblich 28
einnehmen 28
ex@@ 28
Umfrage 28
aufstellen 28
ö@@ 28
Tesla 28
durchschnittlichen 28
baue 28
Pro 28
umgesetzt 28
Vertrag 28
enge 28
wachte 28
historische 28
LKW 28
Larry 28
gegenwärtigen 28
transparent 28
70ern 28
gespeichert 28
Spaghetti 28
Schwein 28
Super 28
iPod 28
zuständig 28
frustriert 28
psychologische 28
Mitgefühls 28
Lust 28
Horizont 28
det 28
Häusern 28
geschnitten 28
werte 28
angewendet 28
cks 28
Erfüllung 28
Ängste 28
kognitiven 28
Störung 28
sch 28
zusammengestellt 28
au 28
niedrige 28
haften 28
Grönland 28
Zeitspanne 28
ansprechen 28
Heilung 28
Anti@@ 28
Teil@@ 28
Zwischen@@ 28
Hühnchen 28
Wieder@@ 28
Wer@@ 28
Zeitschrift 28
ente 28
Flaschen 28
Angelegenheiten 28
Po@@ 28
Schalter 28
Diplomatie 28
Co 28
Meeresboden 28
Draht 28
Schock 28
Steinen 28
Abraham 28
Guten 28
Säulen 28
richtet 28
Chinas 28
mittel@@ 28
baten 28
Richtlinien 28
Darm 28
Jazz 28
Gay 28
nahen 28
Redwood 28
Nordpol 28
Libellen 28
Nullsummen 28
Tatsachen 27
North 27
inen 27
wonach 27
ausgezeichnet 27
füttern 27
Flut 27
Parks 27
ausgelöst 27
allmählich 27
man@@ 27
Me@@ 27
Phasen 27
fi@@ 27
aussuchen 27
fordern 27
direkte 27
Rohstoffe 27
Nahrungs@@ 27
Krankenhäusern 27
Steuer@@ 27
örtlichen 27
verschaffen 27
harten 27
Ausnahmen 27
Lab 27
Speicher 27
null 27
Gehalt 27
niedrigen 27
stattgefunden 27
kontrolle 27
ausgeht 27
Wunder@@ 27
Nerven@@ 27
verwende 27
Regal 27
hiervon 27
aufgegeben 27
Unsinn 27
Juden 27
and@@ 27
füllt 27
Globus 27
Genoms 27
Kohlenstoff@@ 27
Teig 27
Überblick 27
Pflanzen@@ 27
Meerwasser 27
Anwesenheit 27
Erklärungen 27
Ka@@ 27
Sorte 27
Gelder 27
spannend 27
Schafe 27
Merkmal 27
do@@ 27
entscheidet 27
Wochenende 27
Witze 27
3000 27
ku@@ 27
Grundschule 27
Bildes 27
hervorragend 27
Mem 27
Harmonie 27
Zuhörer 27
gel 27
Animation 27
Gebilde 27
gende 27
bewiesen 27
verwirrt 27
zentren 27
feuern 27
visuell 27
Einblick 27
Vorgehensweise 27
Model 27
eingebaut 27
schaltet 27
Jäger 27
ne@@ 27
Doppel@@ 27
Erscheinung 27
Strang 27
Räumen 27
ro@@ 27
Messungen 27
istische 27
anische 27
Berichte 27
Konflikten 27
alltäglichen 27
Kliniken 27
Chor 27
Disziplin 27
Anstrengung 27
gewaltigen 27
Irland 27
ator 27
erstmals 27
berücksichtigen 27
Wildnis 27
Teppich 27
veränderten 27
he@@ 27
wählten 27
entnehmen 27
Mein 27
Route 27
47 27
Einheiten 27
verstärkt 27
Fantasie 27
kra@@ 27
merkte 27
Frauen@@ 27
tu 27
Einladung 27
Daumen 27
gebäude 27
Herzkrankheiten 27
W 27
aden 27
technologie 27
schliessen 27
Elektronik 27
Fiktion 27
Dörfern 27
Z 27
scheitern 27
hinterher 27
43 27
Werbe@@ 27
2020 27
unendliche 27
Königreich 27
gestiegen 27
gelegentlich 27
Bemühungen 27
mm 27
fischen 27
minus 27
Boote 27
verleihen 27
esen 27
unsichtbare 27
Zwei@@ 27
künstlich 27
Bach 27
Geh@@ 27
Streifen 27
französische 27
Betrieb 27
bemühen 27
loser 27
Harry 27
Apparat 27
Frustration 27
erstmal 27
Kriminalität 27
Hi 27
jünger 27
Körpern 27
Alternativen 27
dumme 27
verarbeitet 27
militärische 27
Galerie 27
kluge 27
up 27
Interviewer 27
Ausrottung 27
sicheren 27
Extra 27
Tumore 27
Denkens 27
fundamentalen 27
Medizin@@ 27
beliebigen 27
erei 27
herausfanden 27
Industrie@@ 27
Begeisterung 27
geringen 27
Bangladesch 27
ganzer 27
Überfluss 27
emotional 27
Vogelgrippe 27
entsprechen 27
Hüfte 27
Oper 27
Alex 27
Lampe 27
Zero 27
TEDTalks 27
Barmherzigkeit 27
absichtlich 26
bestanden 26
verkauften 26
Zeitschriften 26
Gattung 26
Bruchteil 26
Joe 26
Julia 26
gerichtet 26
atoren 26
abspielen 26
bot 26
Wohnzimmer 26
Rückkehr 26
Honig 26
decken 26
wege 26
überdenken 26
brennen 26
ckt 26
markt 26
zusätzlichen 26
angewiesen 26
typischen 26
cker 26
enten 26
fin@@ 26
ose 26
Dilemma 26
Genie 26
ve 26
Wissens@@ 26
informiert 26
Atheisten 26
pi@@ 26
Rituale 26
El@@ 26
leihen 26
übernimmt 26
Materials 26
Chinesisch 26
schließe 26
Chile 26
Astronomen 26
Myzel 26
Landschaften 26
alternative 26
Substanz 26
Ko@@ 26
iges 26
ermutigt 26
end@@ 26
bestätigen 26
Urlaub 26
Mahlzeiten 26
unge@@ 26
mel@@ 26
Stahl@@ 26
Planung 26
dauernd 26
Sauerstoff@@ 26
bestätigt 26
Ästhetik 26
c@@ 26
ha@@ 26
einzig 26
kern 26
besorgen 26
nirgendwo 26
hen 26
haft 26
aufweisen 26
Zwischenzeit 26
Kurse 26
Square 26
rau@@ 26
informieren 26
Phänomene 26
freuen 26
intelligenter 26
bewerkstelligen 26
Visionen 26
dige 26
Hardware 26
Hören 26
auftritt 26
Klänge 26
Sk@@ 26
schweren 26
schienen 26
gedauert 26
Erschaffung 26
Gefängnis@@ 26
imitieren 26
grösste 26
ierte 26
beschädigt 26
oren 26
Stimulation 26
Stirn 26
Schweizer 26
Klassen 26
Stoffe 26
sexy 26
angreifen 26
ungsprozess 26
Chromosomen 26
einhundert 26
Druck@@ 26
Wissenschafts@@ 26
dreidimensionale 26
1945 26
Pflege 26
Ersten 26
Stolz 26
seither 26
bedient 26
Lego 26
erwecken 26
benennen 26
Verhaltensweisen 26
Spinnen 26
Gr@@ 26
redeten 26
N 26
beinhalten 26
ball 26
weswegen 26
spezifisch 26
Regulierung 26
biologischer 26
Spielzeug 26
breiten 26
Gar@@ 26
Kong 26
durcheinander 26
Installation 26
schickt 26
Mo@@ 26
Strassen 26
stieß 26
verhaftet 26
5000 26
lasen 26
beurteilen 26
Ironie 26
Chirurgie 26
anerkennen 26
hohem 26
dis@@ 26
ausserhalb 26
kostete 26
starker 26
entscheidenden 26
Freiwillige 26
bar@@ 26
artige 26
fte 26
Thailand 26
dreidimensionalen 26
Bu@@ 26
mu@@ 26
ausser 26
Mu@@ 26
bo@@ 26
Food 26
Stapel 26
Höhen 26
Vorhersage 26
Verkauf 26
Runde 26
Bedenken 26
super@@ 26
Mais 26
peinlich 26
sagst 26
kritischen 26
gr@@ 26
Dalai 26
trugen 26
Bösen 26
erfolgreiche 26
Stau 26
ausgesprochen 26
70er 26
Ro@@ 26
Optimismus 26
Seil 26
Glücks 26
vereinen 26
befasst 26
junges 26
stört 26
schwach 26
Raum@@ 26
Joseph 26
130 26
südlich 26
leichten 26
Wright 26
verpasst 26
Or@@ 26
Republik 26
Müttern 26
Panzer 26
Note 26
dete 26
innovativ 26
meinten 26
Designern 26
Steuer 26
punkte 26
Kunde 26
Lee 26
Raums 26
inter@@ 26
theoretisch 26
führung 26
Züge 26
Abkommen 26
Positionen 26
St. 26
mitmachen 26
eurer 26
spenden 26
gesteuert 26
Schwelle 26
Zucker@@ 26
antreibt 26
verlässt 26
Kreuz 26
riefen 26
Frühstück 26
Rollstuhl 26
effektiver 26
Hefe 26
Sammler 26
versus 26
Ha@@ 26
waschen 26
beraten 26
Engineering 26
Berlin 26
Ratte 26
Voraussagen 26
2050 26
Gewässer 26
Hacker 26
Station 25
trieb 25
gesteckt 25
melden 25
Ecken 25
La@@ 25
Wille 25
ineinander 25
per@@ 25
steuert 25
tr@@ 25
Kopf@@ 25
Pferde 25
Craig 25
Fingern 25
Wohltätigkeit 25
Ausschau 25
dokumentieren 25
schnellsten 25
kollektive 25
Amazon 25
Schweiz 25
gewidmet 25
Lektionen 25
regnet 25
Windenergie 25
Jahrhunderte 25
Schaffung 25
tag 25
Zeichnung 25
vorbei@@ 25
IBM 25
errichtet 25
Äthiopien 25
C. 25
12. 25
natürliches 25
Projektes 25
religiös 25
wandert 25
unterschiedlicher 25
aufgehört 25
taucht 25
Gedichte 25
ehren 25
frisch 25
ernsthafte 25
wer@@ 25
Lücken 25
schaffe 25
Ganzes 25
Konkurrenz 25
scannen 25
Scanner 25
bt 25
Seattle 25
Südpol 25
riskieren 25
verließen 25
Neuseeland 25
Auf 25
Zauberer 25
Lungen 25
These 25
Fels 25
belohnt 25
haufen 25
Leben@@ 25
aufhört 25
ökologischen 25
Keller 25
ma 25
Säugetiere 25
Angriffe 25
Vögeln 25
kalten 25
acht@@ 25
illegal 25
Fi@@ 25
präsentiert 25
Bürgern 25
Münze 25
verwendete 25
tel 25
dünne 25
ack@@ 25
kämen 25
Zeile 25
argumentieren 25
befolgen 25
stärksten 25
nt 25
professionelle 25
Ereignissen 25
ersch@@ 25
stern 25
dr@@ 25
einzelner 25
isoliert 25
Verletzung 25
Folter 25
unterbrochen 25
normaler 25
hunderttausende 25
haut 25
Zusammenspiel 25
Prüfung 25
ehr@@ 25
sprache 25
nutze 25
angefertigt 25
angegriffen 25
installiert 25
molekulare 25
betrachtete 25
Enzyklopädie 25
mt 25
hinzu@@ 25
wegnehmen 25
intellektuellen 25
Umfang 25
Magazine 25
Moskitos 25
kel@@ 25
pa@@ 25
ff 25
Hühner 25
Hans 25
einverstanden 25
anlegen 25
rechtzeitig 25
erfolgreichen 25
me@@ 25
ig 25
Indonesien 25
auszusehen 25
Gegner 25
vorzubereiten 25
nung 25
malte 25
ler@@ 25
fehlende 25
erkläre 25
unglaubliches 25
entwicklung 25
zunehmen 25
erlebte 25
alisieren 25
leuchtet 25
hl@@ 25
Hamburger 25
Thunfisch 25
Sauce 25
Stärken 25
assoziiert 25
K 25
Robotik 25
Begriffe 25
Stammes@@ 25
artigen 25
platzieren 25
körperlich 25
ag@@ 25
Ungleichgewicht 25
praktischen 25
d.h. 25
Barrel 25
Streit 25
lich@@ 25
einladen 25
Plattformen 25
Variation 25
Schultern 25
Story 25
Au@@ 25
fort@@ 25
persönliches 25
Jeff 25
Würfel 25
befanden 25
Gu@@ 25
Brokkoli 25
Szenario 25
Szenen 25
abhängen 25
grad 25
Pfad 25
staatliche 25
verstärken 25
überwältigt 25
fl@@ 25
begraben 25
verursachte 25
dreieinhalb 25
hunderten 25
1997 25
Anatomie 25
MS 25
Neigung 25
Celsius 25
kultur 25
Sputnik 25
betrügen 25
Tunnel 25
Piloten 25
Wahnsinn 25
FDA 25
geschätzt 25
Sturm 25
drahtlose 25
Auswahlmöglichkeiten 25
Labor@@ 25
weisst 25
Belohnungen 25
Ostküste 25
Verkehrs@@ 25
Rio 25
Möbel 25
annähernd 25
Haken 25
günstig 25
ethnische 25
Zwecke 25
anten 25
Empfänger 25
Netzhaut 25
schätzt 25
platziert 25
ginge 25
Koffer 25
stellung 25
Priester 25
Videospiel 25
Lebenszeit 25
eingebettet 25
Slum 25
Tra@@ 25
Jeans 25
Krankheits@@ 25
Interaktionen 25
Research 25
Einschränkungen 25
FG 25
Fern@@ 25
bevorzugen 25
Wolfram 25
Macher 25
Diplomat 25
Karikaturen 25
Bombenzielgerät 25
Bucht 24
Nahrungskette 24
stücke 24
del@@ 24
Belastung 24
Grenz@@ 24
übliche 24
Arktis 24
Gesch@@ 24
tin 24
Hinter@@ 24
chn@@ 24
aller@@ 24
vollständige 24
Hier 24
Philanthropie 24
historisch 24
Versuchen 24
überaus 24
zusammenbringen 24
fünfte 24
Betrag 24
wortwörtlich 24
scher 24
Bronx 24
Neben@@ 24
South 24
kommst 24
1970 24
hübsch 24
gendes 24
Benutzer 24
Minister 24
vorherigen 24
lade 24
tik 24
design 24
schönsten 24
reflektieren 24
clever 24
2.0 24
gens 24
heiligen 24
Demut 24
tigkeit 24
Filmemacher 24
97 24
zusammenkommen 24
Eric 24
film 24
Platte 24
platz 24
Kosmos 24
dünn 24
molekularen 24
bißchen 24
kop@@ 24
verschmelzen 24
weitgehend 24
ien 24
Bo@@ 24
ati@@ 24
gest@@ 24
gänzlich 24
om 24
rufe 24
80er 24
abstrakte 24
Treibhausgase 24
Beton 24
kar@@ 24
ordentlich 24
Falken 24
Linken 24
dynamisch 24
einbauen 24
identifiziert 24
Ei 24
mal@@ 24
isieren 24
Grand 24
mer 24
Toleranz 24
Mis@@ 24
ven 24
orientiert 24
schaden 24
gelungen 24
ßen 24
unangenehm 24
behörde 24
verfügt 24
Wei@@ 24
loses 24
hervorrufen 24
visueller 24
multi@@ 24
schau 24
plan 24
des@@ 24
schliesslich 24
Biolumineszenz 24
süchtig 24
ären 24
kollektiven 24
Matrix 24
Prozentsatz 24
är@@ 24
beweist 24
Stephen 24
ad@@ 24
karte 24
Vietnam 24
v 24
offiziell 24
Bestechung 24
Ankunft 24
Nor@@ 24
erlernen 24
Verpflichtung 24
Elite 24
Sen@@ 24
dische 24
besprechen 24
2011 24
heim 24
beruht 24
Montana 24
International 24
Gift 24
mat@@ 24
Kar@@ 24
bewerten 24
blasen 24
währenddessen 24
Arthur 24
Freundes 24
Naja 24
klatschen 24
persönlicher 24
führe 24
gekostet 24
Mobilität 24
Trainer 24
Neurowissenschaft 24
beiseite 24
Stickstoff 24
generiert 24
Scheitern 24
ach 24
gegenwärtige 24
denjenigen 24
Innern 24
Zahn@@ 24
Markt@@ 24
1,@@ 24
Brennstoffe 24
wirtschaftlicher 24
Kennedy 24
Erfolge 24
Abfolge 24
installieren 24
unglaublicher 24
Angestellte 24
strukturen 24
Korallenriffe 24
auftauchte 24
folglich 24
cher@@ 24
ologe 24
Fahr@@ 24
Perspektiven 24
konstant 24
wiederherzustellen 24
Gel@@ 24
SJ 24
anfühlt 24
Halb@@ 24
designen 24
besonderes 24
Tätigkeiten 24
lautete 24
Finanzierung 24
Act 24
Gold@@ 24
extreme 24
Sand@@ 24
Drei@@ 24
Metall@@ 24
Organ@@ 24
Beschäftigung 24
gemeinsames 24
East 24
Stimmung 24
Kopfschmerzen 24
lud 24
sexuell 24
Karikatur 24
optische 24
führer 24
herausfand 24
klicken 24
runden 24
Norwegen 24
finanziell 24
pf@@ 24
Beispielen 24
regulieren 24
Ring 24
verlangsamen 24
wußte 24
gemein 24
Quantenmechanik 24
pro@@ 24
Zustände 24
magischen 24
außergewöhnlichen 24
Netzwerks 24
Brücken 24
Kn@@ 24
Wo 24
Mobiltelefon 24
Mobiltelefone 24
schwache 24
Du@@ 24
Hierarchie 24
Zone 24
Sudan 24
Lehren 24
befestigt 24
weist 24
Mutationen 24
Pilot 24
schnitt 24
Stringtheorie 24
Alaska 24
Musikstück 24
Verhandlungen 24
hmm 24
gründeten 24
Chemiker 24
sang 24
dienst 24
Fülle 24
Geschäftswelt 24
Nord@@ 24
Natasha 24
herauskommt 24
Tänzer 24
Aktivisten 24
4.000 24
Parasiten 24
freundlich 24
Sandwich 24
Verfassung 24
Becher 24
Neuron 24
Brad 24
antreiben 24
Behinderungen 24
losigkeit 24
chinesisches 24
Sharing 24
Transition 24
Thunfische 24
Westküste 23
übergehen 23
Mutter@@ 23
tiere 23
tier 23
packt 23
drastisch 23
Tages@@ 23
schläft 23
künstliches 23
William 23
vorgeht 23
möglichkeit 23
anti 23
Brust@@ 23
betrachteten 23
ökologische 23
Fund 23
schwierigsten 23
Community 23
enttäuscht 23
äußeren 23
Argumente 23
Quadratmeter 23
arbeiter 23
womöglich 23
kehren 23
Recycling 23
erwachsen 23
stärken 23
schichten 23
verbringt 23
reichte 23
gemerkt 23
pu@@ 23
Folien 23
ep@@ 23
teilhaben 23
Früchte 23
schloss 23
fantastisches 23
volles 23
Sklaven 23
Jane 23
mo@@ 23
Freitag 23
Museen 23
Begegnung 23
Propaganda 23
Wall 23
führende 23
ausbilden 23
Park@@ 23
digital 23
herauskommen 23
Rock 23
1996 23
ähnlicher 23
leistung 23
abschließend 23
eli@@ 23
so@@ 23
garantiert 23
ausgestorben 23
Feuer@@ 23
Fuß@@ 23
eng@@ 23
Weizen 23
klappen 23
Regenwald 23
Bio@@ 23
son 23
sichern 23
Webseiten 23
Seiden@@ 23
dauerhaft 23
Schwer@@ 23
Verbrauch 23
Plan@@ 23
34 23
liebend 23
angerufen 23
verteidigen 23
isiert 23
osen 23
versteckte 23
aren 23
Terror 23
maß@@ 23
zufälligen 23
gesundes 23
erfolgreicher 23
undeutlich 23
Rauschen 23
ausgelöscht 23
verwandelte 23
Anlagen 23
Momenten 23
unbekannte 23
Reporter 23
rosa 23
besaß 23
Patientin 23
Gesichts@@ 23
Oliver 23
inn@@ 23
Mathe 23
vergleichbar 23
fisch 23
geringe 23
seln 23
Codes 23
gerissen 23
Suppe 23
Chromosom 23
spürt 23
blickt 23
Verhaltens@@ 23
Akteur 23
Bürgerkrieg 23
Erfassung 23
ut 23
Himmels 23
bern 23
Selbstvertrauen 23
ette 23
Förderung 23
erreichten 23
regeln 23
Steven 23
lie@@ 23
stimmte 23
Leonardo 23
Schatz 23
loswerden 23
Sal@@ 23
Vor 23
Diagramme 23
Force 23
Optionen 23
fügt 23
ef@@ 23
ang@@ 23
tötete 23
Blue 23
16@@ 23
Geduld 23
jahrelang 23
Hof 23
Ne@@ 23
manipuliert 23
ähneln 23
verrichten 23
Träumen 23
berichtete 23
ens@@ 23
schmelzen 23
sauer 23
Blogger 23
140 23
Namibia 23
nachdenke 23
Briten 23
Jemen 23
esten 23
iger 23
analyse 23
realisiert 23
jüngere 23
längere 23
bedenkt 23
Steigerung 23
Ablauf 23
Gewissen 23
ation@@ 23
Nachbar@@ 23
beschaffen 23
Server 23
Varianten 23
Bet@@ 23
notwendigerweise 23
Vernunft 23
vorgeschlagen 23
Hin@@ 23
schuf 23
Flucht 23
eu@@ 23
aufgefallen 23
Rot 23
material 23
Handgelenk 23
angeben 23
zt 23
Zeuge 23
Schöne 23
Hindernis 23
voll@@ 23
Wünsche 23
Mysterium 23
Lama 23
deines 23
antwortet 23
Ger@@ 23
Tal 23
sende 23
Waschmaschine 23
istischen 23
hasse 23
Portrait 23
kreativer 23
Hormon 23
Kultur@@ 23
wolle 23
alität 23
Atombombe 23
schwachen 23
Herrschaft 23
Klavier 23
Ingenieuren 23
assen 23
gend 23
lan@@ 23
Hotels 23
Aufklärung 23
Parkplatz 23
elf 23
Agnes 23
Aquarium 23
Umsetzung 23
druck 23
Unternehmens@@ 23
Prostatakrebs 23
Ostafrika 23
globales 23
Ber@@ 23
befreit 23
kostenlose 23
technik 23
Einstellungen 23
Des@@ 23
Bosnien 23
aktiver 23
Les@@ 23
fe@@ 23
realisierte 23
Kleid 23
behauptet 23
hinweisen 23
rannte 23
Spektrums 23
Zivilgesellschaft 23
Tempel 23
Wohnungen 23
leistet 23
Ego 23
fügte 23
Geschäftsführer 23
grob 23
weitergeben 23
bild@@ 23
Soldat 23
Rechenleistung 23
Atom 23
Vakuum 23
Drachen 23
Vereinbarung 23
Polen 23
Sommer@@ 23
eintausend 23
Stunts 23
Tamiflu 23
allgegenwärtig 23
Nadeln 23
Kurz@@ 23
folgten 23
6.000 23
Disney 23
Krankenschwester 23
Hilfs@@ 23
hervorbringen 23
Tante 23
sonderlich 23
Te@@ 23
tödlichen 23
Reifen 23
Fötus 23
Unfälle 23
Sarah 23
Verlierer 23
Komplex 23
Krankenschwestern 23
Mall 23
Ladungen 23
AIMS 23
Plankton 22
ausgedacht 22
Gedanken@@ 22
Erachtens 22
Tageslicht 22
passiv 22
ban@@ 22
derselbe 22
bewegungen 22
Th@@ 22
qu@@ 22
weiten 22
Durchschnitt@@ 22
aufzeigen 22
überraschen 22
Vernetzung 22
eBay 22
Fiction 22
schutz 22
anlagen 22
sauberer 22
operieren 22
erwachsene 22
Hochzeit 22
abgeschnitten 22
grauen 22
eilen 22
wählt 22
möglichst 22
abgeben 22
Farmer 22
Privat@@ 22
är 22
Mädchens 22
traurige 22
bedecken 22
eile 22
kommerzielle 22
täten 22
hindern 22
erziehen 22
Betriebssystem 22
Material@@ 22
ken@@ 22
dazu@@ 22
einbeziehen 22
Archiv 22
Tausend 22
Bangalore 22
Minen 22
verspreche 22
96 22
Geheim@@ 22
Russen 22
War@@ 22
Mineralien 22
Aussicht 22
wand 22
erk@@ 22
Schirm 22
bank 22
Können 22
Sterben 22
Verluste 22
empfindlich 22
dynamische 22
us@@ 22
äu@@ 22
gefährdet 22
ernste 22
Würmer 22
Ju@@ 22
gefilmt 22
versteckten 22
Vergewaltigung 22
Polizist 22
zutrifft 22
Intensität 22
glücklichen 22
vermehren 22
gemalt 22
aussterben 22
reflektiert 22
Raster 22
Kurven 22
herab@@ 22
schte 22
Beach 22
sichtbaren 22
Kunstwerk 22
begegnet 22
kritisch 22
kehrte 22
interessierte 22
tion 22
verschwanden 22
erkenne 22
Migräne 22
fang 22
gut@@ 22
.... 22
Lippen 22
Variante 22
ziert 22
ität 22
empfehlen 22
stimuliert 22
verbringe 22
hinzugefügt 22
Qualle 22
Schnittstelle 22
überwältigend 22
Steuern 22
hervorzubringen 22
igen 22
Apollo 22
Herrn 22
zugelassen 22
Wegen 22
fli@@ 22
Insekt 22
p 22
Huhn 22
Kalten 22
übermitteln 22
Hör 22
Dokument 22
Jupiter 22
Sierra 22
aufgeteilt 22
massiven 22
Ufer 22
Meeren 22
schießt 22
Ok 22
3. 22
44 22
Montag 22
nicht@@ 22
sel@@ 22
15. 22
Impulse 22
D.C. 22
ologen 22
reißen 22
klaren 22
50er 22
fer 22
tippen 22
schüchtern 22
Unternehmens 22
Mac 22
zufällige 22
üblichen 22
gemeinnützige 22
Meetings 22
Abteilung 22
2030 22
vergeben 22
Republikaner 22
Veröffentlichung 22
IQ 22
kultureller 22
Moore 22
2015 22
Autobahn 22
One 22
Zweite 22
age 22
viereinhalb 22
Sa@@ 22
Radi@@ 22
Web@@ 22
Infektion 22
gemäß 22
externe 22
Teilnahme 22
Neocortex 22
quelle 22
Trauer 22
fische 22
Zer@@ 22
Standort 22
Nervensystem 22
Kette 22
Mag@@ 22
Lebensweise 22
Fußball 22
vier@@ 22
Publikums 22
form@@ 22
grau 22
Salz 22
ur 22
erstaunliches 22
Ausgangspunkt 22
kümmerte 22
mar@@ 22
Währung 22
Kiribati 22
Jungfrau 22
nden 22
alt@@ 22
Ritual 22
spirituellen 22
Brooklyn 22
TEDTalk 22
ele 22
Festival 22
kli@@ 22
Eigen@@ 22
Funktionsweise 22
So@@ 22
Hirns 22
Elektroden 22
Primaten 22
Fleck 22
Quanten@@ 22
besaßen 22
dokumentiert 22
traten 22
quellen 22
forschen 22
Kriterien 22
90er 22
Van 22
wiegen 22
Schoß 22
Fi 22
Flugzeugen 22
Blutgefässe 22
Schwangerschaft 22
Krebszellen 22
Jo 22
teren 22
wirksam 22
bearbeiten 22
totale 22
hervorheben 22
ausschalten 22
Hoffnungen 22
Osteuropa 22
abnehmen 22
Elternteil 22
La 22
Herzinfarkt 22
Behinderung 22
Lei@@ 22
Andere 22
Hafen 22
Wiederaufbau 22
Friedens@@ 22
Stämmen 22
Louis 22
demselben 22
Tiefen 22
aufwachsen 22
schützt 22
Verträge 22
1980 22
komplizierten 22
Schienen 22
gabe 22
Spielern 22
Hinterkopf 22
Bauer 22
absoluten 22
38 22
Listen 22
reist 22
erwartete 22
Durcheinander 22
Finanzkrise 22
Strom@@ 22
evolutionären 22
wei@@ 22
Jamie 22
fehlte 22
Ist 22
Atem@@ 22
fahr@@ 22
verschwenden 22
mitbringen 22
soviele 22
Großeltern 22
Schwimm@@ 22
Hauptstadt 22
Arbeit@@ 22
Jerusalem 22
Wohnwagen 22
Polizei@@ 22
Kibera 22
Lakota 22
Protozelle 22
Protozellen 22
Atrazin 22
welch 21
State 21
auslösen 21
simple 21
anfangs 21
Ozean@@ 21
derart 21
wach 21
1995 21
spieler 21
gef@@ 21
Gründer 21
schnellste 21
sel 21
Mode@@ 21
alismus 21
Kanäle 21
liste 21
Verwaltung 21
gebieten 21
wertvolle 21
pflegen 21
produkte 21
äre 21
verbrannt 21
derzeitigen 21
gegenseitige 21
deuten 21
zunimmt 21
bildung 21
Kraft@@ 21
beheben 21
zusammenzuarbeiten 21
UNO 21
Fot@@ 21
Pat@@ 21
F 21
Automobil@@ 21
angenehm 21
auslöst 21
Paradox 21
herkommen 21
erhöhten 21
Engel 21
heilige 21
zurückzukehren 21
zehnmal 21
betrogen 21
Christus 21
hafte 21
Glaubens@@ 21
eter 21
ausrichten 21
zuallererst 21
übereinstimmen 21
Bündel 21
ffen 21
Griechen 21
digitalisieren 21
nte 21
ing 21
Fl@@ 21
universelle 21
Errungenschaften 21
Teleskope 21
Tor@@ 21
Erdoberfläche 21
Höhle 21
Partikel 21
Bre@@ 21
flug 21
Erleuchtung 21
auff@@ 21
Kredit 21
trauen 21
stein 21
1991 21
aner 21
SS 21
Mögliche 21
Kasten 21
räumen 21
Ursachen 21
CD 21
rauf 21
Im@@ 21
Schöpfung 21
Venus 21
Wurzel 21
musik 21
chter 21
ing@@ 21
lachten 21
liessen 21
Highschool 21
Erderwärmung 21
do 21
kt@@ 21
+ 21
sammelten 21
inspirierte 21
Mark@@ 21
6. 21
zusammengesetzt 21
verlasse 21
eintreten 21
leichte 21
umher@@ 21
zweier 21
Mauern 21
Einsicht 21
aussahen 21
musikalische 21
behindert 21
nor@@ 21
Ferne 21
austauschen 21
Dies 21
Club 21
pe@@ 21
Canyon 21
Beute 21
Hormone 21
tu@@ 21
Hülle 21
Kopien 21
Alphabet 21
digen 21
Akteure 21
Entwickler 21
Geschwister 21
Video@@ 21
ermordet 21
ethnischen 21
bücher 21
enz 21
Hingabe 21
geistige 21
Lehrplan 21
Str@@ 21
schnitten 21
Knochen@@ 21
Evolutions@@ 21
Saurier 21
international 21
verständlich 21
Aha 21
Äpfel 21
Auseinandersetzung 21
Car@@ 21
Zei@@ 21
Fossilien 21
Poly@@ 21
interessiere 21
netter 21
Breite 21
wilde 21
mehr@@ 21
Gruppen@@ 21
mp@@ 21
galt 21
übrigen 21
del 21
nachhaltigen 21
Affe 21
Periode 21
umdrehen 21
Roboter@@ 21
gefühl 21
reine 21
ft@@ 21
haftes 21
jüngste 21
Authentizität 21
American 21
vermischen 21
ziel 21
Gebete 21
deutet 21
erzogen 21
sank 21
Räder 21
Carl 21
Kohle@@ 21
Dänemark 21
drittes 21
Kopenhagen 21
Reformen 21
OECD 21
angelangt 21
Produzenten 21
Impfung 21
Dosen 21
gelten 21
Ernte 21
Temperatur@@ 21
zei@@ 21
etz@@ 21
menge 21
gkeit 21
Jefferson 21
gungen 21
Mal@@ 21
Furcht 21
dichten 21
Elektro@@ 21
dürfte 21
Mutation 21
aufwachen 21
verpassen 21
Stühle 21
Papier@@ 21
So 21
Innen@@ 21
Rechenschaft 21
Integration 21
mentale 21
Saudi 21
Katrina 21
litt 21
Spitzen 21
brennt 21
Gitter 21
magische 21
schlauer 21
Durchschnitts@@ 21
por@@ 21
moderner 21
skeptisch 21
Verschwendung 21
belegt 21
organische 21
Schaltkreis 21
Voll@@ 21
Kilogramm 21
Akademiker 21
fälle 21
Frequenzen 21
Geste 21
einzugehen 21
Chemotherapie 21
Star@@ 21
ernährt 21
Dean 21
packte 21
erzähl 21
Jill 21
van 21
vermischt 21
firmen 21
wissenschaften 21
überholt 21
lagern 21
Vorlieben 21
anzubieten 21
lichkeiten 21
Dreck 21
zes 21
Spielzeuge 21
pH 21
angezeigt 21
alisiert 21
Sendungen 21
Doug 21
Politikern 21
nähert 21
Por@@ 21
geschahen 21
gehörte 21
Feld@@ 21
Handels@@ 21
Palästina 21
überschreiten 21
schaft 21
Persönlichkeiten 21
Insulin 21
replizieren 21
materiellen 21
Amt 21
Kollaps 21
geniale 21
beliebige 21
fahrer 21
instinktiv 21
fan@@ 21
Falten 21
konkurrieren 21
Talente 21
Leidenschaften 21
Personal 21
Langzeit@@ 21
Expansion 21
fliegenden 21
Skelettmuskeln 21
RNA 21
Spinne 21
Social 21
ett 21
passte 21
Transistoren 21
Elektron 21
reichlich 21
Vertreter 21
Win@@ 21
Massachusetts 21
herab 21
Programmen 21
gew@@ 21
sexuelle 21
sammelte 21
Schnurrbart 21
untersuchten 21
grossartig 21
Gesundheitsversorgung 21
verschwendet 21
Schätzungen 21
anziehen 21
Baseball 21
Master 21
Neanderthaler 21
sangen 21
Nano 21
Marker 21
Senf 21
Cheryl 21
Flow 21
Pittsburgh 21
Bertie 21
rettet 20
blockiert 20
Bedingung 20
Ur 20
Nick 20
bearbeitet 20
He@@ 20
festgelegt 20
fordert 20
Index 20
vernetzen 20
derzeitige 20
kind 20
Ofen 20
Norm 20
Kindergarten 20
kühlen 20
Bilanz 20
Elend 20
heim@@ 20
produktiv 20
Br@@ 20
Talk 20
hinter@@ 20
wahrzunehmen 20
Wendepunkt 20
Netz@@ 20
Am@@ 20
1,2 20
Hu@@ 20
effekt 20
Preis@@ 20
Spezialisten 20
erstellten 20
organischen 20
Gra@@ 20
ik 20
gewusst 20
Dekade 20
CNN 20
Jährigen 20
hohes 20
willen 20
Journal 20
bewundern 20
Marken@@ 20
zeichen 20
Erlebnisse 20
Tugend 20
umgibt 20
elektronischen 20
Verpackung 20
parallel 20
aufnahmen 20
Nachts 20
Ehrfurcht 20
einzufangen 20
Blitz 20
voraus@@ 20
zurückbringen 20
Toiletten 20
Ivan 20
Disziplinen 20
Pilz 20
zahlreiche 20
ori@@ 20
abges@@ 20
stoffen 20
Lebensstil 20
unerwartet 20
wissenschaftliches 20
biegen 20
umzuwandeln 20
Kyoto 20
Pestizide 20
Pennsylvania 20
Café 20
berei@@ 20
Bundesstaat 20
ausgerottet 20
Jahrhunderten 20
la 20
Bahn@@ 20
beängstigend 20
Diese 20
Rick 20
Watson 20
genial 20
betrug 20
weggehen 20
aufzugeben 20
gegenüberstehen 20
Billion 20
typischerweise 20
Stillstand 20
Frösche 20
begangen 20
gefährlichen 20
schweben 20
blinde 20
Khan 20
zweifellos 20
drücke 20
eingenommen 20
hierzu 20
wirtschaftliches 20
50. 20
ähnelt 20
og@@ 20
gesendet 20
aufbaut 20
nten 20
kal@@ 20
recht@@ 20
Venezuela 20
ethische 20
Jugendlichen 20
innovative 20
Kam@@ 20
Haushalte 20
Ähnliches 20
Baby@@ 20
extrahieren 20
werben 20
Bedürfnissen 20
Blau@@ 20
ausgeführt 20
ehemalige 20
gender 20
Nachbar 20
kre@@ 20
schaften 20
nördlichen 20
Hammer 20
7. 20
Green 20
geehrt 20
erfreut 20
Campus 20
wi@@ 20
Stu@@ 20
Fra@@ 20
alisierung 20
erkannten 20
wilden 20
anges@@ 20
Heim 20
Lo@@ 20
ka@@ 20
no@@ 20
unbekannten 20
Synästhesie 20
P 20
Computerprogramm 20
tert 20
Fans 20
unschuldig 20
ungeheure 20
technischer 20
Grafiken 20
sam 20
Deine 20
wissenschaftlicher 20
lichere 20
formuliert 20
Parlament 20
eingebracht 20
mus@@ 20
Schulbildung 20
erungs@@ 20
umbringen 20
Todesfälle 20
Durchfall 20
grössten 20
Ban@@ 20
Besch@@ 20
Umweltschutz 20
ant 20
gewiss 20
wasser@@ 20
Ausbruch 20
krise 20
zwangsläufig 20
Nervenzelle 20
warfen 20
Transport@@ 20
Ken 20
Integrität 20
50ern 20
Schlamm 20
Pflicht 20
Schizophrenie 20
arti@@ 20
holt 20
steckten 20
gestimmt 20
31 20
transformieren 20
Lähmung 20
körperlichen 20
kennengelernt 20
Pass 20
Syrien 20
Profil 20
Wetter@@ 20
erungen 20
geliefert 20
boden 20
ordnung 20
Erden 20
genauen 20
aufgezogen 20
Einsichten 20
Michigan 20
entgegen@@ 20
Aufruf 20
ausgestellt 20
Gliedmaßen 20
systemen 20
Nachkommen 20
Pan@@ 20
Fach 20
Unternehmern 20
existierenden 20
Wi 20
tödlich 20
Stadium 20
schlechtesten 20
Nanotechnologie 20
depressiv 20
kühlt 20
gste 20
Football 20
andauernd 20
Kiefer 20
Zusammenfassung 20
Nachdenken 20
ultimative 20
verbrachten 20
Erstes 20
Wahlmöglichkeiten 20
Bits 20
Wand@@ 20
Gelände 20
Prothesen 20
AK 20
jeweiligen 20
ethischen 20
kreuzen 20
Nächstes 20
geschlafen 20
viertel 20
gemeinnützigen 20
Erkrankung 20
Röhre 20
Gefangenen 20
herumzu@@ 20
ausüben 20
Sieg 20
Gewässern 20
1900 20
Chr. 20
chem 20
Stückchen 20
serviert 20
schoss 20
Luther 20
= 20
Denker 20
Anziehungskraft 20
irren 20
Flüsse 20
Zorn 20
Wänden 20
langfristigen 20
Sta@@ 20
nachahmen 20
tau@@ 20
Einklang 20
auswendig 20
leistungs@@ 20
Dutzende 20
Druckerpresse 20
Reduktion 20
Fußball@@ 20
tust 20
Beijing 20
Ren@@ 20
ster@@ 20
tiefsten 20
Liberia 20
seltenen 20
geschenkt 20
Mythologie 20
filtern 20
Dunkeln 20
Moskitonetze 20
Cassini 20
Cloud 20
Solarzellen 20
Schale 20
Schaltkreise 20
Jerry 20
Cluster 20
Orgasmus 20
sieh 20
Kontinenten 20
lebendige 20
Portraits 20
vorherzusagen 20
Oktopus 20
Pik 20
Teszler 20
Familienplanung 20
KT 20
Supraleiter 20
Schau@@ 19
Geldes 19
Kal@@ 19
erst@@ 19
Populationen 19
holten 19
flexibel 19
müsse 19
paaren 19
erfanden 19
Bedrohungen 19
Stiftungen 19
Acumen 19
Global 19
technologischen 19
liegende 19
Zeitungs@@ 19
Banker 19
öffentliches 19
nahme 19
Grün@@ 19
auszugeben 19
mitteln 19
Spezial@@ 19
ansteigen 19
bestehenden 19
immernoch 19
aufzuhören 19
tätig 19
Mittag 19
billige 19
doppelte 19
passend 19
Tastatur 19
einzuführen 19
les@@ 19
go@@ 19
diert 19
anbauen 19
lern 19
Stewart 19
bedingungen 19
Belange 19
Konsument 19
kürzer 19
vollem 19
Genuss 19
Denk@@ 19
est 19
Aufregung 19
eien 19
Atheist 19
leitete 19
alisten 19
nieder 19
Kalender 19
folge 19
Großzügigkeit 19
derung 19
Mechanismen 19
Aufwand 19
Linux 19
ener 19
bel 19
intensive 19
Untergrund 19
zig 19
Schiffe 19
dicke 19
land@@ 19
tri@@ 19
1,3 19
brü@@ 19
seltener 19
siehe 19
Vermutung 19
regenerieren 19
geistigen 19
Ziegen 19
fern@@ 19
zuviel 19
ckte 19
Haar@@ 19
Arizona 19
Bienen@@ 19
berg 19
bewegten 19
Blüte 19
Reihen 19
Biene 19
gehörten 19
prozess 19
Such@@ 19
Professoren 19
neigt 19
ca 19
Royal 19
zone 19
Heiligen 19
Red 19
ka 19
unbe@@ 19
fielen 19
Pol@@ 19
abteilung 19
Milch@@ 19
Erweiterung 19
Magen 19
rennt 19
brillante 19
abläuft 19
unterschied 19
Behauptung 19
unzählige 19
Europäische 19
cooler 19
98 19
Vordergrund 19
Trommel 19
Lichtgeschwindigkeit 19
zer 19
Außen@@ 19
einfangen 19
Baum@@ 19
ktion 19
kooperieren 19
lauf 19
mitfühlend 19
Hemd 19
Verb 19
psychologischen 19
Ideologie 19
herauskam 19
Schlaganfall 19
Blindheit 19
Sehkraft 19
beruhigen 19
Lin@@ 19
Schlussfolgerung 19
bestimmter 19
tagsüber 19
fünften 19
Weihnachten 19
fremde 19
Köder 19
Proteinen 19
Kelly 19
Mehr@@ 19
Verkäufer 19
löste 19
Verarbeitung 19
umgebracht 19
Zehntel 19
unabhängigen 19
Leit@@ 19
prä@@ 19
gezahlt 19
Zauber@@ 19
gst 19
Blutgefäße 19
Nicht@@ 19
.com 19
angelegt 19
Einzelheiten 19
tis 19
Französisch 19
im@@ 19
Leone 19
lehnen 19
korrigieren 19
hässlich 19
Größen 19
Rot@@ 19
Volks@@ 19
beginnend 19
Berkeley 19
absurd 19
Album 19
Bes@@ 19
Universitäts@@ 19
52 19
wesentliche 19
designt 19
kulturell 19
Firmen@@ 19
rechtfertigen 19
Nicole 19
Teils 19
dert 19
hän@@ 19
Recherche 19
esse 19
stes 19
wa@@ 19
eten 19
Programms 19
SARS 19
einfachsten 19
mitzuteilen 19
Windows 19
authentisch 19
Flugzeug@@ 19
erschwinglich 19
Verwandten 19
statistisch 19
stützen 19
Mythen 19
verwalten 19
beschränken 19
effiziente 19
jeglicher 19
theorie 19
Amerikanern 19
tät 19
fürchte 19
Beschleunigung 19
Lebensdauer 19
rum@@ 19
endste 19
belohnen 19
Wohl 19
mächtigen 19
langem 19
zurückgeht 19
jahren 19
entsprechende 19
Umsatz 19
en- 19
Kor@@ 19
zustande 19
gemeinschaft 19
besiegen 19
Barrieren 19
hinausgehen 19
Todes 19
Fabriken 19
eigener 19
Andrew 19
Boden@@ 19
gründet 19
Märkten 19
gegenwärtig 19
anschaue 19
tra@@ 19
Philosoph 19
Wassers 19
Keith 19
befestigen 19
Tor 19
Maler 19
eingesperrt 19
hell@@ 19
verfahren 19
auseinander@@ 19
beauftragt 19
würdig 19
Action 19
verlangsamt 19
aufgabe 19
gefoltert 19
ckten 19
Arabien 19
Sü@@ 19
tanzt 19
hin- 19
Libanon 19
organisierten 19
sicht 19
Titelseite 19
zugegeben 19
Freundschaft 19
Bal@@ 19
maschinen 19
Aussterben 19
Vorhaben 19
angesprochen 19
dichte 19
Brennstoff 19
voraussagen 19
spazieren 19
zugreifen 19
Graph 19
Krankenhaus@@ 19
Nacht@@ 19
akademischen 19
ausgesucht 19
wider 19
geschaut 19
bl@@ 19
vereinfachen 19
schneidet 19
Zigaretten 19
14. 19
solle 19
basierten 19
Volt 19
san@@ 19
Führungs@@ 19
weinte 19
verhandeln 19
nis 19
Com@@ 19
Letzt 19
vorhandenen 19
Kürze 19
gleichermaßen 19
gewartet 19
Regen@@ 19
drehe 19
aufsteigen 19
ul@@ 19
mächtiger 19
sauberes 19
Knöpfe 19
station 19
Verfügbarkeit 19
Notaufnahme 19
Vier@@ 19
Han@@ 19
Sechs 19
ll@@ 19
herunterladen 19
Schöpfer 19
Ed 19
v. 19
Nike 19
Büro@@ 19
hinab 19
Penis 19
un 19
Leistungs@@ 19
Modus 19
Vorgänge 19
Säule 19
deutschen 19
Rückgang 19
Erwachsener 19
Mäusen 19
engen 19
Transplantation 19
Knochenmark 19
erleiden 19
aufzeichnen 19
heiratete 19
idealen 19
südlichen 19
kompletten 19
Nummern 19
Modellen 19
Sitzung 19
verabschieden 19
notwendigen 19
Mc@@ 19
Klick 19
sh@@ 19
Studien@@ 19
diagnostizieren 19
ran 19
Moses 19
Killer 19
Spanisch 19
imitiert 19
OP 19
Gei@@ 19
Company 19
Kriegen 19
Resonanz 19
Fehlen 19
Muschel 19
perfektes 19
Turm 19
wahrer 19
gedruckt 19
Küsten@@ 19
Bad 19
Prinz 19
Gewebe@@ 19
auszubilden 19
unbewusst 19
solltest 19
Schlechtes 19
Hilfsorganisationen 19
Lie@@ 19
Besonderes 19
Arabisch 19
erschossen 19
Papiere 19
erectus 19
Kondom 19
Movember 19
günstiger 19
Unterwasser@@ 19
Produkt@@ 19
forscher 19
Pa@@ 19
Sam 19
Überlebenden 19
DJ 19
gestoppt 19
bleibe 19
Fertigkeiten 19
Bananen 19
Portugal 19
Banjo 19
Higgs 19
Zipcar 19
Malediven 19
Früherkennung 19
Phoenixinseln 19
RSW 19
fabrik 18
Sprichwort 18
Ansammlung 18
Cholera 18
Heimat@@ 18
atmet 18
Werkstatt 18
grünes 18
fertige 18
gewebe 18
bs 18
vernetzt 18
Voraussetzung 18
Abweichung 18
rücken 18
ig@@ 18
Skype 18
kri@@ 18
gewöhnen 18
Intimität 18
teil@@ 18
Kosten@@ 18
Vorbilder 18
Veteranen 18
Zeugs 18
Wohlergehen 18
Geschäftsmodell 18
seins 18
trocken 18
Zustimmung 18
1982 18
professionellen 18
ausgerichtet 18
kin@@ 18
8.000 18
Pumpe 18
funktionierten 18
lauten 18
Jackson 18
Lampen 18
reinigen 18
BMW 18
atur 18
Gesichtsausdrücke 18
Gesichtern 18
Kompromiss 18
gebrochenen 18
Tolle 18
Shirt 18
ellem 18
besuche 18
Wellenlänge 18
tigt 18
Kunstwerke 18
versammeln 18
ausgeschlossen 18
Volumen 18
Geschäftsmodelle 18
erhältlich 18
filme 18
zitieren 18
Amsterdam 18
fahrt 18
Carnegie 18
ari@@ 18
blaues 18
indirekt 18
gefroren 18
bohren 18
russischen 18
Handvoll 18
Res@@ 18
Himalaya 18
Pilzen 18
Sporen 18
Krater 18
Prot@@ 18
Columbia 18
äres 18
interaktiv 18
vernünftig 18
geliebt 18
sperren 18
untersuchte 18
herkommt 18
kel 18
haltung 18
netz 18
Nektar 18
nötige 18
Rasen 18
Renaissance 18
richtiger 18
Francis 18
Verhalten@@ 18
getrunken 18
aufnimmt 18
Improvisation 18
jähriges 18
Roll@@ 18
häufigsten 18
Zufälle 18
verfügbaren 18
Anthropologen 18
Europäischen 18
präsent 18
ergänzen 18
Galileo 18
hellen 18
verdanken 18
feu@@ 18
zugehen 18
Präzision 18
Milchstraße 18
gem@@ 18
Staates 18
Zensur 18
Volkes 18
mobilisieren 18
äußere 18
begegnete 18
iranischen 18
CIA 18
traditionell 18
spürte 18
Burschen 18
hau@@ 18
Cortex 18
Südamerika 18
Cousins 18
inne 18
orientierten 18
angehalten 18
Vi@@ 18
gefördert 18
profitiert 18
Flossen 18
streifen 18
Anzeigen 18
box 18
10@@ 18
samen 18
Vorlesungen 18
auflösen 18
25.000 18
überträgt 18
mechanische 18
Zielen 18
gers 18
herumlaufen 18
Politik@@ 18
omen 18
Außenwelt 18
extremen 18
Berater 18
bildeten 18
Beratung 18
Training@@ 18
psychische 18
erheblich 18
gespendet 18
Symphonie 18
Enthusiasmus 18
Dirigenten 18
Gewinne 18
Synthese 18
klinisch 18
Parkinson 18
Tre@@ 18
Finger@@ 18
Vorbereitung 18
teuren 18
IT 18
ungsp@@ 18
Becken 18
isierung 18
Mary 18
Wachstums@@ 18
tauchte 18
umkehren 18
Sub@@ 18
Lauf@@ 18
karten 18
PowerPoint 18
Bur@@ 18
merkwürdige 18
flachen 18
fre@@ 18
ausdenken 18
Reagan 18
potentielle 18
aufpassen 18
Bilder@@ 18
designer 18
körper 18
Sprech@@ 18
knüpfen 18
vorstellt 18
Koch 18
eingeben 18
Astronomie 18
1986 18
nehmt 18
mittlere 18
A. 18
17@@ 18
studiere 18
Rand@@ 18
proportional 18
gespart 18
Physiologie 18
kur@@ 18
förmige 18
brauchst 18
proben 18
SB 18
nuklearen 18
J 18
1984 18
verwandten 18
gründlich 18
gefiel 18
Evan 18
Barack 18
punkten 18
Alan 18
Normen 18
Psychiater 18
klüger 18
Akzent 18
Lüge 18
Schweigen 18
160 18
itäten 18
Geistes@@ 18
annimmt 18
auftaucht 18
ebene 18
geantwortet 18
0 18
aufwärts 18
chtung 18
Luxus 18
beherrscht 18
kurs 18
branche 18
Japaner 18
übergeben 18
Lizenz 18
bräuchte 18
Essenz 18
organisation 18
wechselt 18
genen 18
Stich 18
erweiterte 18
dominiert 18
Klimakrise 18
Kli@@ 18
geschlossenen 18
drängen 18
politik 18
est@@ 18
mes 18
gesamtes 18
Gegebenheiten 18
Magneten 18
üblich 18
glatt 18
Ente 18
Olympischen 18
Zaun 18
Einkommens 18
nutz@@ 18
Priorität 18
Pop 18
Desaster 18
Romantik 18
Wars 18
Da 18
Bruce 18
mutig 18
Psyche 18
Befreiung 18
Brüdern 18
Bestimmung 18
Umfragen 18
Zentral@@ 18
überwacht 18
Bart 18
Ra@@ 18
sitz 18
lig 18
zusammensetzen 18
Mas@@ 18
Zeilen 18
Vorsicht 18
griff 18
erwarteten 18
verlust 18
Ki@@ 18
mengen 18
genannte 18
Elefant 18
Dankbarkeit 18
46 18
Kontinente 18
Great 18
Sehvermögen 18
bloße 18
grün@@ 18
gleicht 18
block 18
stabilisieren 18
Golfwagen 18
4. 18
mach@@ 18
Konzert 18
Laser@@ 18
Zeugen 18
hoben 18
Südasien 18
Kartoffeln 18
Hoden 18
digitales 18
Raumschiff 18
ergab 18
Sein 18
antun 18
emotionales 18
bte 18
anlage 18
mende 18
Klarheit 18
ausnutzen 18
Handlungs@@ 18
Kreuzung 18
Anordnung 18
verschicken 18
grosses 18
betrieb 18
programme 18
optimieren 18
Besucher 18
Roger 18
Beschränkungen 18
Weiterentwicklung 18
NGOs 18
tauchten 18
ante 18
Pepsi 18
verbesserte 18
Pentagon 18
geschwindigkeit 18
Marketing@@ 18
Mach@@ 18
Heil@@ 18
Datensatz 18
Blöcke 18
Helm 18
Simon 18
attraktiv 18
Ostasien 18
450 18
erwarte 18
gezählt 18
erheben 18
900 18
wählte 18
Rezeptor 18
Ehefrau 18
Schnell@@ 18
Sex@@ 18
Kräften 18
Fett@@ 18
glei@@ 18
winziges 18
Bohr@@ 18
starren 18
erläutern 18
getreten 18
gener@@ 18
Day 18
Ärztin 18
Weihnachtsmann 18
Partnern 18
anfühlen 18
verlegt 18
Kansas 18
86 18
Umwandlung 18
verzeihen 18
Abstimmung 18
Mobile 18
Zyklus 18
herrschte 18
Fortpflanzung 18
Sook 18
Klebeband 18
Spaziergang 18
KI 18
klären 18
Infrarot 18
bene 18
genossen 18
Ernährungs@@ 18
Cents 18
Zugehörigkeit 18
pr@@ 18
improvisieren 18
Notfall@@ 18
Boom 18
Fluktuationen 18
Ob@@ 18
Dokumente 18
gedeihen 18
zurückzukommen 18
Depressionen 18
Sri 18
begründet 18
ewige 18
♪ 18
überwiegend 18
Haup@@ 18
Enceladus 18
begriff 18
WHO 18
Vorträgen 18
belegen 18
Mörder 18
Lithium 18
durchdringen 18
gefeiert 18
Sequenzierung 18
Naturschutz 18
Dreieck 18
positiver 18
Car 18
doodlen 18
Sony 18
Mahmoud 18
Oz 18
heh 18
Spitzen@@ 17
Tokyo 17
unden 17
giftigen 17
Pl@@ 17
Funken 17
Bunker 17
Puppen 17
spiel@@ 17
Kunstform 17
Atmen 17
Brett 17
offen@@ 17
TEDster 17
Leitung 17
Kapital@@ 17
diejenige 17
gespürt 17
Berufe 17
blockieren 17
Haut@@ 17
Regenwasser 17
örtliche 17
hinterlässt 17
.org 17
feste 17
bahn 17
1968 17
Dritte 17
tlich 17
Yves 17
licht@@ 17
Schlimmste 17
billigen 17
ausges@@ 17
Minderheit 17
fixiert 17
lösung 17
organisch 17
erklärten 17
universellen 17
Tes@@ 17
breite 17
leute 17
LEDs 17
verkünden 17
umgeht 17
allerlei 17
Schönes 17
Übereinstimmung 17
ansehe 17
kippen 17
Schw@@ 17
Schwierigkeit 17
ik@@ 17
simpel 17
zerstörte 17
chern 17
fehl@@ 17
spirituelle 17
Bil@@ 17
150.000 17
machbar 17
tanzten 17
Wide 17
chtes 17
Sibirien 17
unbekannt 17
kosmische 17
strahlt 17
schmilzt 17
bu@@ 17
Anblick 17
ologischen 17
stoffe 17
Sonntag 17
Nährstoffen 17
einbezogen 17
fall@@ 17
Larven 17
Wiederherstellung 17
dramatische 17
erzielt 17
Met@@ 17
Spor@@ 17
Ben@@ 17
Hä@@ 17
unerwartete 17
gescheitert 17
bestellen 17
Läden 17
sa@@ 17
wahrsten 17
Amazonas 17
Imker 17
Paket 17
ethisch 17
Weiße 17
lebender 17
Zeitraffer 17
sches 17
Society 17
sau@@ 17
Hosen 17
veranstalten 17
fröhlich 17
änderten 17
schockiert 17
fortfahren 17
Raub@@ 17
zerbrechlich 17
Wissenschaft@@ 17
klugen 17
vernünftige 17
Kritik 17
fal@@ 17
fordere 17
Klang@@ 17
aneinander 17
Mozart 17
Nachthimmel 17
aufnahme 17
Relativitätstheorie 17
Umlaufbahn 17
ju@@ 17
deutsche 17
Schl@@ 17
Abgrund 17
Löchern 17
intelligentes 17
Ursprünge 17
richtung 17
Scherz 17
strecken 17
kämpften 17
istisch 17
Hör@@ 17
Cartoons 17
höherer 17
büchern 17
Youtube 17
anzuhalten 17
dä@@ 17
Kollision 17
erschöpft 17
Barriere 17
Busch 17
Meeresgrund 17
Lebensformen 17
beobachteten 17
Original@@ 17
förmigen 17
Gegenstück 17
kollektives 17
hafter 17
schlossen 17
nisse 17
Belege 17
Gemeinsamkeiten 17
dominierende 17
Sun 17
opfern 17
Pass@@ 17
Mikroorganismen 17
Ähnlichkeit 17
Landes@@ 17
asch@@ 17
Ted 17
Lateinamerika 17
Sinnen 17
stunden 17
Jahres@@ 17
Alters@@ 17
Implikationen 17
Sach@@ 17
vorbereiten 17
anschließen 17
Essens@@ 17
Hypothesen 17
Zahn 17
hattest 17
anfällig 17
aufgaben 17
lieb 17
albern 17
zeig 17
anzusprechen 17
interpretiert 17
gere 17
Dreiecke 17
Grüne 17
werkzeug 17
verschafft 17
ausserdem 17
redest 17
weißer 17
Wirbel 17
Comic 17
beendete 17
uralten 17
3.@@ 17
Unmögliche 17
Anweisung 17
lehre 17
Schall 17
enger 17
bewege 17
Mikrofon 17
tigem 17
ktionen 17
leiter 17
öl@@ 17
einschlagen 17
fluss 17
1500 17
beln 17
Eisbären 17
Philadelphia 17
Gewissheit 17
angenehme 17
internationaler 17
Küchen@@ 17
lin 17
schmecken 17
fü@@ 17
hier@@ 17
Krisen 17
Min@@ 17
Do@@ 17
Ba@@ 17
relative 17
abstrakten 17
kommuniziert 17
Betrachter 17
alem 17
Benzin@@ 17
Mittelklasse 17
Macht@@ 17
längst 17
verbundenen 17
Verleger 17
Pi@@ 17
Jay 17
Paradies 17
streichen 17
Scans 17
Kat@@ 17
Kauf 17
heiten 17
ärer 17
begrüßen 17
täuschen 17
Ehen 17
Spar@@ 17
rührt 17
Top@@ 17
aggressiv 17
We 17
Erdöl 17
180 17
Ölpreis 17
0,@@ 17
reichsten 17
sieren 17
erhöhte 17
Darfur 17
Gordon 17
Supercomputer 17
vernetzten 17
Kl@@ 17
atz 17
Irrtum 17
Biotechnologie 17
zeitliche 17
weitergehen 17
Befehle 17
erneuerbare 17
ill@@ 17
startet 17
wuerden 17
freigesetzt 17
Verschiebung 17
herausstellte 17
registriert 17
Browser 17
hoffnungslos 17
altern 17
begeistern 17
braun 17
fett 17
verlangte 17
reproduzieren 17
Szenarien 17
entfernte 17
Zehn@@ 17
Auslöser 17
Darstellungen 17
ungeachtet 17
erstaunlicherweise 17
go 17
Taxi 17
interviewen 17
schweigen 17
1970ern 17
Qaida 17
illegale 17
Obst 17
Rekord 17
winziger 17
App 17
projiziert 17
Garten@@ 17
verlegen 17
hinteren 17
Statuen 17
küssen 17
sollst 17
muß 17
fen@@ 17
Videospielen 17
Qualitäten 17
erschließen 17
widerstehen 17
flache 17
mancher 17
Schalt@@ 17
wider@@ 17
Emotion 17
Rehabilitation 17
Fusion 17
Quanten 17
dimensionalen 17
Kontrast 17
Radiowellen 17
fortsetzen 17
Susan 17
Panbanisha 17
Anschluss 17
Rettungs@@ 17
fertiggestellt 17
Selbstmord 17
verletzlich 17
abgestimmt 17
Barry 17
allerersten 17
dringen 17
prozentige 17
konsumiert 17
Amy 17
klassisches 17
Bogen 17
unterdrücken 17
lustige 17
Niederlanden 17
names 17
Murray 17
Patente 17
Führungskräfte 17
Erfolgs@@ 17
abend 17
Ste@@ 17
antworteten 17
stoff@@ 17
entwarf 17
System@@ 17
regieren 17
Nachforschungen 17
Teich 17
Bruno 17
30. 17
Pen@@ 17
Moores 17
Display 17
Kraftwerk 17
schafts@@ 17
angemessen 17
Vereinigung 17
aufnahm 17
beschäftige 17
ooh 17
drückte 17
potentiellen 17
Entwicklungsland 17
Eisen@@ 17
nutzlos 17
Santa 17
tigten 17
Wer 17
straßen 17
Führungspersonen 17
endem 17
FOXO 17
merk@@ 17
kreis 17
loszuwerden 17
schrittweise 17
Komponisten 17
anz@@ 17
studien 17
ansteckend 17
synthetische 17
tsch@@ 17
West@@ 17
Kacheln 17
Fremde 17
Akzeptanz 17
Vegas 17
Na 17
artig 17
Charta 17
fr@@ 17
Gebote 17
trank 17
züge 17
Unmengen 17
Basis@@ 17
Bhutan 17
Helikopter 17
1989 17
FBI 17
wunderbarer 17
plan@@ 17
Begriffen 17
bezahlte 17
liebten 17
Jährige 17
Flammen 17
Flüchtlinge 17
töteten 17
Ostens 17
Aminosäuren 17
zusammenbringt 17
Animationen 17
Kur@@ 17
1985 17
locken 17
Aura 17
konzentrierten 17
individuell 17
Tibet 17
Dallas 17
125 17
Sicherheitsrat 17
Wähler 17
1980ern 17
stre@@ 17
islamische 17
Format 17
tief@@ 17
Gewohnheiten 17
Abu 17
Graphen 17
vorführen 17
heißer 17
gewisses 17
Protest 17
Meister@@ 17
Klienten 17
U.N. 17
Vitamin 17
dicken 17
Reise@@ 17
Sparen 17
beleuchtet 17
bräuchten 17
Metalle 17
Bevölkerungswachstum 17
Medienlandschaft 17
For@@ 17
zte 17
Rob 17
fettleibig 17
o.k. 17
Abstammung 17
liegenden 17
impfen 17
Chop 17
Suey 17
Traurigkeit 17
Bezahlung 17
Bono 17
zonen 17
Brothers 17
RG 17
Autonomie 17
YR 17
NM 17
DG 17
WalMart 17
Galois 17
fleisch 16
drei- 16
japanische 16
gekennzeichnet 16
Schäden 16
stärkere 16
produktiven 16
Jahreszeiten 16
Jagd 16
Port 16
grund 16
Seiten@@ 16
realistisch 16
Im 16
neuem 16
verlinken 16
Reichen 16
Warren 16
sämtliche 16
SIe 16
Berufs@@ 16
angestellt 16
las@@ 16
absorbiert 16
River 16
spitze 16
Raten 16
Spruch 16
kündigte 16
Erst@@ 16
Tabelle 16
dlich 16
tenden 16
anwesend 16
zack 16
bekannter 16
verschickt 16
greifbar 16
führ@@ 16
team 16
lingen 16
Partnerschaften 16
produzierte 16
Erwartung 16
ess@@ 16
Stopp 16
mut@@ 16
Ross 16
freut 16
gratis 16
Westeuropa 16
Trost 16
Mondes 16
abschneiden 16
Dingern 16
Bibliotheken 16
high 16
Audio 16
kommerziellen 16
ABC 16
stören 16
chens 16
erz@@ 16
Kosmologie 16
Kälte 16
bedeutenden 16
My@@ 16
überschritten 16
erobert 16
verbundene 16
H5N1 16
ßt 16
tz@@ 16
Sam@@ 16
ob@@ 16
Wüsten@@ 16
Unordnung 16
überraschenderweise 16
Waffen@@ 16
alternativen 16
baum 16
schau@@ 16
aufweist 16
linge 16
Tierarten 16
Rechen@@ 16
Max 16
Tanzen 16
Schilder 16
gestört 16
Menschenmenge 16
arabische 16
Zitate 16
festlegen 16
app@@ 16
begrenzen 16
Akkord 16
tives 16
beunruhigend 16
bewahrt 16
linien 16
Akademie 16
dichter 16
umfassende 16
Lichtjahre 16
Hubble 16
code 16
weißes 16
fundamental 16
verborgen 16
Kerle 16
Zähnen 16
sorge 16
ungemein 16
ironisch 16
geistig 16
Patienten@@ 16
seltene 16
Gyrus 16
bestes 16
ats 16
Intervention 16
ast 16
Mentor 16
ausbreitet 16
Beobachter 16
Nanometer 16
erstreckt 16
einzustellen 16
Revolutionen 16
dutzende 16
unvermeidbar 16
signifikant 16
Kampagnen 16
hinunter@@ 16
Flickr 16
Reality 16
Bomben@@ 16
aufgefordert 16
landeten 16
spiegelt 16
etablieren 16
wanderte 16
ungsprogramm 16
Abends 16
gewannen 16
psychischen 16
außer@@ 16
fühlst 16
künstlerischen 16
musikalischen 16
künstlerische 16
ass@@ 16
anischen 16
Lernens 16
Intel 16
Pille 16
begleiten 16
Beachtung 16
computer 16
probleme 16
Komplikationen 16
Fehlern 16
wandeln 16
geheimen 16
chaotisch 16
keineswegs 16
1993 16
Rex 16
formulieren 16
basis 16
nimmst 16
Regelwerk 16
schwebt 16
ausgesehen 16
win 16
Kepler 16
elegant 16
explodierte 16
militärischen 16
direkten 16
Karibik 16
Gärten 16
Zeichen@@ 16
verrückter 16
unterschiede 16
Raumfahrt 16
respektiert 16
ta 16
stra@@ 16
Stop 16
² 16
unsicher 16
Aussagen 16
stand@@ 16
hierhin 16
dung 16
fähigen 16
Vorzüge 16
ese 16
Fleisch@@ 16
hinsehen 16
Spielplatz 16
Senator 16
ser 16
IDEO 16
Versuchung 16
po@@ 16
Neuro@@ 16
Nairobi 16
beliebtesten 16
level 16
Wald@@ 16
verleiht 16
Dorfes 16
Kamer@@ 16
dungs@@ 16
Kugeln 16
Williams 16
ausländische 16
rettete 16
nigerianischen 16
Londoner 16
Kauf@@ 16
15@@ 16
Unterschieden 16
Miss@@ 16
chst@@ 16
bewerben 16
bestehende 16
abzuhalten 16
Weinen 16
30er 16
hinterfragen 16
ordnen 16
offizielle 16
erschreckend 16
überprüft 16
Pfleger 16
lerne 16
Ta@@ 16
Ch@@ 16
version 16
derjenige 16
Demokraten 16
Offenbarung 16
bin@@ 16
wundern 16
neun@@ 16
ziemliche 16
parken 16
einheit 16
Gallone 16
bekommst 16
erholt 16
besprochen 16
Gange 16
rück@@ 16
hab@@ 16
leistungen 16
erend 16
strömen 16
Wirtschaft@@ 16
Autounfall 16
wirkte 16
Sterblichkeitsrate 16
Mensch@@ 16
Mexico 16
methoden 16
zuverlässig 16
mmen 16
Verwandlung 16
Kämpfe 16
Tennessee 16
ohnehin 16
Projektion 16
einkaufen 16
basteln 16
Feuchtigkeit 16
ete 16
Rund@@ 16
ange 16
bemüht 16
gab@@ 16
dieren 16
rekonstruieren 16
Synapsen 16
Zwillinge 16
lenkt 16
Propheten 16
gelagert 16
kennenlernen 16
platten 16
Far@@ 16
gutem 16
französischen 16
Franzosen 16
wiederholte 16
Ehrlichkeit 16
erinnen 16
Geschenke 16
groß@@ 16
erlaubten 16
tischem 16
Dreh@@ 16
antworte 16
Films 16
taub 16
Wunden 16
gesegnet 16
Maden 16
Geburts@@ 16
auskommen 16
Dubai 16
Bond 16
Zuschauern 16
siert 16
umarmen 16
Einen 16
Letzte 16
Mitgliedern 16
besagte 16
hunderttausend 16
Relation 16
Guardian 16
zuhört 16
statisch 16
empfindet 16
Botschafter 16
optischen 16
urbane 16
enes 16
verk@@ 16
Fakultät 16
Erhöhung 16
Power 16
lung 16
Herzens 16
angucken 16
soeben 16
Pos@@ 16
sätze 16
Ansätze 16
fehlenden 16
Befehl 16
jüngsten 16
Freiheiten 16
Astronauten 16
Ausstoß 16
reisten 16
Gehen 16
region 16
scharf 16
Gesang 16
tungs@@ 16
Sieben 16
einsetzt 16
Entfernungen 16
komplettes 16
Hungersnot 16
70.000 16
abholen 16
Schritten 16
abgebildet 16
Internationalen 16
resultiert 16
unterbrechen 16
Grab 16
unterdrückt 16
lehrte 16
Dylan 16
Dampf@@ 16
Kühlschrank 16
Rauchen 16
Leistungsfähigkeit 16
Schleife 16
verband 16
Mil@@ 16
Wäsche 16
beschissen 16
Princeton 16
McDonald 16
Ballons 16
beruflich 16
Image 16
Bereitschaft 16
zwingt 16
Bro@@ 16
aufzuhalten 16
Unterhaltungs@@ 16
bereitstellen 16
Handschrift 16
ors 16
warnen 16
Rezepte 16
beinhaltete 16
Erholung 16
LKWs 16
Busse 16
Provinz 16
zerfallen 16
erfährt 16
Rabbi 16
gebt 16
methode 16
Organen 16
kräfte 16
dor@@ 16
feuert 16
mor@@ 16
trennt 16
gieren 16
Schwingungen 16
Polar@@ 16
Brennstoffen 16
Tür@@ 16
Stockwerke 16
2,@@ 16
einigermaßen 16
verfügbare 16
gestanden 16
Mes@@ 16
verdammten 16
griechischen 16
Vier 16
Da@@ 16
Armstrong 16
wecken 16
typisches 16
jahr 16
Zehn 16
dungen 16
dritter 16
Straßenrand 16
Budgets 16
eigenartig 16
Berufung 16
verdreifacht 16
Missbrauch 16
funktion@@ 16
regionale 16
Zeremonie 16
Tr@@ 16
Sonnensystems 16
1983 16
PISA 16
Annäherung 16
Zunahme 16
hü@@ 16
mächtigste 16
verlieben 16
Lehrer@@ 16
Assistenten 16
DP 16
digitaler 16
abhalten 16
aufrechterhalten 16
bedingt 16
Archimedes 16
buch@@ 16
betreibt 16
nirgends 16
Dosis 16
Agrar@@ 16
nis@@ 16
blauer 16
Arkansas 16
wohnt 16
Tuberkulose 16
Treffer 16
Kerzen 16
Rhythmen 16
Songs 16
Schwerpunkt 16
begrenzten 16
Südbronx 16
Datenbanken 16
Informationstechnologie 16
Flecken 16
Lautsprecher 16
Sti@@ 16
Hochschule 16
übt 16
Photosynthese 16
Wesentliche 16
linear 16
Jugendliche 16
Mi@@ 16
Geräuschen 16
Quallen 16
Bali 16
Couch 16
witzig 16
Fort 16
Silikon 16
Detroit 16
1992 16
Ziege 16
Schottland 16
lö@@ 16
bewusste 16
Julian 16
Scheiben 16
erneuerbaren 16
auszurotten 16
Medienunternehmen 16
Töten 16
Neandertaler 16
seltsames 16
isolieren 16
einschalten 16
aufgelöst 16
erfuhren 16
Fuss 16
Quantentheorie 16
Bälle 16
Großbritanniens 16
gan@@ 16
Gelächter 16
Schiffen 16
Verbundenheit 16
Archie 16
Lügner 16
Kriminelle 16
AV 16
Rupien 16
Roots 16
Shoots 16
Indianer 16
Mamma 16
Schwefelwasserstoff 16
Sonde 16
Grace 16
Elisabeth 16
entschlüsseln 16
Replikator 16
Aimee 16
Romo 16
Umweltverschmutzung 15
verdeutlichen 15
Delphine 15
Sterberate 15
Raubtier 15
enthielt 15
Protokoll 15
Jahrzehnts 15
eri@@ 15
Nationalpark 15
menschlichem 15
beg@@ 15
funktionierende 15
erwiesen 15
Vorder@@ 15
pos@@ 15
beleuchten 15
Dritten 15
Wort@@ 15
erfordern 15
Isolation 15
Miller 15
ppe 15
stundenlang 15
oberhalb 15
Mittelalter 15
zeug 15
komischen 15
Arbeitslosigkeit 15
technisches 15
ed@@ 15
mten 15
befriedigen 15
Abfall@@ 15
gigantische 15
medizinischer 15
städtische 15
landwirtschaftlichen 15
Gesundheitswesens 15
vernichten 15
Glück@@ 15
15.000 15
Bevölkerungs@@ 15
geheiratet 15
Bühnen@@ 15
Bauen 15
graue 15
fehler 15
Englischen 15
iPods 15
Notizen 15
Dschungel 15
luden 15
sprozess 15
macher 15
sass 15
bloss 15
langsamen 15
liege 15
universell 15
enthüllen 15
schwingen 15
Fuss@@ 15
schnappen 15
Weihnachts@@ 15
Alten 15
Abschluss@@ 15
Romane 15
umkreisen 15
katholischen 15
jüdische 15
Moschee 15
Kathedrale 15
deprimiert 15
verfasst 15
Sektoren 15
fahrten 15
sektor 15
Einzelpersonen 15
festgehalten 15
hübsche 15
werken 15
Hundert 15
herausgekommen 15
BBC 15
zurückgelassen 15
Hinterhof 15
Eises 15
Risse 15
poli@@ 15
befördert 15
besonderer 15
Begründung 15
Fallschirm 15
Fungi 15
ier@@ 15
ut@@ 15
Photo 15
Zweig 15
beseitigt 15
Stand@@ 15
Bundes@@ 15
Pizza 15
Korallenriff 15
x@@ 15
Grundidee 15
Voraus 15
Tu@@ 15
Gri@@ 15
gsten 15
Dave 15
ein- 15
empfehle 15
wahrhaft 15
Sexual@@ 15
Aspekten 15
hervorruft 15
Antenne 15
kontinuierlich 15
tan@@ 15
mechanismus 15
vermögen 15
Absatz 15
Rein@@ 15
Niederländer 15
verwirrend 15
verkündete 15
jährliche 15
Jahrtausende 15
frühere 15
freiheit 15
sin@@ 15
misch 15
Glaubens 15
klettert 15
helle 15
Nutz@@ 15
jemandes 15
tre@@ 15
gefressen 15
Eigeninteresse 15
verdrahtet 15
aktuell 15
Fin@@ 15
zierte 15
vergangen 15
Ehrgeiz 15
vorspielen 15
zeit@@ 15
schreckliches 15
bekanntlich 15
gefährdete 15
operiert 15
Wach@@ 15
Rassismus 15
hilflos 15
dementsprechend 15
Manifestation 15
ironischerweise 15
hr@@ 15
Aufstände 15
Teheran 15
geheim 15
lächelt 15
hör@@ 15
Kreisen 15
passten 15
besuchten 15
Sicht@@ 15
Frosch 15
Grundsatz 15
Übungen 15
davon@@ 15
Bezirk 15
sebene 15
Tauchgang 15
pan@@ 15
See@@ 15
ah@@ 15
anfertigen 15
reißt 15
nachdachte 15
Nuklear@@ 15
Fairness 15
Herde 15
Gefangene 15
funktionierenden 15
Betrüger 15
bestrafen 15
neuro@@ 15
bereichern 15
Naturwissenschaften 15
Leidens 15
bildern 15
Datum 15
Abbildung 15
1975 15
Einwohnern 15
symbolisiert 15
nichtsdestotrotz 15
fügten 15
materielle 15
tiefste 15
Telefonen 15
Satzes 15
Menschheitsgeschichte 15
welle 15
durchführt 15
interaktive 15
Akte 15
Mit 15
aufzustellen 15
gejagt 15
Telefonnummer 15
Mississippi 15
licherweise 15
geriet 15
Verwaltungs@@ 15
ruiniert 15
unfair 15
Fer@@ 15
natur@@ 15
Jean 15
Kopernikus 15
Geister 15
problematisch 15
fol@@ 15
umgekehrte 15
elemente 15
Paare 15
Grünen 15
Vorfall 15
Ronald 15
Amerikanische 15
beeinträchtigen 15
Wel@@ 15
Bank@@ 15
anzugreifen 15
Cartoon 15
Prüfungen 15
geheime 15
wertvollen 15
Post@@ 15
Sänger 15
AB 15
64 15
0@@ 15
Magier 15
eben@@ 15
Ingenieur@@ 15
Technologen 15
Kante 15
imstande 15
mern 15
sortieren 15
Rau@@ 15
stapeln 15
Vorschein 15
stufen 15
Abwesenheit 15
Wilson 15
Lö@@ 15
offener 15
bereitgestellt 15
Mak@@ 15
Gerichte 15
Limonade 15
rat@@ 15
kocht 15
regel@@ 15
Nathan 15
min@@ 15
este 15
ermitteln 15
Gesichts 15
Haaren 15
augenblicklich 15
Nigerias 15
stete 15
Virgin 15
Mexikaner 15
unglücklichen 15
angetan 15
Nollywood 15
ablehnen 15
Ellenbogen 15
Radiologen 15
Lungenentzündung 15
Moderne 15
pl@@ 15
erkranken 15
sinn 15
Behauptungen 15
prinzipiell 15
aut 15
läu@@ 15
tiker 15
massiv 15
50@@ 15
mithalten 15
Kommunen 15
Richtlinie 15
stetig 15
Gesetzes@@ 15
eingebunden 15
stößt 15
stammten 15
verwaltet 15
gesetz 15
stabile 15
weiterentwickeln 15
umfassen 15
gesellschaften 15
wertschätzen 15
farbigen 15
häufigste 15
infizierten 15
dere 15
versprochen 15
nutzbar 15
staaten 15
etabliert 15
schlief 15
Dias 15
niedrigsten 15
Technologie@@ 15
ultimativen 15
kurz@@ 15
politisches 15
wuerde 15
soetwas 15
nder 15
anfassen 15
ga@@ 15
Delfine 15
su@@ 15
durchgemacht 15
fein@@ 15
feine 15
Zeiträume 15
19@@ 15
würdigen 15
KS 15
nass 15
Liebling@@ 15
tt@@ 15
Notfall 15
flü@@ 15
hältst 15
Segen 15
entwirft 15
explodieren 15
Luke 15
Taiwan 15
fernsehen 15
mathematisches 15
forderten 15
Wunde 15
Shows 15
Als 15
wart 15
Wil@@ 15
entführt 15
verabschiedet 15
Ruder 15
Marathon 15
hinüber 15
Trade 15
res@@ 15
CAD 15
Pool 15
beschweren 15
tens 15
Schläge 15
Schlachtfeld 15
Pillen 15
Sucht 15
Idiot 15
Illusionen 15
wahres 15
dreißig 15
ständigen 15
naiv 15
Sil@@ 15
mathematisch 15
verfolgte 15
Monitor 15
wundervolles 15
passende 15
ologische 15
Kometen 15
Kleinen 15
Pu@@ 15
ier 15
Strecken 15
eingefangen 15
Bon@@ 15
Vergleiche 15
verblüffende 15
treibende 15
Kir@@ 15
Satelliten@@ 15
tion@@ 15
Stipendium 15
Wir@@ 15
Ei@@ 15
keln 15
kante 15
400.000 15
Festland 15
zusammengearbeitet 15
würdet 15
Lebzeiten 15
uren 15
leite 15
angeordnet 15
lige 15
Metastasen 15
Lymphknoten 15
Überlebens@@ 15
wirkliches 15
vertikal 15
Computerspiele 15
schten 15
Brand@@ 15
konfrontieren 15
Cor@@ 15
110 15
Tan@@ 15
ritt 15
geringem 15
Industrien 15
Che@@ 15
verteilte 15
Verpflichtungen 15
Geschichtenerzähler 15
Menschenverstand 15
masse 15
zugute 15
zuwenden 15
Hm 15
modern 15
Schema 15
attraktiver 15
interviewt 15
durchführte 15
füllte 15
dringt 15
Öls 15
Käufer 15
Marshall 15
entnommen 15
Boss 15
Welpen 15
Photoshop 15
Blumen@@ 15
Pri@@ 15
Modell@@ 15
Hauptgrund 15
mechanisch 15
Erleichterung 15
kontrollierte 15
viermal 15
Sensor 15
kas 15
östlichen 15
vertrieben 15
zügen 15
Rebellen 15
Bürgerkriege 15
Golf@@ 15
Entscheidungsträger 15
benötigten 15
engagiert 15
ergreifen 15
Fahren 15
liess 15
Herzleiden 15
Langlebigkeit 15
Serotonin 15
Aff@@ 15
schluss 15
anhört 15
--@@ 15
Roy 15
Leber@@ 15
elektrischer 15
Kombinationen 15
explodiert 15
beiträgt 15
Drehung 15
Manipulation 15
übereinstimmt 15
Na@@ 15
ringen 15
sensibel 15
entscheidungen 15
sicheres 15
Effektivität 15
Input 15
Spritze 15
esch@@ 15
landschaft 15
Zauber 15
revolution 15
Statue 15
etes 15
äußern 15
Geschäft@@ 15
Lichtstrahl 15
grenzen 15
furchtbare 15
untergraben 15
derjenigen 15
Aufzug 15
Las 15
Kompetenz 15
bekämen 15
geld 15
we@@ 15
geheilt 15
Idealismus 15
Lieferanten 15
Urteil 15
vorantreiben 15
lehnte 15
Wert@@ 15
ziger 15
leidenschaftlich 15
Besessenheit 15
kritisiert 15
frisst 15
Hy@@ 15
zahl 15
Spe@@ 15
ad 15
Nullen 15
Atomwaffen 15
Reservat 15
ertem 15
Flexibilität 15
seltsamer 15
bessern 15
resistent 15
warteten 15
Kapitän 15
Prävention 15
mas@@ 15
technologischer 15
europäische 15
ment@@ 15
tieferen 15
Schmetterlinge 15
Eingriff 15
Emails 15
Ordner 15
Liebling 15
Teilchenphysik 15
Commons 15
Weltrekord 15
Baumwolle 15
Player 15
Hintern 15
früh@@ 15
Privatleben 15
verlorene 15
Ausrichtung 15
fähige 15
räume 15
Rock@@ 15
stecke 15
drin@@ 15
Anthropologie 15
zerbrechen 15
qualität 15
Vorräte 15
sonstwo 15
Tagebuch 15
Jersey 15
pressen 15
Hundes 15
Asthma 15
Dächer 15
freundliche 15
Wäldern 15
spart 15
Hospital 15
jahre 15
willkürlich 15
lieferte 15
kompliziertes 15
hel@@ 15
Mrd. 15
schwul 15
Rückzug 15
Spezi@@ 15
Sinnes@@ 15
co@@ 15
Schaf 15
sexuellen 15
sm@@ 15
komplexere 15
Opfern 15
Monats 15
ore 15
Walter 15
blah 15
Objekts 15
zelle 15
Stockholm 15
Unterhaltungen 15
stadt 15
Konsens 15
Schweinen 15
Ströme 15
gezielt 15
empfinde 15
Maske 15
Ausbreitung 15
Steckdose 15
faktisch 15
Winde 15
schäden 15
Psychopathen 15
Wandertaube 15
eigen@@ 15
13. 15
Alfred 15
herauszu@@ 15
spektakulär 15
fasst 15
verärgert 15
ausgaben 15
ars 15
bla 15
Ost 15
Retina 15
Costa 15
Nepal 15
flächen 15
zensiert 15
Weibo 15
SOPA 15
PIPA 15
Meditation 15
Kernkraft 15
Kamele 15
Orang 15
Fachmann 15
Sioux 15
Bube 15
Gehirnhälfte 15
Emily 15
Tattoo 15
Schulsystem 15
DDT 15
spritzen 15
Sergio 15
CAPTCHA 15
RISD 15
Redwoods 15
Schleim 15
Tarahumara 15
E8 15
abgebaut 14
Erdnüsse 14
geringere 14
biologisches 14
beeinträchtigt 14
Eingang 14
hervorragende 14
Ökosystemen 14
Äquator 14
arktischen 14
tiver 14
Puppe 14
Ingenieurs@@ 14
set 14
höhe 14
öffneten 14
hlen 14
position 14
beine 14
Frühjahr 14
Spender 14
großzügig 14
X@@ 14
Neue 14
beobachte 14
Anrufe 14
Migration 14
abgespielt 14
lebens 14
Pal@@ 14
Programm@@ 14
Klimaanlage 14
Strich 14
Kenntnisse 14
Öko 14
zufälligerweise 14
stag 14
Hom@@ 14
auszuweiten 14
Termin 14
bestellt 14
Entwürfe 14
zierten 14
Den@@ 14
mitzu@@ 14
Einzelteile 14
gleiten 14
Strassen@@ 14
grossartigen 14
verschoben 14
Motorrad 14
Orientierung 14
schicke 14
wiederhole 14
abgesch@@ 14
institutionelle 14
weitem 14
Word 14
Toronto 14
CDs 14
Speicher@@ 14
Mond@@ 14
Morgens 14
Anlass 14
abgelegenen 14
ligen 14
geringsten 14
73 14
Signatur 14
erwischen 14
fünfzig 14
Poli@@ 14
Set 14
Vulkan 14
Schuh@@ 14
erwähne 14
Eu@@ 14
versichere 14
verschiedensten 14
Asteroid 14
letztens 14
att@@ 14
Hunderten 14
Hang 14
Stande 14
reinen 14
Ter@@ 14
Vermittler 14
ökologisch 14
Savanne 14
Allen 14
orange 14
gehalt 14
Niederlage 14
Space 14
erstellte 14
Central 14
ade 14
best@@ 14
Erhaltung 14
Noah 14
auszutauschen 14
überstehen 14
fähigkeiten 14
verdiene 14
allererste 14
Handzeichen 14
Samstag 14
Versammlung 14
unterricht 14
bescheid 14
gels 14
Maßstäben 14
heimlich 14
neusten 14
lädt 14
Übersetzungen 14
weis 14
Sohnes 14
Heiligkeit 14
ver 14
Wichtige 14
therapie 14
nar@@ 14
bloßen 14
unver@@ 14
Hudson 14
kehrt 14
Kampf@@ 14
beugen 14
Geschehen 14
Urknalls 14
stießen 14
Pin@@ 14
blatt 14
wechsel 14
) 14
projekte 14
Behörde 14
gewalttätig 14
uner@@ 14
seltsamerweise 14
bittet 14
anregen 14
Phantasie 14
Schleier 14
Quadrate 14
identische 14
straße 14
Kanten 14
faszinierender 14
ee 14
nettes 14
Orleans 14
Cousin 14
veraltet 14
Algebra 14
Abend@@ 14
mischt 14
detailliert 14
Deep 14
phänomenal 14
Tintenfisch 14
ütze 14
goldene 14
Comic@@ 14
bildete 14
Röntgen@@ 14
betritt 14
Genauigkeit 14
lila 14
nukleare 14
verwickelt 14
leitungen 14
angenehmer 14
Schulden 14
Abhandlung 14
Marktes 14
Erträge 14
ausgerechnet 14
kamera 14
Khmer 14
1976 14
Jugend@@ 14
Bedeutungen 14
Historiker 14
Kontakte 14
Vorbeugung 14
Ruhestand 14
auszubauen 14
Psych@@ 14
sorgte 14
Pflege@@ 14
medizin 14
knochen 14
anzeigen 14
Trans@@ 14
Prozessor 14
schwieriges 14
ali@@ 14
Favorit 14
ruf 14
faul 14
Jo@@ 14
eingesch@@ 14
Roosevelt 14
brot 14
symmetrisch 14
Hiroshima 14
Kapazitäten 14
Nordkorea 14
ls 14
lä@@ 14
Ros@@ 14
Schildkröte 14
krebs 14
aufregender 14
grausam 14
flossen 14
schreit 14
wähle 14
58 14
ADHS 14
pol@@ 14
coolen 14
dose 14
mitgenommen 14
Gesamtheit 14
ste@@ 14
verkabelt 14
fla@@ 14
EEG 14
spielerisch 14
Schande 14
mung 14
tragbare 14
nützliche 14
mitzumachen 14
Gesellschafts@@ 14
separate 14
verursachten 14
schwächer 14
ausgebildete 14
isierte 14
Rezeptoren 14
Chi@@ 14
Hol@@ 14
absoluter 14
to@@ 14
urbanen 14
visualisiert 14
Performance 14
auseinandersetzen 14
abstrakt 14
Schreib@@ 14
übernahm 14
Wohltätigkeits@@ 14
Schwarzafrika 14
zuzugeben 14
Igbo 14
betont 14
Fel@@ 14
Widerstandsfähigkeit 14
human@@ 14
Maria 14
Zuversicht 14
CT 14
Fieber 14
beruhen 14
ome 14
Mitarbeitern 14
Heilmittel 14
Beerdigung 14
statistische 14
Tabu 14
gewähren 14
offenbart 14
verkündet 14
unvorstellbar 14
oten 14
Lobby 14
Hawking 14
wort 14
für@@ 14
tlichen 14
fossile 14
Ball@@ 14
Sydney 14
OPEC 14
Einschränkung 14
Internationale 14
30@@ 14
Finanzen 14
Bruttoinlandsprodukt 14
gerechnet 14
Hebel 14
Output 14
Inhalten 14
plötzlichen 14
än@@ 14
beschleunigte 14
städte 14
Menschenleben 14
wirtschaft 14
kammer 14
Gewinn@@ 14
neutral 14
Beteiligung 14
eig@@ 14
ru@@ 14
BP 14
schl@@ 14
etten 14
Brand 14
Konservativen 14
Netflix 14
garantieren 14
samer 14
färben 14
bs@@ 14
Männer@@ 14
Son@@ 14
ZK 14
af@@ 14
verspüren 14
trockenen 14
tzen 14
Gänse 14
eur 14
Kontroverse 14
demnach 14
Produzent 14
Bür@@ 14
Mutanten 14
ant@@ 14
Ewigkeit 14
vergesst 14
erfindet 14
werke 14
druck@@ 14
Herstell@@ 14
einhalb 14
romantischen 14
gigantischen 14
drehten 14
Explosionen 14
zusätzliches 14
Laute 14
endsten 14
Alles 14
grenze 14
mutige 14
Millarden 14
beizutreten 14
ministerium 14
Tahrir 14
Eintrag 14
essentiell 14
bindet 14
beieinander 14
Vorderseite 14
Rufe 14
demonstriert 14
terten 14
Maitreya 14
Vätern 14
Herzschlag 14
überlege 14
1990ern 14
Enden 14
Ersatz 14
Quadratkilometer 14
Fotografien 14
nd 14
Laufbahn 14
Such 14
Antidepressiva 14
Jahr@@ 14
Haben 14
enttäuschen 14
Täuschungen 14
bein@@ 14
perfekter 14
glas 14
Alltags@@ 14
erschuf 14
Sh@@ 14
ett@@ 14
Seen 14
Einfluss@@ 14
Lebensspanne 14
siebeneinhalb 14
Cooper 14
überzeugend 14
Bonus 14
Maß@@ 14
Riffe 14
verblüfft 14
pure 14
ablaufen 14
Kreide 14
Muskel@@ 14
Tische 14
Studentin 14
entsetzlich 14
implantiert 14
zurückblicken 14
moralischer 14
anklicken 14
Bearbeitung 14
Flüchtlingslager 14
Funk@@ 14
klinik 14
Positives 14
irre 14
Epilepsie 14
Norman 14
Brücken@@ 14
Sorten 14
Weizen@@ 14
kurve 14
effektive 14
Stri@@ 14
56 14
Lebenszyklus 14
sprung 14
flüge 14
Lu@@ 14
Mutterleib 14
bers 14
Fünf@@ 14
Hunde@@ 14
Tumors 14
hungern 14
anti@@ 14
Lebensmitteln 14
JC 14
Computerspielen 14
gefaltet 14
entfaltet 14
Schach@@ 14
Öffnung 14
Rachel 14
Jeep 14
tende 14
betrunken 14
richte 14
fotografierte 14
Bel@@ 14
unde 14
Arzneimittel@@ 14
ableiten 14
endgültige 14
Rindfleisch 14
tiv@@ 14
Jahreszeit 14
abel 14
ring 14
merkten 14
bungen 14
Saddam 14
ziemlicher 14
pläne 14
Äquivalent 14
Happy 14
sechseinhalb 14
wachstum 14
sten@@ 14
bedeut@@ 14
preis@@ 14
Tasse 14
Unfähigkeit 14
entsprach 14
figuren 14
Teilnehmern 14
unfähig 14
Erreichen 14
boote 14
uralte 14
Ballast 14
Warner 14
verbannt 14
Händler 14
Dick 14
Highway 14
Schlagzeile 14
erlangt 14
chend 14
Kuba 14
Miami 14
zahlte 14
Anleitung 14
Gebühren 14
geber 14
Ehe@@ 14
verbieten 14
Antennen 14
Prothese 14
diger 14
Amanda 14
bestmögliche 14
eingerichtet 14
besetzen 14
Nordafrika 14
1960ern 14
3,5 14
Eiweiß 14
kodieren 14
dan@@ 14
Matt 14
hirn@@ 14
Ca@@ 14
Prozedur 14
Moral@@ 14
aufzustehen 14
hacken 14
fernen 14
gehenden 14
zuversichtlich 14
Ruhm 14
Verzerrungen 14
elektromagnetische 14
Ampel 14
Kerze 14
Quarks 14
Faden 14
Arena 14
ppm 14
Galapagos 14
erwärmt 14
Skeptiker 14
Reproduktion 14
grüner 14
Diamanten 14
Lebensform 14
Bin 14
rauchen 14
Wild@@ 14
Luftverschmutzung 14
Koch@@ 14
schlägen 14
Imitation 14
erhebt 14
bemerkten 14
befragen 14
Führerschein 14
Feier 14
behandlung 14
verkleinern 14
sanft 14
Margaret 14
Privatsphäre 14
mächtiges 14
Child 14
minister 14
strategische 14
allererst 14
Bioenergie 14
ration@@ 14
Korn 14
ierung 14
Dampf 14
Subventionen 14
fünf@@ 14
ähm 14
vermehrt 14
Tö@@ 14
gesetze 14
materialien 14
stürzt 14
Östrogen 14
Modells 14
systematische 14
emp@@ 14
Tumoren 14
nachvollziehen 14
Kids 14
auftauchten 14
Geschlechtsverkehr 14
Europäer 14
Mahatma 14
vielfältig 14
sproblem 14
Beiträge 14
Brot@@ 14
Gelehrten 14
möge 14
beschützt 14
Wahrscheinlichkeiten 14
AG 14
männer 14
iPad 14
Exemplar 14
Wo@@ 14
missbraucht 14
linearen 14
Überwachung 14
beizutragen 14
zoomt 14
Webs 14
Seife 14
kette 14
jährlichen 14
Ausführung 14
beliebig 14
typischer 14
Variablen 14
Blutdruck 14
Philip 14
We@@ 14
Sol@@ 14
Rändern 14
Si@@ 14
chronischen 14
evolutionär 14
Mord 14
Unterkunft 14
ehrliche 14
Eltern@@ 14
Batman 14
Österreich 14
Schlafzimmer 14
foto 14
nötigen 14
speichert 14
Stellung 14
orientierte 14
Höhlen 14
feinen 14
Mannschaft 14
Senat 14
blinden 14
Versicherung 14
Liebes@@ 14
Anschein 14
Gewebes 14
Transistor 14
humanitäre 14
Siedlungen 14
disch 14
platte 14
Zusammensetzung 14
mental 14
Märchen 14
seiten 14
Bulgarien 14
ist@@ 14
Puder 14
Freundlichkeit 14
grundsätzliche 14
Flughäfen 14
verstreut 14
gelt 14
Taucher 14
unvermeidlich 14
Verschwinden 14
Wasserstoff@@ 14
Kokain 14
Bohrer 14
Tonne 14
Tropen 14
Verschwörung 14
Veranstaltungen 14
verkörpert 14
Zoo 14
gener 14
Dusche 14
Pfeil 14
Verbrecher 14
Koma 14
Mach 14
Linkshänder 14
Mer@@ 14
gefertigt 14
12.000 14
Lagern 14
Langley 14
Unterscheidung 14
Herzanfall 14
geschoben 14
Reed 14
Galvao 14
Q@@ 14
Lotterie 14
Holocaust 14
Hautfarbe 14
Häufigkeit 14
sequenzieren 14
geduldiges 14
Tasmanischen 14
Dienstleistung 14
situation 14
Schi@@ 14
Black 14
Hunger@@ 14
dens 14
Health 14
stil 14
umfasste 14
Maya 14
Qatar 14
Araber 14
gesprochene 14
waffe 14
Gebühr 14
Reservate 14
skalieren 14
Grundsätze 14
Titanic 14
Waage 14
Lasche 14
Urheberrecht 14
Netra 14
Checkliste 14
Lamm 14
Mind 14
Broadmoor 14
Lifestyle 14
Ushahidi 14
schwarzäugige 14
Susie 14
Beck 14
Zusammenhänge 13
heilt 13
durchbrechen 13
eindringen 13
Graphik 13
letzen 13
sicherzugehen 13
rückgängig 13
ausgebreitet 13
Mitternacht 13
Gros@@ 13
stimmten 13
Aluminium@@ 13
Ausdrucks@@ 13
sähe 13
solide 13
garten 13
Massenvernichtungswaffen 13
Ehren 13
Gründung 13
Vertrautheit 13
Mehl 13
mehrmals 13
auszuführen 13
Betriebs@@ 13
Straf@@ 13
ablenken 13
produktive 13
Andy 13
schmutzige 13
Hip 13
Rohstoff 13
Nachteil 13
nissen 13
Umweltprobleme 13
Mangelernährung 13
einsteigen 13
ak 13
Dimitri 13
7.000 13
montiert 13
robust 13
kostengünstig 13
har@@ 13
ack 13
listen 13
Essens 13
anzubauen 13
anerkannt 13
frühesten 13
irgendwer 13
Neurowissenschaftler 13
auszuschalten 13
gelangweilt 13
gepackt 13
Rad@@ 13
geniessen 13
grösseren 13
nes 13
ertragen 13
Einblicke 13
bereiche 13
rationale 13
lungs@@ 13
Quatsch 13
Sie@@ 13
fünfmal 13
dliche 13
jüdischen 13
schöpfen 13
absorbieren 13
Hitler 13
verletz@@ 13
jetzigen 13
präsentiere 13
Eröffnung 13
Zoll 13
300.000 13
handel 13
technologisch 13
kanäle 13
Japanisch 13
hochgeladen 13
Ir@@ 13
Jon 13
Kopier@@ 13
Websites 13
hinterließ 13
füge 13
Tank 13
Tauch@@ 13
verschrieben 13
felder 13
fil@@ 13
Energiequelle 13
produkten 13
bahnbrechende 13
Abnahme 13
Invasion 13
Graham 13
Vorrat 13
Friede 13
Landwirtschafts@@ 13
Fortsetzung 13
Salzwasser 13
Wechselwirkungen 13
Bienenstock 13
club 13
Wiese 13
istisches 13
Honigbienen 13
krankheit 13
Wüsten 13
sinn@@ 13
Arche 13
Schnecken 13
Schnecke 13
abgelehnt 13
bewusster 13
anonym 13
Vide@@ 13
probe 13
Geschäften 13
ves 13
Mus@@ 13
Verständnisses 13
Schaf@@ 13
Zwang 13
Daseins 13
Anfängen 13
schnelles 13
rotes 13
Ser@@ 13
Nutzern 13
Datenmengen 13
schwingt 13
Ohr@@ 13
uss@@ 13
störungen 13
prägte 13
Demenz 13
Einsteins 13
hineinzu@@ 13
verbergen 13
Phänomens 13
strömt 13
regelrecht 13
Laune 13
kni@@ 13
Westens 13
Schnitt@@ 13
Schrei 13
alltägliche 13
interagiert 13
funktionen 13
abgeleitet 13
unterteilen 13
2.@@ 13
tor@@ 13
Fonds 13
Isaac 13
pot@@ 13
bestraft 13
läßt 13
zeitlichen 13
Anforderungen 13
Ausflug 13
erforsche 13
Auges 13
atemberaubend 13
Schwarz 13
As@@ 13
angreift 13
Mini 13
dynamischen 13
intensiver 13
hervorgebracht 13
e- 13
Versicherungs@@ 13
Symbiose 13
Toyota 13
Weltklasse 13
Hyper@@ 13
1965 13
Rote 13
54 13
Beratungs@@ 13
gesellschaftliche 13
Ministerium 13
humanitären 13
tagen 13
versprach 13
ations 13
Selbstbewusstsein 13
ästhetische 13
weckt 13
hofft 13
netzwerk 13
Senioren 13
hässliche 13
atten 13
Niedergang 13
Wohnen 13
Landung 13
Fr@@ 13
verzeichnet 13
Mentalität 13
frag@@ 13
Kranken@@ 13
berichte 13
Lieben 13
neueste 13
Eingriffe 13
Verhaltensmuster 13
Slogan 13
Charakter@@ 13
blut@@ 13
bringst 13
injizieren 13
eg@@ 13
Fels@@ 13
Säure 13
ich@@ 13
internen 13
dlichen 13
zten 13
zielen 13
aufbewahrt 13
Feuerwehr 13
Multi 13
Dollar@@ 13
glaub 13
Bl@@ 13
Wellen@@ 13
fotos 13
Kreuz@@ 13
multiplizieren 13
je@@ 13
Cyber@@ 13
Militärs 13
Zeichnen 13
Fell 13
Je@@ 13
sähen 13
besetzt 13
Kumpel 13
reales 13
mm@@ 13
Hai@@ 13
wunderschönes 13
Dringlichkeit 13
schi@@ 13
Entdecker 13
Taste 13
93 13
49 13
8. 13
1949 13
1800 13
7.@@ 13
57 13
68 13
76 13
bizarre 13
Synthesizer 13
gießen 13
Kredit@@ 13
bewegliche 13
nördlich 13
harter 13
drang 13
Neugierde 13
weiche 13
zusammenzubringen 13
ust 13
nahe@@ 13
schmeißen 13
Feuerwehrmann 13
heißes 13
Genies 13
servieren 13
Saft 13
einher 13
Überfischung 13
Sau@@ 13
rechnet 13
hasste 13
eliminieren 13
entlegenen 13
Flu@@ 13
ras@@ 13
wach@@ 13
Forschungsarbeit 13
Vorschläge 13
gemischt 13
interessantesten 13
lin@@ 13
Schuhen 13
voran@@ 13
zugenommen 13
Brunnen 13
tranken 13
Korb 13
chti@@ 13
Bü@@ 13
erobern 13
teils 13
übertreiben 13
Prognosen 13
Arzneimittel 13
Aufstand 13
kontrovers 13
Expertise 13
abzuschließen 13
Schach 13
erregt 13
sprichwörtlich 13
kes 13
großartigsten 13
deut@@ 13
ideale 13
bal@@ 13
mus 13
Britischen 13
Weltanschauung 13
schrift 13
energie 13
Lupe 13
meistern 13
erzeugten 13
Gesetzes 13
Geschäftsleute 13
Einkaufszentrum 13
ide@@ 13
alisierte 13
Tausch 13
Vulkan@@ 13
Erkältung 13
1918 13
Fünftel 13
schlaue 13
Träger 13
überraschende 13
bru@@ 13
experimentelle 13
dünnen 13
kts 13
kanische 13
Häuptling 13
frische 13
erwerben 13
Ausgleich 13
ci@@ 13
Trauma 13
gele@@ 13
welt@@ 13
fo@@ 13
Angel@@ 13
dortigen 13
Strafzettel 13
hingewiesen 13
befragt 13
Eichhörnchen 13
Best@@ 13
hom@@ 13
alistische 13
sierte 13
zusammenzufassen 13
Beethoven 13
weich 13
magnetische 13
far@@ 13
Neil 13
blickte 13
nachhaltiger 13
Köche 13
fet@@ 13
fs 13
eigen 13
Ausbeutung 13
Zahnbürste 13
Scheiße 13
Betrachtungsweise 13
kunst 13
Faszination 13
unendlichen 13
mysteriöse 13
klein@@ 13
vertikalen 13
Tokio 13
visualisieren 13
Extremismus 13
Vers 13
Ti@@ 13
schä@@ 13
schrumpfen 13
Geb@@ 13
förmlich 13
Auftritt 13
Brigaden 13
schläge 13
hinausgeht 13
Timing 13
Ken@@ 13
Süßwasser 13
1,4 13
Joel 13
Hill 13
daheim 13
vorgenommen 13
ausgeschaltet 13
zugunsten 13
erbaut 13
Basketball 13
zurückzuführen 13
erhalte 13
Muscheln 13
indischer 13
Malerei 13
spektakuläre 13
ehen 13
Back@@ 13
überraschte 13
vorgehen 13
still@@ 13
bio@@ 13
Blei@@ 13
schaltete 13
geraden 13
richtiges 13
Konzepten 13
angegangen 13
Weite 13
Freud 13
Schuh 13
stands 13
Empfindungen 13
Nerv 13
einrichtungen 13
körper@@ 13
Nenner 13
kosmischen 13
Überreste 13
passierten 13
Kreis@@ 13
Bonobo 13
rotieren 13
Bonobos 13
scharfen 13
nachzu@@ 13
1957 13
litten 13
berichteten 13
Enttäuschung 13
entwarfen 13
hingen 13
Nutzpflanzen 13
Ertrag 13
dominieren 13
Künstler@@ 13
konkreten 13
Vorschriften 13
DARPA 13
Weltraum@@ 13
Start@@ 13
interessantere 13
Kreb@@ 13
bewertet 13
ober@@ 13
Buchstabe 13
mme 13
aufheben 13
sequenziert 13
tend 13
chts@@ 13
Fox 13
Oprah 13
erhitzt 13
beider 13
durchläuft 13
Verhaltensänderung 13
Variable 13
Experiments 13
Band@@ 13
klarer 13
Herzerkrankungen 13
entle@@ 13
innovativen 13
Gehäuse 13
Markierung 13
loslegen 13
bedeutender 13
auswirken 13
pünktlich 13
bester 13
bedeutungs@@ 13
Thinking 13
Passagiere 13
denk@@ 13
tive 13
durchführten 13
grundlegendes 13
Barbara 13
ina 13
mensch@@ 13
Ölkatastrophen 13
Oberflächen@@ 13
Acht 13
Controller 13
Multi@@ 13
Nächte 13
Dasein 13
Stre@@ 13
symmetrische 13
beeindrucken 13
Avenue 13
Akustik 13
Mechanik 13
einzeln 13
Hinterteil 13
Lebensräume 13
Geografie 13
Pap@@ 13
You 13
größerer 13
Weltwirtschaft 13
sü@@ 13
reichste 13
überquert 13
unwohl 13
Eisenbahn 13
53 13
Galápagos 13
Athleten 13
Tiefen@@ 13
Argentinien 13
klopfen 13
Theater@@ 13
tin@@ 13
sport 13
Daf 13
Dach@@ 13
schütten 13
transplantieren 13
Aufschwung 13
1988 13
1990er 13
fliegende 13
Membran 13
Poren 13
Aktionen 13
Kammer 13
mechanischen 13
glücklichsten 13
Auftreten 13
Freuden 13
Trocken@@ 13
Ron 13
terin 13
Roboters 13
Stab 13
fün@@ 13
hinschauen 13
Protonen 13
verbleibenden 13
Bremse 13
Vulkane 13
Misch@@ 13
Klimaerwärmung 13
abbrechen 13
infolge 13
ansteigt 13
dunkel@@ 13
farbe 13
geladen 13
Kenn@@ 13
einsatz 13
Sprechen 13
Con@@ 13
grund@@ 13
tat@@ 13
nationaler 13
vorm 13
Genomik 13
Enzym 13
bakterielle 13
Cancer 13
Journalismus 13
bevorzugt 13
62 13
Gespür 13
ablegen 13
Konnektivität 13
kinder 13
widerspiegeln 13
zurückgreifen 13
Idioten 13
Lady 13
chi@@ 13
Zug@@ 13
Biom@@ 13
änden 13
Schwefel 13
Beamten 13
Zivilisten 13
schreiten 13
Schrecken 13
Email 13
zusammenhängt 13
Rache 13
Biomimikry 13
schadet 13
Bundesstaaten 13
Harlem 13
Fahrten 13
tik@@ 13
Ablehnung 13
befördern 13
chtet 13
F. 13
hässlichen 13
fahrzeuge 13
konventionelle 13
Konfiguration 13
Netzwerk@@ 13
Ersatz@@ 13
berühmtes 13
Instinkt 13
Notizbuch 13
weitesten 13
Ungarn 13
Cover 13
Auszeichnung 13
bruch 13
versuch 13
Dolmetscherin 13
versklavt 13
kreisen 13
krei@@ 13
Botswana 13
Kommunismus 13
Herr@@ 13
experimentellen 13
Tunesien 13
Größenordnungen 13
gehandelt 13
Weblogs 13
verworfen 13
heftig 13
Expo 13
geparkt 13
Begrenzung 13
erraten 13
ke@@ 13
Creative 13
kn@@ 13
Olivenöl 13
Caltech 13
Gabe 13
Ikonen 13
viel@@ 13
Mö@@ 13
Silber@@ 13
proje@@ 13
Erfolgs 13
mmer 13
Rucksack 13
Ali 13
Langsamkeit 13
Umstand 13
Glied 13
wendet 13
Puls 13
bett 13
California 13
Präsentationen 13
schade 13
My 13
unausweichlich 13
Landminen 13
Toaster 13
Auswertung 13
1.@@ 13
tage 13
Dächern 13
Courage 13
Team@@ 13
mentalen 13
zung 13
Röhren 13
tragbaren 13
Ä@@ 13
Dienstag 13
Hilf@@ 13
verteilung 13
Genialität 13
Schmuck 13
Hindi 13
fra@@ 13
Lanka 13
Lang@@ 13
Folgende 13
Benki 13
Chinesische 13
ja@@ 13
Einfühlungsvermögen 13
PR 13
satt 13
peng 13
hochladen 13
Affen@@ 13
Modedesigner 13
Schweiß 13
Recht@@ 13
überlegte 13
Ignoranz 13
TD 13
2.500 13
ll 13
Pra@@ 13
Ansehen 13
Gesetzgebung 13
bereitete 13
Han 13
End 13
würdige 13
Konferenzen 13
Cochrane 13
Moslems 13
ani@@ 13
Erfolgsgeschichte 13
Diversität 13
Arten@@ 13
Rechnen 13
He 13
Griechenland 13
Könige 13
Nieder@@ 13
schnappte 13
Baumwoll@@ 13
verdreht 13
1950ern 13
Tankstelle 13
Ultraschall@@ 13
Glücks@@ 13
Atomkraft 13
Ähnlichkeiten 13
Prinzessin 13
Biomaterialien 13
Dose 13
Somalia 13
ausser@@ 13
alistischen 13
verglich 13
maßen 13
Zettel 13
Apartheid 13
Friedens 13
Prozessen 13
zurückgeben 13
Verbraucher@@ 13
Föten 13
Accenture 13
Lungen@@ 13
haftigkeit 13
unterrichte 13
entspannen 13
Monsun 13
fortwährend 13
bewussten 13
Bruders 13
Information@@ 13
Digital 13
Gemeinkosten 13
Mondfische 13
Niere 13
Rechenmaschine 13
Eames 13
Grundpfeiler 13
Klugheit 13
Browne 13
nützen 13
Karikaturisten 13
ili@@ 13
Herbie 13
Aorta 13
Anästhesie 13
GPHIN 13
Talks 13
CP 13
Odysseus 13
Triceratops 13
Len 13
Nestbauer 13
Goldrausch 13
Groß 13
Marine 12
Meeres 12
Schadstoffe 12
zwei- 12
giftige 12
Dünger 12
drauf@@ 12
well 12
Klempner 12
vorbeikommen 12
74 12
dramatischen 12
sonder 12
1981 12
by 12
Fahrrad@@ 12
Leo 12
verschlossen 12
zentraler 12
kende 12
Kredite 12
kapital 12
Sek@@ 12
Übertreibung 12
verpflichten 12
Bäcker 12
anisches 12
Philippinen 12
unterm 12
hinab@@ 12
vergiftet 12
Ret@@ 12
sechs@@ 12
bewohner 12
managen 12
mans 12
Gewohnheit 12
trockene 12
lokaler 12
its 12
Agentur 12
Lande 12
Mathe@@ 12
Vorstand 12
Peru 12
behauptete 12
Wired 12
fremd 12
vertikale 12
Hydro@@ 12
kultur@@ 12
offenes 12
nungs@@ 12
an- 12
Gefallen 12
mitbekommen 12
Rückenmark 12
anordnen 12
nenden 12
Mul@@ 12
Funktionalität 12
vergangene 12
Atheismus 12
Kirchen 12
Walmart 12
namen 12
rapide 12
Wiederholung 12
zulegen 12
Wohl@@ 12
zeitgenössischen 12
vernachlässigt 12
einsamen 12
höflich 12
eil 12
Eliten 12
Sätzen 12
Werken 12
Text@@ 12
niedlich 12
mobile 12
Favoriten 12
Rover 12
250.000 12
Konzerte 12
Jazeera 12
schwarzer 12
Ausdehnung 12
außergewöhnliches 12
Laster 12
ausziehen 12
Funk 12
sechsten 12
gehende 12
angeregt 12
23. 12
Op@@ 12
enti@@ 12
Hi@@ 12
Bahnen 12
Brut@@ 12
plätze 12
anwendet 12
stationen 12
ater 12
immense 12
ärten 12
ol 12
Mini@@ 12
Jung@@ 12
Techn@@ 12
Süß@@ 12
hu@@ 12
Raumstation 12
Vieh 12
verschmutzen 12
lungen 12
spezies 12
Entwaldung 12
irgendwelchen 12
Boxen 12
ates 12
Erleben 12
Früh@@ 12
befürchten 12
lebend 12
kraft@@ 12
Steigung 12
spitzen 12
Blättern 12
Pfeifen 12
liger 12
benehmen 12
tanzte 12
Pullover 12
vielfältige 12
Regel@@ 12
Partner@@ 12
blick 12
irgend@@ 12
Wertschätzung 12
formte 12
Cocktail 12
bewer@@ 12
zitiert 12
Warten 12
kos@@ 12
üssen 12
Geschehnisse 12
Etwas 12
regnen 12
lers 12
Nah@@ 12
pen 12
ausdehnt 12
( 12
maßnahmen 12
Gefängnissen 12
füllten 12
anischer 12
gestärkt 12
riskiert 12
Feminismus 12
Iraner 12
klar@@ 12
weichen 12
gekleidet 12
Bonnet 12
entlang@@ 12
Kühl@@ 12
Mediziner 12
wahrnimmt 12
klares 12
schämen 12
innehalten 12
offensichtlichen 12
erfreuen 12
kle@@ 12
Baustein 12
siebte 12
Simulationen 12
Aufgaben@@ 12
erwachsenen 12
Kalkutta 12
zusammenhängen 12
ups 12
Netzen 12
Krabbe 12
bläst 12
Weiß 12
fremden 12
molekularer 12
verpackt 12
beherbergt 12
spulen 12
Teilung 12
Anfänge 12
wichtigere 12
Smart 12
Lehm 12
dende 12
gs@@ 12
Fischerei@@ 12
gegeneinander 12
studenten 12
Fol@@ 12
Weg@@ 12
Einträge 12
kam@@ 12
marschieren 12
Mao 12
1973 12
Kommune 12
verteilten 12
reif 12
Delta 12
Kabul 12
verschreiben 12
umzu@@ 12
pat@@ 12
englischer 12
Sympathie 12
Dirigent 12
Wandels 12
Seins 12
erb@@ 12
Hausarbeit 12
erlitten 12
spezielles 12
manifestiert 12
Dem@@ 12
Weltkarte 12
derte 12
ür@@ 12
gliche 12
Sturz 12
ativen 12
Familienmitglieder 12
hebe 12
richteten 12
stätte 12
Malteser 12
gri@@ 12
biologie 12
ollen 12
Lake 12
irgendwohin 12
selbständig 12
ac@@ 12
Ni@@ 12
Prämisse 12
String 12
bedeutungslos 12
ausgenommen 12
bizarr 12
Juan 12
Goldenen 12
Weltfrieden 12
1978 12
Koordination 12
angriff 12
Unterwasser 12
brett 12
wünscht 12
Charakteren 12
Lesern 12
Haien 12
schleppen 12
weggenommen 12
Dar@@ 12
Abkürzung 12
liges 12
Mittwoch 12
gesessen 12
stimmts 12
1969 12
ton@@ 12
Absolventen 12
vorderster 12
Deinen 12
Gew@@ 12
Kuppel 12
Studenten@@ 12
Arterien 12
vorziehen 12
ernsthaftes 12
deutlicher 12
ör@@ 12
mangel 12
geschichten 12
win@@ 12
zurückzu@@ 12
nah@@ 12
ruhige 12
Schlafen 12
Berichterstattung 12
flüssigem 12
tendiert 12
Mentoren 12
ou@@ 12
1967 12
Syn@@ 12
anzeigt 12
lokalisieren 12
Installationen 12
vorher@@ 12
Sitzungen 12
Anwendungs@@ 12
gas 12
gelände 12
Lagos 12
Schriften 12
Arbeitsstelle 12
bemerkenswerten 12
übertrieben 12
zugehört 12
Denkmuster 12
loslassen 12
runde 12
fit 12
liebevoll 12
mis@@ 12
herr@@ 12
lehr@@ 12
Darwins 12
isi@@ 12
regen 12
Wider@@ 12
zweitgrößte 12
philosophische 12
ings 12
forderte 12
zier@@ 12
praktischer 12
Parkplätze 12
eintritt 12
Men@@ 12
Gallonen 12
zurückkommt 12
Gouverneur 12
erfolgt 12
weitergeht 12
sion 12
jedermanns 12
reformieren 12
fun@@ 12
Staat@@ 12
stützt 12
breiter 12
Ost@@ 12
spannende 12
Lat@@ 12
Wende 12
suggeriert 12
Wochenenden 12
Applikationen 12
messbar 12
Jimmy 12
mens 12
potentiell 12
Saison 12
lager 12
immun@@ 12
gesprungen 12
dischen 12
Bin@@ 12
überwältigende 12
Hühner@@ 12
E. 12
glaubst 12
Schüssel 12
Ältesten 12
betraten 12
Diaspora 12
Booten 12
demnächst 12
kampagne 12
angestiegen 12
kommerziell 12
Alabama 12
Blas@@ 12
loch 12
bli@@ 12
Leck 12
Wander@@ 12
mangel@@ 12
schw@@ 12
veranlasst 12
gesetz@@ 12
aushalten 12
Laboren 12
gibst 12
Unterfangen 12
Netzes 12
unmittelbaren 12
intakt 12
Unterseite 12
Starbucks 12
Board 12
llen 12
Eduardo 12
preis 12
qualifiziert 12
kapiert 12
guckt 12
Schwarm 12
absolutes 12
umge@@ 12
Ster@@ 12
Pot@@ 12
größter 12
Jonas 12
nachschlagen 12
verlauf 12
geweckt 12
Date 12
ra 12
Ärmel 12
Gewal@@ 12
Regimes 12
Tat@@ 12
brutal 12
Internetseite 12
Menschenrechts@@ 12
betrat 12
Hochland 12
unmittelbare 12
herausfindet 12
Austin 12
Hussein 12
Kolumbien 12
bus@@ 12
Meerjungfrau 12
freund@@ 12
agiert 12
Normal@@ 12
ehemaligen 12
Parallel@@ 12
illegalen 12
mische 12
druckt 12
widerspiegelt 12
Umlauf 12
Verhältnisse 12
spüre 12
gekämpft 12
Baseball@@ 12
Abschnitte 12
Not 12
Hubschrauber 12
Umwel@@ 12
gewaltiger 12
sons 12
Dr@@ 12
männlich 12
eh 12
Schloss 12
Hauptquartier 12
dicker 12
Süßigkeiten 12
ker@@ 12
Schuppen 12
ure 12
Einsamkeit 12
Gemein@@ 12
vorstellbar 12
Hop 12
verschiedenste 12
navigieren 12
Fu@@ 12
zeitgenössische 12
ya 12
atives 12
farben 12
Drähte 12
Zus@@ 12
grade 12
hättest 12
bereuen 12
Verbündete 12
Widerstandskraft 12
modellieren 12
hinkriegen 12
Erzieh@@ 12
Unendlichkeit 12
Heilige 12
autonome 12
schwitzen 12
vorgibt 12
zimmer 12
Hel@@ 12
zusammenschließen 12
Unglück 12
gefährlicher 12
physiker 12
optimal 12
intensiven 12
glücklichste 12
Kanzi 12
Korrelation 12
schiff 12
78 12
pie@@ 12
Gehirnzellen 12
Bridge 12
Lord 12
simuliert 12
katastrophalen 12
Dia 12
diges 12
lichkeits@@ 12
Rosling 12
modelle 12
Zeitplan 12
Schwung 12
Prostata 12
Rotwein 12
Grey 12
Tennis@@ 12
Cohen 12
Risikofaktoren 12
desselben 12
eintauchen 12
radikaler 12
Mächte 12
Schwäche 12
Genozid 12
vorgesehen 12
aufgegriffen 12
dam@@ 12
begrüßt 12
vers@@ 12
fes@@ 12
eignet 12
Sofa 12
ücken 12
Deal 12
Berufsleben 12
Literatur@@ 12
brillanten 12
verdeutlicht 12
Arbeitsleben 12
Arztes 12
sprobleme 12
herausstellen 12
möglicher 12
bericht 12
Drogen@@ 12
35.000 12
dienst@@ 12
ausgeglichen 12
Gras@@ 12
Go@@ 12
organisationen 12
ktoren 12
veranschaulichen 12
Getränke 12
Nächsten 12
härter 12
experimentiert 12
abschalten 12
Wiederauf@@ 12
Sound 12
unterstützten 12
Initiativen 12
professioneller 12
Ausgangs@@ 12
Stifte 12
Vorliebe 12
überflutet 12
frustrierend 12
festzuhalten 12
Segel@@ 12
verschlechtert 12
heil@@ 12
Ground 12
ausgerüstet 12
gu@@ 12
Ann 12
post@@ 12
ausdrückt 12
außergewöhnlicher 12
Partikeln 12
Komposition 12
Sitz@@ 12
Flugzeugs 12
verlinkt 12
Dein 12
Bezeichnung 12
ph@@ 12
potenziell 12
unberührt 12
met@@ 12
Dr.@@ 12
auszuwählen 12
Wirkungen 12
licheren 12
ewigen 12
Gaza 12
weht 12
griffen 12
bezweifle 12
Teufelskreis 12
beitreten 12
Matte 12
interessierten 12
missbrauchen 12
wolltest 12
Testosteron 12
Fruchtfliegen 12
Erregung 12
Dopamin@@ 12
Sur@@ 12
Patent@@ 12
Spende 12
Ausgang 12
Dra@@ 12
breitet 12
tiefgreifende 12
eingeschaltet 12
unverändert 12
rechtliche 12
backen 12
nächster 12
gehts 12
explizit 12
Wor@@ 12
Sonnenschein 12
zunehmende 12
83 12
aufzulösen 12
beständig 12
zwingend 12
Salz@@ 12
Diplomaten 12
heits@@ 12
trete 12
Gesichtsausdruck 12
gericht 12
flu@@ 12
ße 12
Bauch@@ 12
Proteomik 12
weltbesten 12
mte 12
Möglichen 12
vortragen 12
Introvertierte 12
Psychologe 12
religiöser 12
besitze 12
Waisen 12
wahrlich 12
Almosen 12
farbige 12
ever@@ 12
beurteilt 12
kostenlosen 12
Klippe 12
Referenz 12
externen 12
erweise 12
winden 12
mü@@ 12
tigsten 12
Indi@@ 12
vorstellte 12
einzubeziehen 12
malt 12
Israelis 12
oops 12
gefähr@@ 12
Mitmenschen 12
Gefährt 12
Formation 12
geräten 12
fahrzeug 12
günstigen 12
pen@@ 12
Geo 12
autoritäre 12
naher 12
patentieren 12
Satellit 12
Moskau 12
spezialisiert 12
Dorfbewohner 12
ankamen 12
Gesam@@ 12
unbedeutend 12
Uniform 12
Edinburgh 12
fester 12
koordinieren 12
Produkts 12
ach@@ 12
strategie 12
Statistiker 12
menden 12
Stunt 12
christliche 12
Warnung 12
zerlegen 12
Fan@@ 12
eit 12
darfst 12
wegzu@@ 12
Char@@ 12
Steak 12
bet@@ 12
c 12
Riverside 12
Zahnarzt 12
Immun@@ 12
laufende 12
GB 12
Artefakte 12
Buckelwale 12
aufsetzen 12
kritisieren 12
aufführen 12
Aufführung 12
stechen 12
power 12
versichert 12
Gastgeber 12
Mat@@ 12
MRI 12
übertragbare 12
ders 12
stell 12
Seelen 12
locker 12
Rückgrat 12
Amateure 12
verrät 12
Chemie@@ 12
wohlhabenden 12
reifen 12
stau@@ 12
spunkt 12
effektiven 12
Moleküls 12
warmen 12
Wechselwirkung 12
Touch 12
messer 12
interne 12
Leviathan 12
Tote 12
Außenpolitik 12
analytisch 12
Hürden 12
durchmachen 12
Verachtung 12
Sar@@ 12
unterzeichnet 12
muslimische 12
Epoche 12
Friedenstruppen 12
2012 12
ia 12
hinzuzufügen 12
Anbieter 12
Jennifer 12
gehängt 12
Ker@@ 12
Brustdichte 12
MBI 12
anzulegen 12
Gase 12
allen@@ 12
Expeditionen 12
israelische 12
Mount 12
erkrankungen 12
becken 12
inn 12
Implantat 12
Nieren 12
Miete 12
Solarzelle 12
behindern 12
Atemzug 12
Fernbedienung 12
Papua 12
Wissenschaftlerin 12
1974 12
Branchen 12
Rockett 12
BL 12
schlimmen 12
gefasst 12
Tofu 12
stunde 12
Widersprüche 12
händler 12
riss 12
Spermien 12
pflanzt 12
isierten 12
Kate 12
aufgestanden 12
Fast 12
din@@ 12
Schlussfolgerungen 12
Venter 12
kugel 12
Kissen 12
leitung 12
Käfig 12
vorhersehbar 12
gruselig 12
vergaß 12
Belagerung 12
unterzeichnen 12
ausgestrahlt 12
teres 12
Diana 12
Pollen@@ 12
Gemeinde@@ 12
Village 12
Nazis 12
aussergewöhnliche 12
härtesten 12
hi 12
solltet 12
kanal 12
Cymatik 12
betäuben 12
Marsch 12
sui 12
Werk@@ 12
Belastbarkeit 12
neutralen 12
SM 12
Bäckerei 12
Eimer 12
prima 12
Teufels 12
Rechtssystem 12
Studierenden 12
regionen 12
ren@@ 12
Forum 12
Remix 12
gespült 12
Rednern 12
Sally 12
elektrisches 12
Yale 12
rat 12
Nr. 12
schlag@@ 12
H. 12
ling 12
dur@@ 12
Kinn 12
Indischen 12
ahnen 12
Wörterbücher 12
Börse 12
MBA 12
Dividende 12
mysteriösen 12
Vaginas 12
Colorado 12
Wilderer 12
Wägezelle 12
Schnelligkeit 12
Spezialisierung 12
Waffenruhe 12
Ablenkungen 12
nachgewiesen 12
Faltmuster 12
Smartphone 12
Seeleoparden 12
nachlässt 12
Peers 12
Wandering 12
Windrad 12
UV 12
Abrahams 12
Ma 12
Riesenhaie 12
Alhambra 12
Cradle 12
Ertrinken 12
TBP 12
Astrolabium 12
Bilbao 12
Skalierung 12
Independent 12
bten 11
untersten 11
werdenden 11
marinen 11
bes 11
angen 11
Abwasser 11
Blüten 11
Flusses 11
zurückgegangen 11
ander 11
schwärmen 11
Hyäne 11
wörter 11
Verben 11
eingebauten 11
Quer@@ 11
zen@@ 11
reiten 11
Kapstadt 11
klappte 11
Skelette 11
ängstlich 11
Brustkorb 11
Überlegungen 11
ey 11
Rockefeller 11
Nächstenliebe 11
Bestrebungen 11
Großes 11
Hochzeits@@ 11
Gi@@ 11
Women 11
bil@@ 11
dest 11
Aktien@@ 11
tors 11
bewahre 11
Betriebe 11
Soziologen 11
akademische 11
Event 11
rü@@ 11
Hauptsache 11
Konversationen 11
Steuerzahler 11
Ag@@ 11
Arbeitern 11
beschäftigten 11
ständen 11
verhältnisse 11
verfassen 11
Schön@@ 11
landwirtschaftliche 11
regionalen 11
tagtäglich 11
out 11
kostengünstige 11
Geben 11
gebären 11
kämpfte 11
finanzierte 11
way 11
Förder@@ 11
Wachstum@@ 11
Gefängnisse 11
Bildhauer 11
rollt 11
angekündigt 11
Latein 11
qualitativ 11
Wurzel@@ 11
Finnland 11
sl@@ 11
Wechsel@@ 11
bahnen 11
Entspannung 11
parat 11
reines 11
weint 11
hübschen 11
elektro@@ 11
einfügen 11
Elementen 11
rad 11
zurechtkommen 11
Schn@@ 11
gemeinschaftlichen 11
lehnt 11
Kirchen@@ 11
Plato 11
andersherum 11
brauch 11
Begegnungen 11
amen 11
predigen 11
philosophischen 11
Library 11
Alexandria 11
publiziert 11
Point 11
ansässigen 11
Machine 11
Lob 11
gend@@ 11
erworben 11
durchdringt 11
lings 11
Minnesota 11
aufbringen 11
tungen 11
wegkommen 11
Keramik 11
akkurat 11
Ballon@@ 11
Stratosphäre 11
extremer 11
buddhistischen 11
Vorurteile 11
kari@@ 11
Resourcen 11
entsprechenden 11
heller 11
Col@@ 11
produkt 11
dauerhafte 11
Zellulose 11
Böden 11
wald 11
Eden 11
Labors 11
gelangten 11
reihe 11
use 11
nachsehen 11
wegwerfen 11
Mand@@ 11
populationen 11
ppen 11
Königinnen 11
zigen 11
Lastwagen 11
Wisconsin 11
Beschwerden 11
General@@ 11
verlorenen 11
verhungern 11
Ernähr@@ 11
statische 11
kräften 11
Hummeln 11
ernde 11
Übel 11
Weiß@@ 11
wiederherstellen 11
Ras@@ 11
reiches 11
falle 11
nerven 11
teilgenommen 11
hinsetzen 11
braunen 11
Mantel 11
rannten 11
Fassade 11
oh@@ 11
Stadion 11
MP3 11
kreierte 11
Verwalter 11
Religions@@ 11
mün@@ 11
dig 11
Rö@@ 11
Gesundheitspflege 11
Bücher@@ 11
Neid 11
entes 11
weiser 11
Ausdrücke 11
Faser 11
Maine 11
populär 11
vollbringen 11
einfachere 11
binnen 11
Tönen 11
zufolge 11
bewußt 11
mischer 11
Raumzeit 11
entsetzlichen 11
Wasserfall 11
realistische 11
zurücklegen 11
vorüber 11
Staunen 11
Geschöpfe 11
Äste 11
2,3 11
ana 11
Kummer 11
Ganzheit 11
igkeit 11
Sehnsucht 11
Bestätigung 11
unbegrenzt 11
Ad@@ 11
Schlachten 11
eröffnete 11
überallhin 11
bedeutendsten 11
blenden 11
Einflüsse 11
Verkehr@@ 11
geometrische 11
Academy 11
Tie@@ 11
gewandt 11
vorausgesetzt 11
stellungen 11
name 11
Wurf 11
anzulocken 11
fresser 11
Leuchten 11
wunder@@ 11
Apparate 11
unverständlich 11
Flüssigkeiten 11
entgegengesetzte 11
Erkenntnissen 11
wickelt 11
Protein@@ 11
übertragung 11
Kin@@ 11
Gefangenendilemma 11
terte 11
1960er 11
Eleanor 11
zerstörten 11
rolle 11
Bestrafung 11
Altruismus 11
Artikeln 11
Bit@@ 11
unternahmen 11
Mobilfunk@@ 11
zige 11
Telescope 11
Pol 11
Kindersoldaten 11
Medi@@ 11
Durchschnittsalter 11
erschüttert 11
Noten@@ 11
Beharrlichkeit 11
barsten 11
erweisen 11
Prostitution 11
großzügige 11
Malen 11
Realitäten 11
zukommt 11
cooles 11
behälter 11
zel@@ 11
bohrt 11
Hintergrund@@ 11
weiblich 11
flexible 11
Matthew 11
primitive 11
Gen. 11
erie 11
leg@@ 11
änderung 11
rechnung 11
Franklin 11
Jude 11
miss@@ 11
Außerirdische 11
bewaffneten 11
Cyber 11
inwiefern 11
Nobelpreisträger 11
herkömmliche 11
Terrors 11
verliebte 11
Tiefse@@ 11
Räuber 11
Eingangstür 11
22. 11
94 11
quadrieren 11
erem 11
1947 11
Unterbrechungen 11
1987 11
studierten 11
bleib 11
Acht@@ 11
net 11
Lan@@ 11
klapp@@ 11
gefährliches 11
andernfalls 11
Unterdrückung 11
äch@@ 11
Gem@@ 11
hüpfen 11
aff@@ 11
physischer 11
Neurotransmitter 11
Körpersprache 11
Erwachsenenalter 11
einzurichten 11
Boyle 11
ungst@@ 11
Zukunfts@@ 11
schritt 11
Säugetieren 11
samkeit 11
eiten 11
Meeresfrüchte 11
Mixer 11
benen 11
materi@@ 11
logische 11
Zutat 11
umwandelt 11
rohen 11
pra@@ 11
ole 11
zo@@ 11
durchge@@ 11
sichtbare 11
Informatik 11
Demo 11
CEO 11
vorgang 11
Diego 11
brachen 11
mitglieder 11
sicht@@ 11
Vermutungen 11
Bleistift 11
unbeabsichtigte 11
konventionellen 11
pften 11
autos 11
operation 11
gebrochene 11
Intellekt 11
angehört 11
Klaren 11
schlichtweg 11
Bestseller 11
Yoga 11
Biologe 11
Theoretiker 11
Taktik 11
anbringen 11
Macintosh 11
aufzeigt 11
ord@@ 11
gefährden 11
Christ 11
wissenschaftler 11
fach@@ 11
positives 11
Russell 11
Nu@@ 11
tikern 11
skalierbar 11
Motor@@ 11
faktoren 11
erzeugte 11
Aufsatz 11
packten 11
auto 11
assoziieren 11
beibehalten 11
abwärts 11
Ausweitung 11
Kommission 11
Tele@@ 11
gendste 11
89 11
Dokumentation 11
Auktion 11
zehntausend 11
passiven 11
SETI 11
Wirtschaften 11
Handbuch 11
klassischer 11
Vereinbarungen 11
Virus@@ 11
Immunsystems 11
mil@@ 11
zucht 11
Kontinuität 11
Geparden 11
Mohammed 11
Sozi@@ 11
Lebenskraft 11
saugen 11
regiert 11
od 11
Gewinnen 11
Oel@@ 11
gelangte 11
getaucht 11
menschen 11
spiegel 11
muessen 11
Leiche 11
Exxon 11
gegen@@ 11
totalen 11
ffer 11
Wa@@ 11
Superman 11
Schnitte 11
Synapse 11
Cap@@ 11
aufzusteigen 11
lang@@ 11
tierischen 11
zeichneten 11
Gel 11
ausgegangen 11
Magnete 11
uns@@ 11
Latte 11
stock 11
25@@ 11
währen 11
behält 11
Billi@@ 11
Enten 11
Le 11
lügt 11
empfand 11
Gelb 11
schiebt 11
neige 11
Futter@@ 11
Rinder 11
Minimum 11
akzeptabel 11
Zauberei 11
Männlichkeit 11
sache 11
Stange 11
Neurowissenschaften 11
angemessener 11
Emma 11
umgebenden 11
Angst@@ 11
protestieren 11
Diktator 11
friedlich 11
verletzungen 11
Taxifahrer 11
ot 11
Augenlicht 11
phänomenale 11
neurale 11
ön@@ 11
Anwälten 11
Jabbar 11
schulden 11
get@@ 11
Preisen 11
abzuholen 11
Schwächen 11
beru@@ 11
italienischen 11
Kasse 11
späteren 11
appen 11
erschrecken 11
Überquerung 11
Nüsse 11
geschleudert 11
langsame 11
Giftstoffe 11
springende 11
Kreation 11
Repräsentation 11
mitzunehmen 11
Sei@@ 11
gefüttert 11
gigen 11
Side 11
belassen 11
Pr@@ 11
innerlich 11
klebten 11
itäts@@ 11
abspielt 11
dom@@ 11
unterschrieben 11
unrecht 11
que 11
erweckt 11
Vinci 11
II. 11
analog 11
Unsichtbare 11
Atelier 11
untersuche 11
gerechte 11
7,@@ 11
Young 11
einfließen 11
ingen 11
ernsten 11
Sprünge 11
sitzend 11
Entschlossenheit 11
tak@@ 11
alledem 11
lachte 11
gießt 11
Bronze 11
wertzuschätzen 11
Abstraktion 11
abbilden 11
lat@@ 11
enter 11
Gebärmutter 11
Abschied 11
lindern 11
bezwingen 11
170 11
Supernova 11
ausger@@ 11
unterschreiben 11
allgemeiner 11
kunde 11
herausragende 11
tafel 11
asen 11
Georgia 11
zuzu@@ 11
sehnt 11
Mund@@ 11
gemeinschaftliche 11
Rohdaten 11
Data 11
Ohio 11
Spei@@ 11
Prince 11
Zy@@ 11
einfällt 11
Glühwürmchen 11
schlugen 11
spannen 11
stest 11
Feldern 11
Saatgut 11
stehenden 11
bedanken 11
gesenkt 11
sehnen 11
39 11
zurückgekehrt 11
russische 11
profitabel 11
phase 11
mikroskopischen 11
zigern 11
Krebsarten 11
ausweiten 11
lokales 11
genehmigt 11
aufgetragen 11
aussen 11
Tomaten 11
verabreichen 11
Medicine 11
Gary 11
Fall@@ 11
Cas@@ 11
angemessene 11
herausfordern 11
dokumentierte 11
existierende 11
eis@@ 11
Sushi 11
Sobule 11
singe 11
ele@@ 11
Tief@@ 11
Großmütter 11
här@@ 11
unterschätzen 11
anstreben 11
ausgleichen 11
diesbezüglich 11
Auszeit 11
stehend 11
bauer 11
befasste 11
putzen 11
* 11
verfeinern 11
mustern 11
Weiter@@ 11
Chemikalie 11
Ernährungssystem 11
rechnungen 11
halter 11
verkehr 11
Kenntnis 11
Geschäftsmann 11
Schlechte 11
zweidimensionalen 11
erfolgreichsten 11
meldete 11
hinbekommen 11
fähiger 11
Speed 11
umgezogen 11
nützliches 11
Burger 11
Miss 11
siebten 11
furchtbaren 11
Bauchgefühl 11
Spenden@@ 11
ärgert 11
Vorsitzende 11
zyklus 11
fro@@ 11
Flugbahn 11
haltet 11
McLuhan 11
Blogosphäre 11
Kolumne 11
Dorf@@ 11
ans@@ 11
funk@@ 11
1.500 11
Spam 11
freies 11
liebens@@ 11
Schrein 11
Gehry 11
Leder@@ 11
gehor@@ 11
Automobile 11
Arm@@ 11
ktes 11
.com. 11
kels 11
verletzte 11
singt 11
beinah 11
Arbeitgeber 11
Empire 11
Pfeile 11
Istanbul 11
Mittelmeer 11
Zonen 11
Supermacht 11
Instabilität 11
unen 11
gleicher 11
Pinguinen 11
gent@@ 11
Nature 11
scht 11
Schranken 11
aufrichtig 11
Wurm 11
kodiert 11
Zimmer@@ 11
beeinflusste 11
chirurgischen 11
Diener 11
exponentielle 11
keinesfalls 11
laufenden 11
nähme 11
eingreifen 11
Positive 11
uss 11
Überschrift 11
Glei@@ 11
wiederbelebt 11
theoretischen 11
tiefgründige 11
ließe 11
tal@@ 11
Energiemenge 11
ausgestoßen 11
Analysen 11
Schalen 11
absch@@ 11
stattfanden 11
Osterinsel 11
chemischer 11
Schutzgebiete 11
Merkmalen 11
Künstlers 11
behinderte 11
Unbekannte 11
wohnte 11
erschreckt 11
keit@@ 11
Glühbirnen 11
Verzerrung 11
lieren 11
glich 11
Marshmallow 11
Außenminister 11
Präsenz 11
umfassenden 11
heruntergeladen 11
Nan@@ 11
sticht 11
intellektuell 11
Sonnenuntergang 11
Pe@@ 11
erteilt 11
1962 11
leben@@ 11
chter@@ 11
Stammes 11
TEDx 11
str@@ 11
kennenzulernen 11
kranken 11
kranke 11
asiatischen 11
gebung 11
nachgeben 11
Fred 11
av@@ 11
antreten 11
maß 11
Yang 11
bescheiden 11
einsame 11
naturgemäß 11
eingestehen 11
klarmachen 11
gestützt 11
streng 11
achte 11
Anekdote 11
vorherige 11
650 11
surfen 11
konzept 11
Schlechten 11
Hase 11
Programmierung 11
ult 11
öl 11
erlebten 11
ue 11
stufe 11
Anfänger 11
bemerkenswerter 11
Monarchie 11
allesamt 11
Drohnen 11
Deutschen 11
hang 11
hervorbringt 11
Krieger 11
sierten 11
Hauptgründe 11
Ölkatastrophe 11
digt 11
Verbrennung 11
vergiften 11
Definitionen 11
vari@@ 11
erendes 11
Gesundheitsbehörde 11
Kos@@ 11
deckt 11
sam@@ 11
sterbe 11
Fahrzeugen 11
höchster 11
Humankapital 11
77 11
Textil@@ 11
Getränk 11
räumliche 11
Erscheinungen 11
Biographie 11
Rechnungen 11
reaktion 11
Strahlen 11
klopfte 11
Waisenhaus 11
zurückkam 11
öffne 11
Brauch 11
zubringen 11
Anhängern 11
vorfinden 11
Pixel 11
Krawatte 11
niedrigem 11
UNAIDS 11
bri@@ 11
produzierten 11
fasern 11
fot@@ 11
Betty 11
grössere 11
aufleuchten 11
Strichmännchen 11
animiert 11
berühmtesten 11
Hindu 11
original 11
Karten@@ 11
legal 11
blöde 11
Agenten 11
Sponsor 11
lauf@@ 11
kommen@@ 11
Datenpunkte 11
optimale 11
orts@@ 11
sonnigen 11
spirituell 11
Herzfrequenz 11
Erzähl@@ 11
schockierend 11
Wangen 11
gewährt 11
stock@@ 11
Außenministerin 11
istischer 11
erschießen 11
aufgetaucht 11
vorzu@@ 11
Schne@@ 11
verfügte 11
Kerry 11
Nordosten 11
vorhersagbar 11
vorhergesagt 11
wir@@ 11
cker@@ 11
tech 11
White 11
ierter 11
87 11
bequem 11
Beatles 11
Musikern 11
vermisst 11
häusern 11
Plat@@ 11
Sterblichkeit 11
Bett@@ 11
Erlösung 11
Betrug 11
Unternehmer@@ 11
jahr@@ 11
herauszuholen 11
House 11
herüber 11
Jahrtausenden 11
gesorgt 11
Postkarten 11
gegenüber@@ 11
Bewertung 11
é 11
unzufrieden 11
Schlauch 11
dürften 11
behandelten 11
einmalige 11
dliches 11
nahtlos 11
Künsten 11
Nullsummenspiel 11
globalisierten 11
strahlen 11
Apotheke 11
Gegenmittel 11
konservative 11
vorzunehmen 11
Diktatoren 11
Wanderung 11
Säugetier 11
Frieden@@ 11
Bestimmungen 11
wache 11
chung 11
Rationalität 11
Labyrinth 11
Datei 11
Bildgebung 11
Mammogramm 11
Darlehen 11
Massstab 11
Konzer@@ 11
Ausblick 11
steil 11
ströme 11
500.000 11
Em@@ 11
nackt 11
mikrobielle 11
warme 11
Rap 11
ausgibt 11
verdiente 11
Umkehrung 11
Energi@@ 11
Dodo 11
Besorgnis 11
gewicht 11
Masken 11
Bord@@ 11
barem 11
abschaffen 11
00 11
offiziellen 11
Kapsel 11
Winter@@ 11
Beweisen 11
viert 11
Placebo 11
Bewertungen 11
Gütern 11
Prozessoren 11
Verteidiger 11
bedroh@@ 11
strom 11
exponentiellen 11
Subjekt 11
Herzklappe 11
aufregendste 11
Sarajevo 11
Geschichtenerzählens 11
1,6 11
Hippie 11
Gast@@ 11
kletterte 11
Zufalls@@ 11
Mister 11
Vol@@ 11
Schrift@@ 11
vorherrschende 11
intergalaktischen 11
entspannt 11
ernen 11
ulation 11
anfälliger 11
Denisova 11
Economist 11
augen 11
Arabischen 11
Ärmsten 11
tivem 11
Sandkorn 11
Sandkörner 11
Ersparnisse 11
Einsparungen 11
BJ 11
weiterzumachen 11
büro 11
Prinzen 11
fizierung 11
bestehend 11
chinesisch 11
Glückskekse 11
übernahmen 11
1930ern 11
Venen 11
nützlichen 11
Rich@@ 11
Bas@@ 11
ziele 11
Malari@@ 11
geringste 11
eb@@ 11
Beleg 11
Ideal 11
Deck 11
Mathematica 11
hyper@@ 11
Klappe 11
Flöten 11
zähne 11
virtuell 11
Festivals 11
Inuit 11
Möbel@@ 11
drahtlosen 11
Niederlande 11
gewalt@@ 11
Referenz@@ 11
Lass 11
Kätzchen 11
Hürde 11
Vertriebs@@ 11
produktiver 11
Doktoren 11
Potter 11
Angaben 11
Hadron 11
Collider 11
LHC 11
Köchin 11
Königskobra 11
Mainstream 11
Robbe 11
Herrscher 11
Skripte 11
Skript 11
I. 11
Gesamtbild 11
Rod 11
Niederschlag 11
Gier 11
Ideale 11
Barefoot 11
ST 11
Mondfisch 11
Neumann 11
Robicsek 11
Appetit 11
Fracking 11
Austern 11
Ikone 11
Gummi@@ 11
erstaunlicher 11
Judentum 11
Pistole 11
mikrobiellen 11
Splashy 11
Georgetown 11
Psychopath 11
Massenaussterben 11
4000 11
Rezero 11
Abalone 11
Bedauerns 11
Derartu 11
Rauigkeit 11
T20 11
gängen 10
blei@@ 10
let@@ 10
geborenen 10
Strände 10
Surfer 10
neur@@ 10
Cal@@ 10
Krebse 10
Epidemien 10
Schiff@@ 10
verbreiteten 10
Ureinwohner 10
medi@@ 10
Jet 10
Regisseur 10
äusserst 10
überzogen 10
Kas@@ 10
oss 10
Joey 10
beachtet 10
Für 10
Pferden 10
mikro@@ 10
Heute 10
konzipiert 10
kungen 10
Aktien 10
Handel@@ 10
Spannungen 10
kanälen 10
durchschnittlicher 10
Cameron 10
gegenseitigen 10
Immigranten 10
Danny 10
Tischen 10
Klassen@@ 10
sofortige 10
vermarktet 10
Whole 10
Asphalt 10
arbei@@ 10
bedrohten 10
fle@@ 10
Dün@@ 10
Kühlung 10
bedingten 10
Anbau 10
Energiebedarf 10
erg@@ 10
Genesung 10
Globale 10
Home 10
Love 10
Renn@@ 10
nähren 10
Unternehmungen 10
bänder 10
rundherum 10
Fehler@@ 10
präsentierte 10
kosten@@ 10
fortschrittliche 10
Libyen 10
unterhaltsam 10
rausgehen 10
anrichten 10
tropft 10
sters 10
erschufen 10
lu@@ 10
Umweltbewegung 10
schrauben 10
Geringsten 10
physiologische 10
Nordhalbkugel 10
Schmerz@@ 10
exakte 10
luft@@ 10
brilliant 10
Reflektion 10
antrieb 10
Tribut 10
Tänzerin 10
anz 10
Mikrosekunden 10
Enzyme 10
bündeln 10
stünde 10
lieder 10
hingezogen 10
herkam 10
unabhängiges 10
Weltbild 10
Vergebung 10
ve@@ 10
Wohlstands 10
Verwirrung 10
themen 10
erien 10
Poeten 10
geschäf@@ 10
raffiniert 10
harmon@@ 10
Tourismus 10
generation 10
erreichbar 10
Vertrieb 10
blättern 10
mobil 10
Uni@@ 10
ausdrucken 10
gescannt 10
verlagern 10
medien 10
Sammlungen 10
Amateur@@ 10
Kop@@ 10
aufgebrochen 10
Taschen@@ 10
Mine 10
eil@@ 10
Laboratorien 10
Nächste 10
Erhebungen 10
gekocht 10
Nahaufnahme 10
Stimm@@ 10
Ze@@ 10
familie 10
Tierwelt 10
Krankheitserreger 10
Waldes 10
Elektronen@@ 10
Kreuzungen 10
Ketten 10
scheiden 10
ax@@ 10
Dicke 10
oli@@ 10
Oregon 10
U.S.-@@ 10
übergegangen 10
Extra@@ 10
aufrufen 10
Bohnen 10
Gefäße 10
tro@@ 10
Edel@@ 10
aufgewacht 10
Lebenserhaltungssystem 10
Farmen 10
Grundstück 10
Dor@@ 10
Dinosauriern 10
Bienenstöcke 10
ischsten 10
Ausrede 10
schönste 10
hintereinander 10
Gro@@ 10
bestäuben 10
Kle@@ 10
Ast 10
störung 10
erneuern 10
Parameter 10
De 10
Fliegen@@ 10
ernstes 10
süße 10
Holland 10
ed 10
feier 10
gerin 10
starte 10
tigste 10
gemischte 10
mitgemacht 10
Look 10
Best 10
erender 10
ball@@ 10
Wochen@@ 10
able 10
projizieren 10
ununterbrochen 10
Unbehagen 10
wahl 10
missverstanden 10
zehn@@ 10
Pinsel 10
Parasit 10
Christentum 10
gehorchen 10
Vorhang 10
Meinungs@@ 10
Homer 10
gestaltete 10
Völkern 10
Schulung 10
relevante 10
Messung 10
bra@@ 10
totaler 10
ziel@@ 10
gesundheitliche 10
quetschen 10
Stücken 10
bedingte 10
51 10
Eli@@ 10
ausbildung 10
richtete 10
Pfade 10
verzerrt 10
fachen 10
Karl 10
gefesselt 10
iel@@ 10
Computermodell 10
Tinten@@ 10
mur@@ 10
trieben 10
Studios 10
entziehen 10
Multiversums 10
verkörpern 10
verwurzelt 10
multipliziert 10
pre@@ 10
terer 10
ausübt 10
streckt 10
bens 10
Nachteile 10
entsetzliche 10
zentral 10
1953 10
übersteigt 10
Alter@@ 10
Stars 10
kast@@ 10
fusiformis 10
Erkennung 10
unterbringen 10
tor 10
Socken 10
stehst 10
fortgeschrittene 10
herkömmlichen 10
bremsen 10
Refle@@ 10
oberste 10
fortgeschrittenen 10
klarstellen 10
verstehst 10
auszustatten 10
pres@@ 10
wertvoller 10
Gremium 10
Nachhilfe 10
anerkannte 10
boot 10
stimulieren 10
Leucht@@ 10
Schiffes 10
verankert 10
Federn 10
hai 10
bender 10
darstellte 10
gelte 10
ausgelassen 10
Pore 10
signal 10
fertig@@ 10
Reichtums 10
abermals 10
Demokratien 10
Geschwindigkeiten 10
bedeutsame 10
beziehungsweise 10
abgehalten 10
güter 10
ly 10
übergreifende 10
herausgebracht 10
amm@@ 10
andersrum 10
WorldWide 10
Leichen 10
1970er 10
derten 10
Verantwortlichkeit 10
ausländischen 10
eröffneten 10
istan 10
verliehen 10
hervorragender 10
Koordin@@ 10
dend 10
Mittelschicht 10
Von 10
abheben 10
aufkommt 10
alltäglich 10
dies@@ 10
betre@@ 10
untergebracht 10
besorgniserregend 10
länge 10
kung 10
dummen 10
enthielten 10
fizier@@ 10
Modi@@ 10
fikation 10
aussehende 10
Harris 10
Embryo 10
modi@@ 10
Einschätzung 10
versenden 10
abrufen 10
Kabel@@ 10
komponenten 10
verlockend 10
rasant 10
verwechseln 10
wage 10
wies 10
Law 10
Viel@@ 10
chenden 10
aufgedeckt 10
San@@ 10
Aller@@ 10
zitiere 10
Stell@@ 10
mä@@ 10
Besondere 10
plant 10
Karrier@@ 10
dra@@ 10
Schwerelosigkeit 10
Fli@@ 10
suppe 10
Mathema@@ 10
25. 10
9. 10
84 10
etzen 10
längste 10
90@@ 10
1966 10
eingedrungen 10
sicherheit 10
wandelt 10
studio 10
Greg 10
not@@ 10
Unruhen 10
hauen 10
Etage 10
stell@@ 10
schonmal 10
une 10
Schnee@@ 10
emotionaler 10
Amts@@ 10
umgegangen 10
völlige 10
Tun 10
Jawohl 10
hindert 10
art@@ 10
Content 10
Can@@ 10
HC 10
Trauben 10
Br 10
modernes 10
Geschmacks@@ 10
Trip 10
Beschaffenheit 10
Pla@@ 10
bereisen 10
Gol@@ 10
Vokabular 10
Interaktivität 10
Helligkeit 10
anzuerkennen 10
Blicke 10
Gl@@ 10
Mellon 10
zurecht@@ 10
fertigen 10
Krei@@ 10
bekannteste 10
Hochschul@@ 10
lehrer 10
Zimmergenossin 10
Errichtung 10
On@@ 10
mutigen 10
Schriftstellerin 10
Rollen@@ 10
demokratischer 10
widersprechen 10
vermutet 10
Durchbrüche 10
sens 10
Kästchen 10
schreitet 10
Anmerkung 10
Gerichtsverfahren 10
Darwinismus 10
ID 10
Kreationisten 10
populäre 10
gleichbedeutend 10
sanfte 10
ley 10
G. 10
obersten 10
zus@@ 10
Edward 10
giert 10
Puzzle 10
aufladen 10
ausgelegt 10
tanken 10
Hal@@ 10
verbrennt 10
Zweit@@ 10
unterliegt 10
14@@ 10
lli@@ 10
verbrauch 10
verzichten 10
hingeht 10
herausholen 10
Inflation 10
aufzählen 10
Immobilien@@ 10
gewünscht 10
Hobby 10
Betrachten 10
radikalen 10
Kapit@@ 10
Kommunikation@@ 10
thema 10
fände 10
Relevanz 10
die@@ 10
Handels 10
Werkzeug@@ 10
droht 10
opfer 10
mutiert 10
Lau@@ 10
vervielfältigen 10
dri@@ 10
Plas@@ 10
Schub 10
besiegt 10
direkter 10
rasend 10
terem 10
automatische 10
passenden 10
rationalen 10
Grippe@@ 10
Fortschritts 10
überholen 10
demografische 10
ausländischer 10
June 10
Flus@@ 10
Blair 10
deu@@ 10
staat 10
bo 10
Reiche 10
Nashville 10
anstrengen 10
schrie 10
4,@@ 10
Katalysator 10
Tools 10
haft@@ 10
tatsaechlich 10
Meer@@ 10
Hotel@@ 10
Aufsicht 10
Def@@ 10
erbringen 10
Voegel 10
Rauch@@ 10
koennten 10
etzt 10
Gru@@ 10
wä@@ 10
Sergey 10
durchkommen 10
zeitalter 10
braune 10
verschlüsselt 10
ausreichen 10
neuronale 10
verbindungen 10
Kr@@ 10
vereinbaren 10
gefrorenen 10
füttert 10
magnetisch 10
Bedeutsamkeit 10
abkühlen 10
trocknen 10
digkeit 10
einbinden 10
Lieblings 10
Illinois 10
Chem@@ 10
logischen 10
lecker 10
fortgesetzt 10
ev@@ 10
behielt 10
hör 10
worfen 10
Beleidigung 10
zungen 10
Motors 10
Autor@@ 10
Albtraum 10
h. 10
symbolisch 10
Jacke 10
tale 10
Drucken 10
Sieb@@ 10
kenn@@ 10
artikel 10
Stuntman 10
Alien 10
tischste 10
Kuss 10
zur@@ 10
mieten 10
Toms 10
Pubertät 10
Kontrollgruppe 10
Teddy 10
Areale 10
Herstellen 10
ägyptischen 10
vorderen 10
illen 10
durchgesetzt 10
Empörung 10
Yin 10
Handfläche 10
hineingehen 10
Söhnen 10
auszur@@ 10
wär@@ 10
längsten 10
dünner 10
Multimedia 10
Tempest 10
Oscar 10
komponiert 10
lache 10
Kampfes 10
kreuzt 10
sche@@ 10
steigende 10
behörden 10
reagierte 10
nete 10
Will@@ 10
versorgung 10
mittendrin 10
NK 10
chemisch 10
romantisch 10
Dünen 10
dün@@ 10
Pracht 10
Sinn@@ 10
ko 10
Komfort 10
gar@@ 10
vereinfacht 10
letzendlich 10
Leichtigkeit 10
Flaschen@@ 10
schung 10
gehoben 10
Springbrunnen 10
Balkone 10
Kopfes 10
kleinem 10
Urbanisierung 10
gefärbt 10
open 10
grenzt 10
Kehrseite 10
Sterbebett 10
reichten 10
ALS 10
erwähnten 10
stri@@ 10
Korallenriffen 10
Arts 10
mathematischer 10
Play 10
asse 10
Gral 10
Arms 10
experimentell 10
verletzung 10
abgerissen 10
Erstaunliche 10
Photonen 10
Einschlag 10
unterliegen 10
4,5 10
Millionstel 10
menschen@@ 10
zusammenleben 10
längeren 10
aufre@@ 10
Lucy 10
japanischer 10
Wiedersehen 10
strei@@ 10
erforderlich 10
Sue 10
ansahen 10
Posi@@ 10
Kun@@ 10
stände 10
Kay 10
geübt 10
Kä@@ 10
Anthony 10
Klinge 10
Lasten 10
anzutreiben 10
Mais@@ 10
Nahrungsmittel@@ 10
Samen@@ 10
Flüge 10
anpasst 10
einzubauen 10
sol@@ 10
rot@@ 10
Drang 10
ausdrücklich 10
Voraussage 10
flugzeug 10
Blutfluss 10
mikroskopisch 10
Hor@@ 10
Soja 10
Tomatensauce 10
Substanzen 10
weitreichende 10
nachzugehen 10
Vollzeit 10
Wegwerf@@ 10
verändernde 10
recherchiert 10
Brain 10
machtvoll 10
Gewehre 10
mäßigen 10
segeln 10
Kenya 10
unterstütze 10
ble 10
Entscheidungs@@ 10
Titel@@ 10
Do 10
Asche 10
1858 10
gekühlt 10
verhandelt 10
Eigentums@@ 10
alist 10
meinst 10
strebt 10
zurückzuziehen 10
Connecticut 10
konkrete 10
reinigt 10
aufgeführt 10
10,000 10
gewöhnlicher 10
Süße 10
Nasen@@ 10
Plans 10
Lehrling 10
ennen 10
schlüpfen 10
Innovations@@ 10
drum 10
Logos 10
Wahr@@ 10
ungspunkte 10
Bildschirms 10
ansprechend 10
Größerem 10
anzubringen 10
Kaiser 10
verkürzen 10
nahelegen 10
posten 10
schlechteste 10
ierende 10
mö@@ 10
Tom@@ 10
gedank@@ 10
verändernden 10
flaschen 10
Rose 10
Säu@@ 10
beidem 10
ausstellen 10
RCA 10
beacht@@ 10
92 10
Mädels 10
interaktiven 10
entsetzt 10
Group 10
wahllos 10
Tool 10
Benutzung 10
Edison 10
brasilianischen 10
Briefkasten 10
beleben 10
industrialisierten 10
30ern 10
Skizzen 10
Sitzen 10
zurücklehnen 10
umsehen 10
Wirbelsäule 10
punk@@ 10
geografische 10
Kentucky 10
Gift@@ 10
wetten 10
robuste 10
Reiz 10
signale 10
Jesse 10
Lernprozess 10
Reparatur 10
Celine 10
reicheren 10
Formular 10
tierung 10
Für@@ 10
Kupfer 10
Peking 10
exportieren 10
gewährleisten 10
stärkste 10
Balkan 10
schwammen 10
Sponsoren 10
inspirierten 10
nützt 10
universal 10
magst 10
einschränken 10
fizieren 10
suchst 10
abstimmen 10
anhält 10
zahlreichen 10
Asiens 10
Überlebende 10
Armutsgrenze 10
Morgen@@ 10
aufregenden 10
aufzuzeichnen 10
Schenkel 10
primitiv 10
Spielereien 10
damaligen 10
Hälften 10
mei@@ 10
Mac@@ 10
festes 10
studie 10
hinweist 10
Digital@@ 10
Single 10
iere 10
nachgehen 10
synthetischen 10
Clark 10
hinauf@@ 10
anzug 10
Kaluza 10
Kreises 10
Cello 10
Strahl@@ 10
elektromagnetischen 10
Skalen 10
strahlung 10
Sediment 10
offenem 10
faszinierenden 10
rem 10
Biodiversität 10
hindurch@@ 10
Autofahren 10
Jungfrauen 10
Älteren 10
Leoparden 10
verschmilzt 10
wirklicher 10
Glauben@@ 10
erho@@ 10
trocknet 10
the@@ 10
gänge 10
überfahren 10
Gefangenschaft 10
zukünftig 10
vernachlässigen 10
ativ 10
ausgraben 10
losgehen 10
status 10
keits 10
bekämpft 10
verdrängt 10
Donner 10
zuge@@ 10
Sandwiches 10
stehende 10
architektonischen 10
wanderten 10
füll@@ 10
Bowl 10
Gruppierungen 10
pause 10
anschauten 10
Abläufe 10
orie 10
Symptom 10
Weil 10
gü@@ 10
Tugenden 10
Befriedigung 10
Berühmtheit 10
wiedergeben 10
Bars 10
selbstständig 10
Tisch@@ 10
At@@ 10
Verrückte 10
Wette 10
gleichsam 10
Zeh@@ 10
zurückgekommen 10
betet 10
Forderung 10
verbesserten 10
Segment 10
anspruchs@@ 10
Heimatland 10
Architektur@@ 10
bis@@ 10
fürchterlich 10
Astro@@ 10
Trag@@ 10
ignorierte 10
Stunden@@ 10
Orange 10
Spalten 10
Nagel 10
Pop@@ 10
ther@@ 10
grausamen 10
psychisch 10
aussagen 10
Einsen 10
Betroffenen 10
bestürzt 10
Lebensstandard 10
dreifache 10
Energiequellen 10
magnetischen 10
Demonstrationen 10
freigelassen 10
leugnen 10
wurzeln 10
sammle 10
werfe 10
neh@@ 10
Gesprächen 10
log@@ 10
Autobahnen 10
halber 10
USD 10
Chinese 10
Diskriminierung 10
verwaltung 10
Blocks 10
ungewöhnlichen 10
Ide@@ 10
kasten 10
Auschwitz 10
fein 10
Krebses 10
steine 10
Freundinnen 10
gelacht 10
beschuldigen 10
Weltraumteleskop 10
winkel 10
Abbild 10
feststellte 10
flüssiges 10
spar@@ 10
Senegal 10
Madagaskar 10
betroffenen 10
Pau@@ 10
Samuel 10
Billy 10
Es@@ 10
Spinnenseide 10
Anteile 10
durchzusetzen 10
Zuckerbrot 10
institution@@ 10
förmig 10
platzt 10
esst 10
einrichten 10
zukünftiges 10
rauskommt 10
Bier@@ 10
stet 10
aufgezeigt 10
netze 10
toter 10
brauch@@ 10
Chefs 10
Kunden@@ 10
begrenzte 10
Palm 10
cetera 10
konkret 10
auszugleichen 10
schiere 10
voranzutreiben 10
vorbereitete 10
mittelalterliche 10
Human@@ 10
12@@ 10
kratzen 10
gelegenen 10
Lichtquelle 10
ron@@ 10
Cha@@ 10
Eigentümer 10
gewaschen 10
Zimbabwe 10
einsehen 10
gewechselt 10
gefälschte 10
Etikett 10
Mikros@@ 10
ös 10
Chicken 10
Risiko@@ 10
Münzen 10
Darsteller 10
herausziehen 10
effizienten 10
Glücklichsein 10
Arbeitskraft 10
Außergewöhnliches 10
Kulissen 10
diente 10
enormer 10
Urin 10
italienische 10
bos@@ 10
bischen 10
Glaubwürdigkeit 10
Survey 10
scherze 10
lt 10
Gänge 10
ringe 10
Krücken 10
Ja@@ 10
ographie 10
91 10
tö@@ 10
verdienten 10
mes@@ 10
Neuerungen 10
Trick@@ 10
Ungerechtigkeit 10
endlos 10
Melodien 10
Doktortitel 10
erf@@ 10
berühmter 10
illi@@ 10
herrschen 10
engagierten 10
Sin@@ 10
priorisieren 10
No 10
afrikanisches 10
Präsidentin 10
stätten 10
verfolgten 10
baus 10
600.000 10
herauf 10
Mosambik 10
arbeits@@ 10
hinweg@@ 10
line 10
hand 10
zy@@ 10
zurückbleiben 10
schildern 10
fürchterliche 10
repliziert 10
gehasst 10
Reser@@ 10
Autofahrer 10
Spin 10
geräusche 10
Stigma 10
tropischen 10
wissend 10
herbeizuführen 10
verschleppt 10
träumte 10
istin 10
alis@@ 10
wohl@@ 10
Spiritualität 10
vordringen 10
bäume 10
Gesundheits 10
armer 10
ologin 10
radi@@ 10
schmerz@@ 10
liebstes 10
Wasserpumpe 10
moralisches 10
Juwelen 10
flug@@ 10
Base 10
Museums 10
Lasst 10
Grafikdesigner 10
Hafen@@ 10
Kernpunkt 10
reiner 10
ws 10
handelten 10
Freien 10
Körperteile 10
lineare 10
alls 10
verb@@ 10
autonom 10
Liebhaber 10
Palast 10
sensoren 10
Hurrikan 10
Gesicht@@ 10
veranlassen 10
Hongkong 10
Viren@@ 10
Todesursache 10
Tau@@ 10
Guinea 10
Report 10
Keine 10
Nar@@ 10
aufhält 10
Schädigungen 10
Neuigkeit 10
Haelfte 10
chtem 10
cent 10
Kohlehydrate 10
schuhe 10
Dummheit 10
Mad@@ 10
Vermeer 10
vollste 10
Prominenten 10
verabreicht 10
Zoll@@ 10
durchleben 10
energie@@ 10
zehntausenden 10
eis 10
kalifornischen 10
kartieren 10
einzubringen 10
Jason 10
logischerweise 10
Schweins 10
Schwein@@ 10
tier@@ 10
sprühen 10
geflossen 10
Tragödien 10
bewarb 10
weigerte 10
Vegetarier 10
Röhrchen 10
staatlicher 10
Sonnen 10
Demographie 10
Oakland 10
Tierreich 10
Lineal 10
Knall 10
erhob 10
relevanten 10
wog 10
Zusammenfassungen 10
gestresst 10
hinkommen 10
Babel 10
Menschenaffen 10
Feder 10
gewalttätigen 10
entiere 10
anbietet 10
präfrontalen 10
computer@@ 10
Vielfältigkeit 10
ero@@ 10
drängt 10
glichen 10
kollaborativen 10
Linus 10
Basen 10
eilt 10
gesteuerte 10
sonderbarer 10
Deutsch 10
Wirk@@ 10
J. 10
Klavier@@ 10
konsequent 10
Halt 10
figur 10
Krämpfe 10
Physi@@ 10
Fremd@@ 10
leb@@ 10
roh 10
Chuck 10
genetischer 10
Hyderabad 10
chtete 10
etc 10
Gitarre 10
schwangere 10
Go 10
Urheber 10
Klicks 10
anzuziehen 10
Sachs 10
Anbetracht 10
Ressourcen@@ 10
förder@@ 10
Fußgänger 10
Gesetz@@ 10
praktiziert 10
Sufi 10
auf- 10
Jahrestag 10
Esther 10
einges@@ 10
ständige 10
Selam 10
Sammeln 10
Flüssen 10
Rica 10
Beifang 10
erfolgreiches 10
Polymere 10
Hamlet 10
olympischen 10
äufen 10
ungsproblem 10
Palette 10
Robo@@ 10
abgenommen 10
vorauszusagen 10
liebevolle 10
Schädigung 10
symmetrischen 10
Kairo 10
Emmanuel 10
märkte 10
Bypass 10
Konzerne 10
ausgef@@ 10
auszuüben 10
konstante 10
Selbstwertgefühl 10
Synagoge 10
Unterstützer 10
gestehen 10
Doha 10
Biber 10
Quadrat@@ 10
erzählst 10
BMI 10
D. 10
Knete 10
Ass 10
musikalisches 10
drängten 10
Prego 10
Pointe 10
frisches 10
Vorstädte 10
erkundet 10
you 10
Terrain 10
Piraten 10
Selbstorganisation 10
herbeiführen 10
eilte 10
begleitete 10
Ruinen 10
Marduk 10
USDA 10
Schatten@@ 10
Minto 10
Pfefferspray 10
Rebecca 10
R.S. 10
Hirnrinde 10
Wanderungen 10
Meldungen 10
Spritzen 10
Haushaltsgeräte 10
Beschämung 10
Memen 10
DL 10
Narben 10
Aktivist 10
Cyborg 10
Barcode 10
Luzifer 10
Bambus 10
Dritteldrehung 10
Schaffenskraft 10
Encoder 10
Staugebühren 10
LOLcats 10
tschk 10
Platzzellen 10
ehemaliger 9
kin 9
pur@@ 9
Jungtiere 9
stoffes 9
Walfleisch 9
stillen 9
kanadischen 9
angesammelt 9
neurologische 9
Vibrio 9
hö@@ 9
Unterbrechung 9
Meeresschutzgebiet 9
Packard 9
verschiebt 9
Faust 9
Elizabeth 9
Puppen@@ 9
1971 9
überzeugte 9
Ringe 9
kennst 9
Schla@@ 9
Gal@@ 9
let 9
brüten 9
Hose 9
halb@@ 9
unvorhersehbar 9
zeichnung 9
kollegen 9
verfolge 9
Network 9
Pres@@ 9
Buffet 9
Schen@@ 9
abzubilden 9
sweise 9
dran@@ 9
Pandemien 9
Urgroßvater 9
mitzubringen 9
pflegt 9
Abständen 9
Fre@@ 9
bescheidenen 9
erleichtern 9
nehmer 9
bereitschaft 9
management 9
Glanz 9
Bergbau 9
Spreng@@ 9
arbeitslos 9
Shirts 9
Lungenkrebs 9
Mountain 9
Fertigung 9
Arbeiterklasse 9
ländliche 9
nebenan 9
stabiles 9
schmerzt 9
aben 9
TED@@ 9
kluger 9
lebst 9
vorhatte 9
Mix 9
genoss 9
Seymour 9
Profis 9
ausschlaggebend 9
Bankwesen 9
Kofi 9
kennenlernte 9
gedient 9
blöd 9
Bauteile 9
tliche 9
Bildschirme 9
5,000 9
Nahrungsmitteln 9
pumpt 9
variieren 9
geistiges 9
halbieren 9
Wortschatz 9
Reflex 9
kap@@ 9
Gefühls@@ 9
Anderes 9
Empfindung 9
Triumph 9
Transzendenz 9
gestal@@ 9
Verkörperung 9
ösen 9
grauen@@ 9
motor 9
blase 9
argumentiert 9
Fe@@ 9
disches 9
respektvoll 9
rischen 9
ansatz 9
Pflichten 9
Predigt 9
mäßige 9
Angewohnheit 9
mutiger 9
Narren 9
Alle 9
übertreffen 9
übel 9
Internetverbindung 9
Anfrage 9
750 9
UCLA 9
ergie@@ 9
unbegrenzte 9
9.@@ 9
Palästinenser 9
rechtlichen 9
vieren 9
Plätzen 9
Wis@@ 9
Radioaktivität 9
Materi@@ 9
leuten 9
vierzig 9
Teleskopen 9
betreffend 9
Berges 9
amerikanisches 9
komprimi@@ 9
aufgeblasen 9
Handschuhe 9
Kloster 9
berührte 9
eingetreten 9
bie 9
Membranen 9
Erosion 9
etliche 9
herausgebildet 9
arab@@ 9
Gestein 9
Austern@@ 9
ase 9
tod 9
British 9
Verteidigungsministerium 9
ets 9
enth@@ 9
gezüchtet 9
Sä@@ 9
deli@@ 9
Doktoranden 9
anlocken 9
Wachsen 9
Virtual 9
Energiekrise 9
Sphäre 9
anpassungsfähig 9
Pumpen 9
wacht 9
Einfaches 9
befinde 9
pel 9
verwandelten 9
Übersicht 9
Oase 9
zeitlich 9
Friedhof 9
tragisch 9
bestreiten 9
mobilen 9
bende 9
Bestand 9
zit@@ 9
angesiedelt 9
Topf 9
zurückkehrt 9
jagt 9
Reptilien 9
nahr@@ 9
apparat 9
burg 9
pfeifen 9
vielversprechend 9
tigungs@@ 9
Augenkontakt 9
Up@@ 9
Bri@@ 9
Hemden 9
spontanen 9
wur@@ 9
Katholi@@ 9
Entdeck@@ 9
Fitness 9
glän@@ 9
Errungenschaft 9
befürchte 9
anpacken 9
individueller 9
ernst@@ 9
Kopfhörer 9
stumm 9
ordentliche 9
Schwarz@@ 9
kollabieren 9
flüchten 9
dehnt 9
wellen 9
leiser 9
öses 9
ding 9
pt 9
aufspüren 9
Wahrnehmungs@@ 9
dauer 9
Höhlen@@ 9
Echo 9
fas@@ 9
Zweige 9
aufkam 9
Riesen 9
ausrechnen 9
Schlüsse 9
ungslos 9
umwelt@@ 9
rie@@ 9
geschützten 9
Nationalismus 9
tragischen 9
Wünschen 9
Glückseligkeit 9
kürzeren 9
Liebsten 9
abzugeben 9
Islamischen 9
1979 9
transformiert 9
Treppen 9
halluzin@@ 9
erleichtert 9
älterer 9
sts 9
ierenden 9
menten 9
C.A. 9
Tieres 9
abdecken 9
unterrichtete 9
video 9
Grundgedanke 9
ks@@ 9
abbiegen 9
abgeschafft 9
Lehrbücher 9
Automatisierung 9
Spalte 9
Beschreibungen 9
Lehrers 9
Schülerin 9
Sommers 9
Benutzeroberfläche 9
Sensibilität 9
abgelenkt 9
Feu@@ 9
Flügeln 9
Phot@@ 9
Angreifer 9
ketten 9
Bahamas 9
Blickfeld 9
Signal@@ 9
Kaninchen 9
Bestim@@ 9
kun@@ 9
Marktplatz 9
Erstaunen 9
abzulehnen 9
din 9
evolutionärer 9
Klebstoff 9
Wettbewerber 9
vertrauenswürdig 9
Analphabeten 9
Proteste 9
flüssig 9
dreidimensional 9
detaillierte 9
Munition 9
Vorsitzenden 9
zwangen 9
ager 9
angeb@@ 9
Europas 9
beschämt 9
Ehemänner 9
afghanische 9
Provinzen 9
konflikte 9
Musi@@ 9
notwendige 9
berufen 9
Perfektion 9
folgen@@ 9
mitglied 9
Orchesters 9
Betonung 9
spontane 9
Luxus@@ 9
verrichtet 9
unnötig 9
kommunale 9
medizinisch 9
sor@@ 9
einzunehmen 9
gespräch 9
dik@@ 9
gesellschaftlicher 9
erfahrung 9
person 9
schenkten 9
Außerirdischen 9
Casey 9
lehrten 9
verehren 9
Personal@@ 9
zü@@ 9
Broschüre 9
ystem 9
person@@ 9
ernsthaften 9
schwan@@ 9
Tech@@ 9
Technology 9
pleite 9
bevorsteht 9
Haustier 9
Alt@@ 9
war@@ 9
vergingen 9
angel@@ 9
rier 9
metern 9
speicher 9
bring 9
Leu@@ 9
Madison 9
aufgelistet 9
ting 9
realisierbar 9
Pharma@@ 9
bie@@ 9
IP 9
usw 9
ands 9
Tran@@ 9
denk 9
xen 9
ba 9
neunten 9
Rockstar 9
kommentieren 9
gültig 9
Koordinaten 9
ino 9
verängstigt 9
Milligramm 9
anzufertigen 9
Pipeline 9
Sticks 9
kampf 9
sive 9
begünstigen 9
verteidigt 9
otten 9
äne 9
lampe 9
Superhelden 9
Schildkröten 9
aufwacht 9
Simpson 9
Ernest 9
Badezimmer 9
Gebirge 9
Plastikflasche 9
zusammenfassend 9
Leser@@ 9
schriften 9
post 9
stossen 9
59 9
Ziffer 9
Neun 9
sieben@@ 9
War 9
66 9
schleichen 9
Ausweis 9
Lawrence 9
rissen 9
flasche 9
erbar 9
repariert 9
Zeitmaschine 9
Analysis 9
bumm 9
Gewehr 9
Relativität 9
edi@@ 9
Office 9
bert 9
deutscher 9
tragische 9
wackeln 9
aufen 9
untersuchung 9
rt 9
tischsten 9
grei@@ 9
charakterisiert 9
Mönche 9
verständnis 9
jagd 9
unfassbar 9
IPCC 9
wel@@ 9
köstlich 9
frischen 9
aufschneiden 9
kostenloses 9
waehrend 9
intensi@@ 9
Buschfleisch 9
Fallen 9
fu@@ 9
waere 9
Fran@@ 9
lacht 9
Prognose 9
interessanteste 9
Store 9
bezogene 9
magisches 9
Untertitel 9
ün@@ 9
visuelles 9
stoppt 9
Kongress@@ 9
konstruierte 9
Suchmaschine 9
Obdachlose 9
Cam@@ 9
mein@@ 9
Westafrika 9
ard 9
Ga@@ 9
ausreichende 9
Klischees 9
Ortes 9
gängigen 9
verlängern 9
Lese- 9
Alice 9
tern@@ 9
vorgeben 9
berater 9
zulässt 9
Homosexualität 9
hersteller 9
Eindrücke 9
ansatzweise 9
widersprüchliche 9
ckchen 9
ang 9
Diebstahl 9
Eleganz 9
Douglas 9
Dawkins 9
heilig 9
terung 9
Übrigen 9
Bildungsniveau 9
werbung 9
Loyalität 9
Aufzeichnung 9
organisierter 9
defin@@ 9
Discovery 9
Elektroautos 9
nachmittags 9
Tausch@@ 9
nachzuvollziehen 9
sauberen 9
Mehrzahl 9
Software@@ 9
Maßstäbe 9
Automobilindustrie 9
Bobby 9
Die@@ 9
korrupte 9
Entscheidende 9
Reform 9
Fürsorge 9
fri@@ 9
Erzeugung 9
anzutreten 9
bestechen 9
bas@@ 9
messbaren 9
Wachstumsrate 9
Kontinents 9
origin@@ 9
Screen 9
Britannica 9
Ansprüche 9
PCs 9
markt@@ 9
Infektionskrankheiten 9
halbwegs 9
verschieden@@ 9
vögel 9
schein@@ 9
harmlos 9
mäßig 9
hasst 9
41 9
ini@@ 9
abschneidet 9
hef@@ 9
Schei@@ 9
entfliehen 9
Blinden 9
Diskussions@@ 9
floss 9
erweiterten 9
zusammengebrochen 9
Tipper 9
östlich 9
Ex 9
auskennen 9
kurzfristige 9
gewandelt 9
Empfehlung 9
gesetzlich 9
Reduzierung 9
Kindes@@ 9
Unglaubliches 9
Scho@@ 9
Belastungen 9
Fis@@ 9
Krabben@@ 9
sto@@ 9
elli@@ 9
hergekommen 9
Gemeinsamkeit 9
Off@@ 9
Informations 9
ät 9
chtern 9
wirkung 9
entscheidender 9
müh@@ 9
telefonieren 9
Pascal 9
Weltalls 9
daten@@ 9
Veranlagung 9
angenehmen 9
Wahrnehmungen 9
ost@@ 9
Selbsterkenntnis 9
überraschenden 9
Magnet 9
unerwarteten 9
rank@@ 9
Schrank 9
hs 9
verst@@ 9
Musikvideos 9
Werbespots 9
Vorführung 9
beschädigen 9
gter 9
Mülleimer 9
decke 9
Sensing 9
Sousa 9
brillant 9
spaziert 9
our@@ 9
Notiz 9
verarbeitung 9
aufblühen 9
Janine 9
scheiße 9
Mysterien 9
Premiere 9
fantas@@ 9
Drehbuch 9
ris@@ 9
Muttersprache 9
horizontalen 9
verinnerlichen 9
Englische 9
Mandarin 9
tausendstel 9
bergab 9
ägyptische 9
vermögens 9
misshandelt 9
rauskam 9
zerrissen 9
motorischen 9
Davis 9
Buddhismus 9
Ahmed 9
Staatsbürger 9
Jeder 9
Kuwait 9
amer 9
Muslimen 9
gra@@ 9
verspricht 9
schaust 9
Wirtschaftswissenschaftler 9
finanzierten 9
isch@@ 9
brutalen 9
wachsender 9
Kriminellen 9
schie@@ 9
schlafe 9
erreiche 9
brücke 9
Anhäufung 9
Einkauf@@ 9
bedacht 9
wechselte 9
bewegende 9
Gebäude@@ 9
modelliert 9
Spitznamen 9
umzubringen 9
schliefen 9
ausstrecken 9
übermittelt 9
yo 9
Plakat 9
Textur 9
Flaggen 9
Täter 9
last 9
ani 9
ordnet 9
tlos 9
erhebliche 9
th 9
Egos 9
Charakteristika 9
zustellen 9
vorangegangenen 9
vernichtet 9
ästhetischen 9
Anfall 9
Workshops 9
Cornell 9
unmögliche 9
parallele 9
symbolische 9
ück@@ 9
eingeleitet 9
Verringerung 9
Capgras 9
Gegenüber 9
freisetzt 9
Irakkrieg 9
Patientinnen 9
Körperglied 9
Konflikts 9
Kiki 9
scharfe 9
taus@@ 9
besorgten 9
Atoms 9
Fak@@ 9
dener 9
Ph@@ 9
gleichmäßig 9
Schocks 9
maximal 9
zugeschrieben 9
Schimpanse 9
acks 9
Distanzen 9
blühen 9
tur 9
Fahrra@@ 9
co 9
erweiter@@ 9
Christopher 9
entgehen 9
kürzester 9
schriftlichen 9
entladen 9
Zaubertrick 9
aufziehen 9
kippt 9
Takt 9
Kabeln 9
fünfzehn 9
ote@@ 9
hieraus 9
Spanne 9
Pflanz@@ 9
Sicherheit@@ 9
bewegend 9
Reis@@ 9
blog@@ 9
Meine 9
höhlen 9
viralen 9
Luftfahrt 9
1908 9
lösungen 9
unsicheren 9
Ticket 9
Preises 9
höheres 9
Plazenta 9
Wund@@ 9
abbauen 9
Pionier 9
Blutkreislauf 9
angiogenetische 9
wirksame 9
heu@@ 9
9.000 9
Rätsel@@ 9
papier 9
Wett@@ 9
konzentriere 9
ausgenutzt 9
bekäme 9
zusammenzu@@ 9
klebt 9
überlappen 9
kneifen 9
Soziale 9
gewalttätige 9
jugendliche 9
Verwundbarkeit 9
zusammenbrechen 9
gesunder 9
sichergestellt 9
Videokamera 9
Besetzung 9
befrei@@ 9
häuser 9
überlebten 9
Beton@@ 9
abhält 9
Hillary 9
Friedman 9
these 9
drahtlos 9
Raumtemperatur 9
UK 9
loben 9
lierte 9
meins 9
Bandura 9
Weges 9
Grafik@@ 9
sinnlos 9
Hummel 9
Grammatik 9
eigenständige 9
Sagen 9
grausame 9
Me 9
spek@@ 9
einloggen 9
Suchanfragen 9
Anfragen 9
Ap@@ 9
Einladungen 9
massen 9
Kult 9
Spieldynamiken 9
Kreditkarte 9
bit@@ 9
meist@@ 9
spannendsten 9
ansetzen 9
Haushalts@@ 9
Q 9
prägt 9
schlechtere 9
Bot@@ 9
klagte 9
überwältigenden 9
Giussani 9
Ölpest 9
gemachte 9
gemachten 9
roboter 9
ungleich 9
Surfen 9
Fernsehsendungen 9
Igitt 9
äh 9
Extreme 9
labor 9
Klagen 9
Moderator 9
serie 9
Umkreis 9
Dat@@ 9
Pakete 9
Kol@@ 9
zwecke 9
80.000 9
bezeichnete 9
anzuhören 9
tolerant 9
aussenden 9
vorübergehend 9
durchlief 9
wägen 9
seitige 9
gewünschte 9
tü@@ 9
idealerweise 9
ds@@ 9
Intensivstation 9
weit@@ 9
lands 9
orten 9
Akten 9
Orangen 9
Weltkriegs 9
verbrannte 9
Überraschungen 9
Berühr@@ 9
simplen 9
TK 9
Streit@@ 9
ffe 9
griff@@ 9
informierte 9
T.B. 9
Meisten 9
wischen 9
Zentralasien 9
werter 9
chinesischer 9
beziehungen 9
Heirat 9
Pipelines 9
hoffnungs@@ 9
friedlichen 9
beweg@@ 9
Wildbahn 9
zählte 9
kalte 9
Küken 9
Turbo 9
versi@@ 9
Debatten 9
Rezep@@ 9
Adrenalin 9
suggerieren 9
gestossen 9
involvieren 9
meldet 9
rische 9
tests 9
vereinfachte 9
Prozac 9
fliege 9
schni@@ 9
Wespen 9
rten 9
software 9
Genetiker 9
läufe 9
geliebten 9
freiwillige 9
chirurgische 9
rieren 9
Zelltypen 9
linkes 9
bereitzustellen 9
anfälle 9
Interventionen 9
Nervensystems 9
tausend@@ 9
überarbeiten 9
Lichtblitz 9
zuschlagen 9
Kammern 9
Identitäten 9
anregend 9
langweilige 9
verdammte 9
besuch 9
glück@@ 9
sich@@ 9
unterbewusst 9
Hü@@ 9
moment 9
Scheinwerfer 9
mehrfach 9
astronomische 9
40ern 9
ungsmuster 9
saal 9
Korallen@@ 9
Kalkstein 9
Datensätze 9
erzeu@@ 9
Lotto 9
identischen 9
zelebrieren 9
gefiltert 9
hervorzuheben 9
assi@@ 9
Roh@@ 9
Whitney 9
Einsatz@@ 9
Rab@@ 9
entre@@ 9
Konvention 9
Mikrowellen@@ 9
ppchen 9
erfor@@ 9
wan@@ 9
tags@@ 9
mpfen 9
stücken 9
irdischen 9
Hab@@ 9
Get@@ 9
Dauer@@ 9
millionen 9
öse 9
bst 9
Forsch@@ 9
deprimierend 9
ons@@ 9
ator@@ 9
verstorbenen 9
Trenn@@ 9
säubern 9
fehler@@ 9
Gemeinschafts@@ 9
geist 9
introvertiert 9
Extrovertierte 9
geren 9
Jung 9
genheit 9
Überlegenheit 9
Trau@@ 9
Leere 9
Fälschung 9
aufgehoben 9
monatigen 9
pflege 9
Bankkonto 9
beachtlich 9
Verteidigungs@@ 9
top@@ 9
Impf@@ 9
Schriftzeichen 9
Mubarak 9
Endresultat 9
steigerung 9
preisen 9
debattieren 9
Vivian 9
aufhörten 9
lebenswert 9
wolke 9
Kriegs 9
Krieg@@ 9
unweigerlich 9
gefährlichsten 9
Wegwerf 9
hinnehmen 9
elektrisch 9
Zuwachs 9
star@@ 9
Wan@@ 9
Rohre 9
PS 9
änger 9
verdauen 9
bewahr@@ 9
Katastrophen@@ 9
ausbrechen 9
institutionellen 9
Optimist 9
TEDGlobal 9
orisch 9
Aut@@ 9
filmte 9
prallen 9
tzeit 9
garantiere 9
überlebte 9
Nancy 9
Hot 9
Hyun 9
heizen 9
Hyon 9
wohne 9
llten 9
fel@@ 9
Adoption 9
aufräumen 9
Sterns 9
Antike 9
tiefgreifend 9
Sambia 9
Einkommens@@ 9
Meiste 9
bisherigen 9
Icons 9
definierte 9
übereinander 9
spinne 9
Abseilfaden 9
kreu@@ 9
hülle 9
Del@@ 9
Peitsche 9
Neigungen 9
Interessens@@ 9
Blog@@ 9
führern 9
Argumentation 9
acken 9
liert 9
male 9
Tot@@ 9
gestürzt 9
ähen 9
mechanismen 9
vorhersehen 9
generator 9
forder@@ 9
ndes 9
Kunstprojekt 9
ppt 9
Finden 9
Headset 9
unterworfen 9
Zähler 9
andeuten 9
Kommen 9
FedEx 9
Nicholas 9
Rückblick 9
Brennstoffzellen 9
text 9
Magazins 9
empor 9
Schläger 9
einzusammeln 9
strahl 9
Anpassungen 9
restliche 9
herrlich 9
Scheiß 9
übergewichtig 9
üsse 9
Zuneigung 9
Indiana 9
Fachwissen 9
neurologischen 9
Herzschlagfrequenz 9
befragte 9
Mönch 9
offenbaren 9
Fragestellung 9
stärke 9
Diagnostik 9
Polymer 9
ment 9
Instrumenten 9
ware 9
einsetzte 9
ane 9
no 9
Stanley 9
Auslands@@ 9
dienste 9
Neuem 9
ethnischer 9
Straß@@ 9
erlitt 9
Innen 9
signalisieren 9
auslassen 9
Datenmenge 9
vereinbar 9
kat@@ 9
Randi 9
Palme 9
zumindestens 9
brilliante 9
praktizieren 9
88 9
McDonalds 9
Hüten 9
Beutel 9
licheres 9
Rufen 9
orte 9
aufstand 9
wandte 9
trauern 9
Dunkel 9
HAL 9
posi@@ 9
durchsuchen 9
Kämpfer 9
Selbstmordattentäter 9
Neunjährige 9
Blödsinn 9
Bestreben 9
Flächen@@ 9
nutzung 9
gelder 9
zunehmendem 9
angeklagt 9
Deng 9
Differenz 9
befallen 9
ausdruck 9
vergaßen 9
funktionierendes 9
Medical 9
Verkaufs@@ 9
empfin@@ 9
Krümmung 9
Zuständen 9
bekannterweise 9
dd@@ 9
Gate 9
letz@@ 9
nachhal@@ 9
künstlicher 9
kunst@@ 9
Luftwaffe 9
stabilen 9
Ac@@ 9
Sy@@ 9
Blinde 9
tions 9
Bra@@ 9
Nack@@ 9
Designprozess 9
auen 9
zusammenbauen 9
verwoben 9
Gummi 9
kaufe 9
oberfläche 9
Kopftuch 9
wußten 9
Feministin 9
Jugoslawien 9
verdeckt 9
Vorlage 9
enn@@ 9
Färbung 9
hoffte 9
hochentwickelte 9
Amphibien 9
Regenwälder 9
verwundbar 9
ereignete 9
änderungen 9
erwiderte 9
entechnik 9
Bestände 9
Victoria 9
che@@ 9
aufgeht 9
Symbolen 9
Ram 9
Anrufen 9
checken 9
Musikvideo 9
Stör@@ 9
Gamma 9
67 9
bleibende 9
Geräusch@@ 9
erschaffe 9
stuhl 9
Schil@@ 9
versammelt 9
Wingsuit 9
UG 9
Channel 9
unvorstellbare 9
1940 9
Rausch 9
Endergebnis 9
Klischee 9
hauses 9
hereinkommt 9
2100 9
gezeigten 9
Paula 9
Lebensjahr 9
Stoff@@ 9
6000 9
28. 9
Tata 9
kommuni@@ 9
Zigarette 9
Staubsauger 9
konvertiert 9
Solar 9
Sonnenenergie 9
bür@@ 9
Treibstoff@@ 9
Gefälle 9
Fortschritten 9
Kri@@ 9
gehofft 9
Sit@@ 9
Hygiene 9
America 9
gesungen 9
Erstellung 9
Luftqualität 9
korrigiert 9
betragen 9
Röntgenbild 9
Vergan@@ 9
Versuchs@@ 9
Regler 9
ic@@ 9
zumeist 9
ausreicht 9
big 9
Fisches 9
Energiepolitik 9
zahlten 9
ic 9
how 9
egen 9
tig@@ 9
Enkelkinder 9
Nevada 9
ahn@@ 9
Befragung 9
vollbracht 9
Einkaufen 9
lächerliche 9
Copyright 9
dene 9
Exporte 9
3,3 9
seh@@ 9
Grasland 9
Church 9
Wandertauben 9
Ökosystems 9
Bakterien@@ 9
invasive 9
bü@@ 9
Konstruktionen 9
Muffin 9
Rohstoffen 9
Wasseroberfläche 9
widerstandsfähig 9
chips 9
ahmen 9
Lösungs@@ 9
boten 9
unterschätzt 9
Tuch 9
Anreizen 9
gesprengt 9
Privatsektor 9
ungeduldig 9
wa 9
hre 9
Spiegelbild 9
befruchtet 9
Strängen 9
ausweichen 9
Rädern 9
begehren 9
vorzulesen 9
aufzuräumen 9
Genick 9
Einfa@@ 9
Fingerabdruck 9
folgender 9
wal@@ 9
Zeugnis 9
Pfeilspitzen 9
durchsetzen 9
Fassung 9
Elementarteilchen 9
Camp 9
sammlung 9
Scheck 9
widerlich 9
Hauptfach 9
schein 9
2D 9
Beruf@@ 9
Elendsviertel 9
betreuen 9
Beverly 9
light 9
our 9
ins@@ 9
wü@@ 9
aufgehängt 9
Bevölkerungszahl 9
anern 9
Fidschi 9
Flach@@ 9
anrief 9
Operationssaal 9
Lebensgeschichte 9
Alligator 9
vernünftigen 9
nachhaltiges 9
Dürren 9
Kleiderbügel 9
1.300 9
einschätzen 9
beherbergen 9
Punk@@ 9
begeisterte 9
Hunden 9
einzubinden 9
tragbar 9
Grundstücke 9
leidenschaftliche 9
entschuldige 9
abzuwenden 9
revolutionäre 9
fahrer@@ 9
Katalog 9
geschlossene 9
derartige 9
iPhones 9
zurückging 9
schul@@ 9
Packung 9
Justiz@@ 9
Willie 9
CERN 9
tödlicher 9
stisch 9
Einflüssen 9
Verhaltensökonomie 9
belästigt 9
Unternehmertum 9
sapiens 9
Aufruhr 9
Defizit 9
Petrischale 9
Rekorde 9
Ratschläge 9
Dünndarm 9
operationen 9
Stellenwert 9
Sicher@@ 9
Zentralregierung 9
CL 9
zurückgelegt 9
Gewaltlosigkeit 9
hr 9
Block@@ 9
Muster@@ 9
Kleinigkeit 9
same 9
vergesse 9
mysteriös 9
phantas@@ 9
weiterzu@@ 9
bst@@ 9
Rufus 9
Elternschaft 9
gemein@@ 9
multinationalen 9
Brillen 9
Anonymität 9
Manchester 9
Sternen@@ 9
Verwüstung 9
Mission@@ 9
Motion 9
dach 9
ums@@ 9
Rabbis 9
Queen 9
Einheimischen 9
wis@@ 9
riskant 9
Schmutz 9
Bollywood 9
Stern@@ 9
Lava 9
Gesänge 9
Bass 9
jonglieren 9
Hochzeiten 9
Braut 9
Gedächtnis@@ 9
NROs 9
Bücherei 9
Pfanne 9
Raketen@@ 9
Aspen 9
Betreten 9
Lichtern 9
Mast 9
Biennale 9
Bewusstheit 9
Agent 9
Utans 9
passive 9
Brenn@@ 9
Ausdauer 9
Zwangs@@ 9
unternahm 9
DMCA 9
Stimuli 9
äumen 9
Portionen 9
Road 9
Achtsamkeit 9
Trainings@@ 9
M. 9
umgehauen 9
Laramie 9
Krankenversicherung 9
prü@@ 9
Kleiber 9
1.100 9
Dad 9
spülen 9
Angriffs 9
Fischfang 9
Monologe 9
Routine 9
Kriegerin 9
Guatemala 9
Eisberg 9
can 9
goldenen 9
Kerala 9
Technik@@ 9
Sprungfeder 9
Aliens 9
änge 9
überquerte 9
regenerative 9
Viertel@@ 9
Bein@@ 9
Najmuddin 9
Hinweisen 9
schätzung 9
romantischer 9
Maker 9
mehrheitlich 9
Selb@@ 9
Renten@@ 9
gelöscht 9
Bess 9
Cargill 9
Sozialhilfe 9
Duolingo 9
Rezensionen 9
Krabben 9
Arretierung 9
Hüftersatz 9
virus 9
Hirnstamm 9
Yo 9
Tulu 9
Git 9
Verletz@@ 9
Nest@@ 9
Prakash 9
Wasserrechte 9
Budrus 9
ozeanischen 8
PCBs 8
angereichert 8
äure 8
lös@@ 8
Delphin 8
fortpflanzen 8
giftig 8
wiesen 8
überhäuft 8
verstopft 8
Hau@@ 8
schädlichen 8
umschauen 8
Pacific 8
Kaliforniens 8
Zyklen 8
bestens 8
Pferdes 8
Truppe 8
Giraffe 8
Theatre 8
Reiter 8
Deckel 8
kabel 8
Pfer@@ 8
Atmung 8
berühre 8
genau@@ 8
Entstehen 8
unternehmerische 8
vorangetrieben 8
Venture 8
Börsen@@ 8
hoffnungsvoll 8
kapit@@ 8
Führungskräften 8
mystische 8
engsten 8
eingetragen 8
onie 8
Uhrzeit 8
Anthropologe 8
zurücklassen 8
Kindererziehung 8
Teenagern 8
Einzug 8
Anbau@@ 8
ergriffen 8
digung 8
Bus@@ 8
senen 8
erlernt 8
Judy 8
Arbeitsplätzen 8
Allianz 8
gewandert 8
Public 8
lag@@ 8
teuersten 8
schu@@ 8
abler 8
vergraben 8
Verstärkung 8
Vermögens@@ 8
voranzubringen 8
inspirierende 8
Zinsen 8
Müllhalde 8
zul@@ 8
ausfüllen 8
Fließband 8
Computerprogramme 8
empfohlen 8
einleuchtend 8
Annan 8
Kurbel 8
keins 8
Arbeitskräfte 8
Generatoren 8
rad@@ 8
Verizon 8
Absatz@@ 8
min 8
Uruguay 8
26. 8
verlängert 8
pflanze 8
Salat 8
fenster 8
Gur@@ 8
Martha 8
detes 8
anzuschließen 8
Pioniere 8
klick 8
Türe 8
vi@@ 8
Augenbrauen 8
vermischte 8
Part@@ 8
Ah@@ 8
Strömung 8
änder 8
tzt 8
liberalen 8
wär 8
Karriere@@ 8
Versehen 8
Zen 8
gnis 8
Spiegelung 8
benden 8
kräf@@ 8
tiken 8
isolierte 8
[...]
