, 162588
. 144074
the 114538
and 81363
to 67587
of 63090
a 58113
that 51832
I 45286
it 43089
in 42853
you 40877
is 36745
we 36542
&apos;s 32645
this 28515
so 21034
&quot; 19583
they 18193
was 16747
-- 16571
for 15904
have 15103
are 15026
what 14637
on 14502
but 14147
with 13277
can 13115
? 12528
&apos;t 12376
@-@ 12247
there 12234
about 11695
be 10884
at 10547
all 10503
as 10403
do 10136
not 10041
one 9856
&apos;re 9753
my 8870
like 8799
people 8752
if 8696
from 8384
now 8141
he 7859
these 7837
an 7722
just 7647
: 7466
or 7299
very 7285
because 7067
when 6831
our 6824
know 6796
out 6750
going 6670
up 6534
them 6298
by 6296
me 6209
how 6124
here 6119
see 5928
which 5838
think 5817
had 5754
more 5619
really 5559
get 5392
then 5386
your 5371
would 5260
who 5258
&apos;ve 5195
were 5180
their 5000
&apos;m 4955
some 4827
actually 4770
time 4749
don 4575
world 4557
has 4511
us 4483
things 4429
into 4424
way 4271
years 4229
where 4143
go 4107
want 4065
will 4039
other 3934
no 3834
could 3806
said 3784
make 3766
well 3762
been 3700
right 3679
something 3585
two 3480
first 3426
she 3369
little 3333
thing 3307
got 3266
look 3210
those 3207
much 3195
than 3060
also 3029
back 3029
say 2974
over 2836
his 2826
most 2804
kind 2799
work 2734
life 2683
only 2665
take 2662
did 2627
lot 2609
even 2595
need 2581
&apos;ll 2541
many 2537
good 2509
; 2489
down 2411
around 2394
different 2374
new 2316
every 2252
why 2243
come 2212
through 2200
let 2195
doing 2174
put 2152
being 2132
same 2130
use 2103
three 2103
her 2091
year 2029
called 1989
&apos;d 1906
any 1876
made 1867
day 1858
percent 1766
tell 1761
after 1728
great 1699
another 1693
human 1665
talk 1664
fact 1663
find 1658
today 1654
last 1647
didn 1637
went 1608
idea 1599
thought 1584
big 1572
should 1553
change 1542
started 1537
own 1520
before 1520
give 1512
course 1509
off 1502
able 1494
its 1488
important 1462
show 1456
thank 1448
again 1445
problem 1431
never 1428
does 1420
start 1419
story 1396
ago 1393
better 1389
long 1373
bit 1371
next 1370
part 1362
system 1360
brain 1360
might 1350
sort 1346
him 1344
came 1339
mean 1330
each 1328
still 1298
together 1284
old 1266
looking 1260
few 1257
place 1255
used 1248
&apos; 1241
between 1223
done 1216
technology 1205
doesn 1202
water 1201
whole 1198
end 1186
example 1183
too 1182
point 1177
maybe 1175
question 1167
real 1149
million 1135
four 1127
understand 1124
wanted 1113
call 1102
found 1102
try 1100
10 1090
away 1089
children 1087
five 1082
data 1074
trying 1064
love 1064
ever 1052
everything 1052
always 1046
working 1041
person 1040
kids 1026
believe 1007
may 1005
school 1000
took 996
second 996
using 991
feel 988
stuff 984
space 981
! 980
live 974
man 966
women 962
power 954
money 948
getting 940
left 940
design 938
quite 937
thinking 936
create 934
means 927
number 927
high 927
country 918
light 918
information 917
making 915
sense 914
comes 913
small 907
food 906
probably 904
happened 900
enough 899
become 883
play 882
building 879
interesting 878
help 875
dollars 864
future 862
Africa 861
energy 856
half 851
pretty 848
best 847
less 847
coming 842
body 832
talking 832
anything 830
home 827
basically 826
says 814
times 813
without 802
simple 800
side 800
ask 794
goes 789
saw 788
hand 782
20 774
room 774
told 772
imagine 770
am 768
OK 768
science 766
happen 766
happens 765
seen 765
picture 764
countries 760
else 759
such 756
computer 753
across 748
hard 748
build 747
move 745
once 745
bad 737
social 737
makes 735
having 733
moment 731
ideas 727
days 725
later 711
living 711
experience 710
ways 708
six 708
learn 707
yet 707
everybody 701
project 701
asked 697
reason 694
lives 694
Earth 691
book 690
open 690
case 689
far 685
video 684
mind 683
problems 682
child 682
within 682
car 681
looks 677
care 675
single 674
remember 672
inside 669
almost 669
process 669
guy 667
while 666
health 661
planet 661
nothing 659
billion 659
both 658
family 657
music 657
form 654
top 651
wrong 651
history 650
possible 650
saying 645
whether 645
looked 635
true 632
set 631
already 624
okay 624
couple 619
answer 617
piece 616
universe 616
keep 615
sure 613
months 613
language 613
cancer 613
young 612
heard 612
God 611
bring 607
amazing 606
built 605
business 604
read 604
matter 603
often 603
India 603
species 602
turn 598
New 598
community 597
isn 596
under 595
cells 595
line 594
beautiful 594
hope 593
someone 593
until 590
face 588
nature 588
woman 584
self 583
since 583
order 580
somebody 578
group 576
places 576
global 575
control 574
... 573
exactly 573
United 571
head 571
works 571
age 570
sometimes 568
level 565
instead 562
taking 557
30 557
myself 553
must 552
kinds 548
itself 547
words 547
men 547
education 543
turns 542
word 542
minutes 539
public 538
completely 535
research 535
wasn 535
50 534
huge 533
The 532
decided 532
job 532
stories 531
happening 530
gets 530
though 528
States 528
became 528
run 528
art 525
students 524
large 523
mother 521
news 520
game 519
ones 518
yes 518
lots 517
disease 516
stop 514
figure 513
rather 512
model 512
hear 511
heart 509
America 509
animals 508
front 507
ourselves 506
third 506
yeah 504
guys 504
learned 504
particular 503
everyone 502
war 502
least 500
study 500
name 500
early 499
Internet 499
couldn 498
sound 498
government 498
city 496
century 494
100 494
won 492
Oh 491
hours 487
company 485
seven 484
&#91; 484
&#93; 484
knew 483
state 483
along 483
happy 482
share 482
American 482
created 479
oil 479
air 477
area 477
worked 477
against 474
systems 473
questions 473
friends 471
house 471
wonderful 470
natural 469
thousands 468
outside 467
learning 467
finally 467
night 466
China 466
based 464
per 463
gave 462
machine 461
perhaps 460
TED 458
themselves 456
taken 454
cost 449
close 446
moving 445
full 444
whatever 442
scale 442
black 441
free 441
certain 440
environment 440
Well 439
difference 438
ocean 437
past 436
terms 436
society 435
entire 433
turned 431
middle 429
audience 429
seeing 427
view 425
size 425
others 424
beginning 424
easy 424
land 422
during 421
eight 421
needs 421
ability 420
takes 420
15 418
eyes 418
leave 416
cell 416
feet 416
difficult 415
amount 414
population 414
market 413
culture 413
parts 412
York 409
interested 407
cannot 405
behind 404
image 404
given 403
gone 402
hands 400
walk 399
changed 399
deal 398
began 397
yourself 396
longer 393
tried 393
grow 389
needed 386
known 386
local 385
surface 385
incredible 384
low 383
father 382
spend 381
media 380
week 378
complex 377
humans 377
quickly 375
buy 373
parents 373
sitting 370
U.S. 370
step 369
test 369
realized 369
green 366
write 365
paper 365
You 364
behavior 364
common 364
economic 364
fish 363
growth 363
powerful 363
simply 361
either 361
weeks 361
lost 360
girl 359
books 359
red 358
spent 357
structure 356
growing 355
short 355
eat 354
watch 354
shows 353
areas 352
brought 351
value 351
forward 350
economy 348
fly 348
starting 347
bottom 345
felt 345
program 345
CA 345
changes 344
field 344
film 344
DNA 342
feeling 342
reality 342
fun 342
phone 342
animal 342
opportunity 341
scientists 340
wouldn 339
developed 337
absolutely 337
nice 337
cut 336
average 336
literally 336
non 336
rest 335
nobody 334
wrote 334
friend 334
pay 333
force 333
fast 333
running 333
English 333
speak 333
team 332
images 332
anyone 331
blue 331
political 331
death 330
climate 329
white 329
born 328
center 328
playing 327
companies 326
What 326
miles 325
tools 325
ice 325
40 324
discovered 324
poor 324
morning 323
individual 320
knowledge 320
Chinese 320
technologies 318
material 317
ground 317
challenge 316
gives 316
giving 316
die 315
understanding 315
computers 315
anybody 315
incredibly 311
met 311
seems 311
showed 311
blood 311
movement 310
World 310
cool 310
♫ 310
stage 309
talked 309
theory 309
deep 308
shape 308
knows 307
hundreds 307
kid 307
attention 306
relationship 306
developing 306
patients 305
map 304
physical 303
result 302
evolution 301
re@@ 301
recently 301
realize 300
product 299
experiment 299
obviously 298
produce 298
sea 298
patient 297
hour 296
personal 295
available 294
haven 293
color 293
normal 292
guess 292
telling 292
situation 291
support 290
key 290
dark 290
rate 289
pictures 289
numbers 289
involved 289
type 289
begin 288
12 288
stand 288
lived 288
focus 288
allow 286
Europe 286
changing 285
industry 285
hold 285
effect 285
died 285
South 284
becomes 284
putting 284
anyway 284
clear 284
millions 284
happiness 283
seem 281
dead 281
month 281
reasons 281
aren 280
box 280
voice 279
girls 279
certainly 278
access 278
alone 278
source 277
issue 277
games 276
development 275
designed 275
compassion 275
generation 274
writing 274
especially 273
save 273
tiny 272
modern 272
drive 272
cities 272
act 271
class 271
worth 271
meet 271
period 271
explain 270
towards 270
lab 269
major 269
speed 269
creating 269
robot 269
notice 267
risk 267
suddenly 267
eye 267
groups 265
schools 264
perfect 264
soon 264
bigger 263
wants 263
baby 262
nine 262
network 261
teach 261
present 260
device 260
solve 259
solution 259
asking 259
object 258
minute 258
projects 258
carbon 258
software 258
scientific 257
action 257
cars 257
basic 257
examples 256
showing 256
similar 256
evidence 256
term 255
plants 254
beyond 254
digital 254
led 253
develop 253
totally 253
special 253
hundred 253
solar 252
movie 252
resources 252
fear 251
please 251
nuclear 251
starts 250
several 250
student 250
moved 250
impact 250
25 250
table 249
chance 249
pattern 248
skin 247
online 247
positive 247
quality 247
extremely 247
named 247
walking 247
camera 246
wish 245
send 245
sit 245
truth 245
essentially 244
materials 244
follow 244
issues 243
teacher 243
wind 243
street 242
listen 242
everywhere 242
hit 242
approach 242
teachers 242
exciting 242
serious 242
office 241
add 241
sorts 241
measure 240
potential 240
sounds 240
rules 239
ended 239
onto 239
village 239
message 239
stay 238
zero 238
wall 238
interest 237
son 237
likely 237
lose 237
particularly 236
innovation 236
further 235
indeed 235
bunch 234
eventually 234
mass 234
pick 234
thousand 234
African 233
boy 233
Google 233
law 233
gas 233
general 233
HIV 233
mine 232
choice 232
trees 232
fall 232
democracy 232
grew 231
visual 231
screen 231
supposed 231
success 231
medical 231
biggest 230
200 230
East 230
among 230
results 230
higher 229
wife 228
version 228
ready 227
activity 227
door 226
expect 226
Chris 226
allowed 225
somewhere 225
break 225
connected 224
reach 224
impossible 224
favorite 224
goal 223
drug 223
lead 222
road 222
smart 222
objects 222
content 222
site 221
page 221
killed 221
military 220
except 220
faster 220
spread 219
excited 219
tree 218
sun 218
complicated 217
vision 217
forms 217
moral 217
wait 217
stars 217
strong 216
cause 216
late 216
crazy 216
foot 216
brains 216
touch 215
11 215
meaning 215
somehow 214
West 214
revolution 214
security 214
waste 214
larger 214
drugs 214
continue 214
series 213
conditions 213
shown 213
journey 213
upon 212
sent 212
plan 212
response 212
models 212
code 212
extraordinary 211
watching 211
points 211
North 210
reading 210
price 209
fine 209
18 209
pieces 209
taught 209
60 208
crisis 208
un@@ 208
medicine 208
standing 207
electricity 207
main 206
fantastic 206
architecture 206
role 206
decision 206
lower 205
list 205
clearly 205
above 205
sell 205
fire 205
hot 205
studies 204
position 204
fundamental 204
forth 204
A 204
college 204
biology 203
usually 203
largest 203
kept 203
successful 203
products 203
concept 203
context 203
meant 202
written 202
arm 202
national 201
alive 201
individuals 201
genes 200
himself 200
leaders 200
although 200
pull 200
Americans 200
- 200
tool 200
seconds 199
earlier 199
communities 198
legs 198
smaller 198
worse 198
allows 198
robots 198
beings 198
listening 198
traditional 198
in@@ 197
beauty 197
jobs 197
finding 197
doctor 197
80 196
tells 196
We 196
cases 196
buildings 196
dollar 196
patterns 195
uses 195
lines 195
service 195
poverty 195
skills 195
safe 195
anywhere 194
hospital 194
draw 194
slow 192
record 192
actual 192
perspective 192
machines 191
therefore 191
training 190
temperature 190
recognize 190
Mars 190
kill 190
bacteria 189
expensive 189
creative 189
magic 189
song 189
store 188
various 188
plant 188
thanks 188
rich 188
No 188
subject 188
shot 187
performance 187
organization 187
strange 187
famous 187
choose 187
truly 187
unfortunately 186
healthy 186
sex 186
math 185
/ 185
pain 185
dangerous 184
greater 184
production 184
character 184
increase 184
website 184
anymore 184
peace 184
virus 184
neurons 184
specific 183
board 183
provide 182
walked 182
including 182
dream 182
solutions 182
direction 182
treatment 182
policy 182
violence 182
bed 181
immediately 181
TV 181
rise 180
floor 180
invented 180
driving 180
however 180
throughout 180
conflict 180
following 179
none 179
types 178
protect 178
train 178
decisions 178
teaching 178
costs 177
town 177
physics 177
bodies 176
flow 176
remarkable 176
families 176
exist 176
engineering 175
slide 175
mental 175
trust 175
plastic 175
consider 175
sorry 175
wonder 175
weren 174
heat 174
understood 174
older 174
region 174
near 173
square 173
progress 173
ed 172
travel 172
critical 172
range 172
flying 172
obvious 171
dog 171
tend 171
meeting 171
dance 171
genetic 171
aid 171
task 170
connect 170
familiar 170
cultural 170
levels 170
University 170
decade 169
final 169
photograph 169
instance 169
income 169
It 169
oxygen 169
extra 169
useful 169
humanity 168
quick 168
press 168
causes 168
speaking 167
trade 166
becoming 166
Afghanistan 166
raise 166
fuel 166
forget 166
connection 165
decide 165
current 165
Web 165
enormous 164
organisms 164
hole 164
private 164
stick 164
track 164
o 164
below 164
conversation 164
designers 164
trial 164
complexity 163
summer 163
etc 163
mostly 163
bought 163
greatest 163
cold 163
values 163
babies 163
sign 162
active 162
artist 162
ing 162
urban 162
loved 162
practice 162
played 162
effective 162
pressure 162
survive 161
feed 161
environmental 161
City 161
sat 161
diseases 161
path 161
sky 161
rule 161
eating 160
experiments 160
ahead 160
10,000 160
intelligence 160
rights 160
function 160
waiting 160
trouble 160
forces 160
produced 159
evolved 159
original 159
London 159
weight 159
institutions 159
possibly 159
500 159
politics 159
international 159
supply 159
win 159
television 159
doctors 159
How 159
governments 159
War 158
straight 158
capital 158
push 158
mountain 158
financial 158
surgery 158
effects 158
molecules 157
notion 157
sleep 157
Dr. 157
birds 157
boys 157
minds 157
creativity 157
twice 156
mom 156
memory 156
Hey 156
Indian 156
terrible 155
emotional 155
discover 155
slightly 155
dis@@ 155
closer 155
massive 155
freedom 155
web 155
ate 154
drop 154
purpose 154
14 154
easily 154
conference 154
ran 154
degrees 153
planets 153
treat 153
90 153
directly 152
clean 152
yellow 152
fight 152
16 152
paid 152
whose 152
California 151
David 151
National 151
oh 151
text 151
infrastructure 151
Western 151
sustainable 151
carry 150
related 150
central 150
atmosphere 150
glass 150
workers 150
aware 150
capacity 150
bridge 150
hearing 149
John 149
Iraq 149
published 149
search 149
shared 149
scientist 149
corner 148
communication 148
mobile 148
basis 148
radio 148
Middle 148
elements 148
states 148
fully 147
lights 147
complete 147
sharing 147
funny 147
challenges 146
spending 146
total 146
popular 146
fit 146
cover 146
X 146
artists 146
coffee 146
fix 145
fairly 145
post 145
consciousness 145
gotten 144
tremendous 144
de 144
earth 144
networks 144
chemical 143
tail 143
seemed 143
possibility 143
re 143
apart 143
300 143
noticed 143
focused 143
inspired 143
biological 143
imagination 143
stem 143
Asia 143
hair 143
career 142
ated 142
responsibility 142
window 142
knowing 142
services 142
creatures 142
achieve 142
broken 141
willing 141
70 141
helped 141
sand 141
event 140
$ 140
standard 140
recent 140
secret 140
stopped 140
dying 140
religion 140
noise 140
race 139
address 139
molecule 139
mouse 139
bread 139
choices 139
1,000 138
worst 138
devices 138
studying 138
ball 138
forest 138
flu 138
markets 137
2 137
opened 137
return 137
worry 137
definition 137
pass 136
breast 136
24 136
necessarily 136
check 136
landscape 136
farmers 136
genome 136
effort 135
significant 135
Mr. 135
diversity 135
passed 134
distance 134
programs 134
Why 134
flight 134
ants 134
police 134
finger 134
AIDS 134
bringing 133
sold 133
shift 133
respect 133
background 133
dimensional 133
answers 133
missing 133
sick 133
structures 133
gene 133
daughter 132
degree 132
engineers 132
male 132
trained 132
female 131
highly 131
passion 131
differences 131
birth 131
reduce 131
differently 131
negative 131
ancient 131
phenomenon 131
y 130
civilization 130
forever 130
join 130
moments 130
CO2 130
galaxies 130
nearly 129
creates 129
languages 129
nation 129
slowly 129
events 129
caught 129
star 129
industrial 128
Japan 128
ultimately 128
entirely 128
balance 128
communicate 128
unique 128
citizens 128
es 128
rock 128
relationships 128
visit 128
opportunities 128
meat 127
finished 127
apply 127
explore 127
influence 127
mission 127
faces 127
streets 127
This 127
afraid 127
statistics 127
colleagues 127
painting 127
base 126
San 126
electric 126
commercial 126
engine 126
figured 126
grade 126
otherwise 126
insects 126
attack 126
engage 126
feels 125
competition 125
de@@ 125
opposite 125
virtual 125
members 125
boat 124
throw 124
leaving 124
suffering 124
photo 124
helping 124
organizations 124
benefits 124
card 124
condition 124
laws 124
fashion 124
heads 123
benefit 123
lucky 123
dad 123
despite 123
giant 123
loss 123
Sun 123
decades 123
tissue 123
airplane 123
block 122
core 122
turning 122
meters 122
ship 122
British 122
stuck 122
importantly 122
normally 122
holding 122
speech 122
French 122
letter 121
leads 121
billions 121
jump 121
brings 121
hopefully 121
interact 121
Einstein 121
desire 121
necessary 121
edge 121
graph 120
soldiers 120
cheap 120
saving 120
double 120
party 120
religious 120
shoes 120
battery 120
leading 119
improve 119
advantage 119
easier 119
emotions 119
sudden 119
quote 119
moon 119
bird 119
civil 119
report 118
sequence 118
studied 118
article 118
vast 118
agree 118
raised 118
protein 118
societies 118
seat 118
400 117
closed 117
sector 117
net 117
steps 117
mouth 117
engineer 117
pounds 117
lack 117
muscle 117
discovery 116
factory 116
calls 116
weapons 116
catch 116
al 116
B 116
intelligent 116
charge 116
signal 116
brilliant 116
count 116
brother 116
spirit 115
Washington 115
phones 115
2,000 115
matters 115
galaxy 115
pages 115
versus 115
sister 115
harder 115
enjoy 114
theater 114
hell 114
describe 114
wave 114
investment 114
names 114
MIT 114
separate 114
thinks 114
colors 114
represent 114
compared 114
dinosaurs 114
cycle 114
neighborhood 114
shouldn 113
perfectly 113
keeping 113
responsible 113
foreign 113
held 113
Richard 113
lesson 113
designing 113
adults 113
failed 113
efficient 113
era 112
artificial 112
bits 112
moves 112
vehicle 112
deeply 112
managed 112
childhood 112
organic 112
multiple 112
movies 112
plane 112
described 112
ant 112
fighting 112
profound 112
wisdom 112
bone 112
offer 111
metaphor 111
justice 111
capable 111
professional 111
paying 111
property 111
afford 111
layer 111
tens 111
museum 111
ers 111
warming 111
identity 111
blind 111
tough 111
sugar 111
date 110
dreams 110
legal 110
currently 110
spot 110
mathematics 110
labor 110
wild 110
rid 110
hate 110
argument 110
That 110
scene 110
distribution 110
fascinating 110
principles 110
seriously 110
Great 110
cross 110
walls 110
oceans 109
150 109
respond 109
fourth 109
grown 109
predict 109
opening 109
concerned 109
E 109
yesterday 109
mentioned 109
covered 108
classroom 108
1 108
c@@ 108
17 108
experiences 108
helps 108
prevent 108
Times 108
motion 108
weird 108
signals 108
er 108
holes 108
tumor 108
everyday 108
creation 108
letters 108
transform 108
talks 108
circle 108
tomorrow 108
ordinary 108
suppose 107
drawing 107
Facebook 107
grandmother 107
enter 107
bees 107
losing 107
operating 107
unless 107
U.K. 107
economics 107
pleasure 107
wearing 107
Al 107
failure 107
sentence 107
dimensions 107
malaria 107
fat 106
European 106
damage 106
believed 106
designer 106
compare 106
followed 106
random 106
rural 106
king 106
shapes 106
copy 106
dots 106
equivalent 106
according 106
beat 106
park 105
surprise 105
i 105
electrical 105
mile 105
detail 105
dealing 105
pre 105
exists 105
fields 105
chemistry 105
caused 105
teeth 105
13 105
represents 105
over@@ 104
link 104
begins 104
contact 104
demand 104
invited 104
S@@ 104
highest 104
principle 104
majority 104
remote 104
sing 104
dry 104
vote 104
ating 104
dynamic 104
survival 104
arms 104
trials 104
spaces 104
invest 104
20th 103
inner 103
mortality 103
magazine 103
testing 103
universal 103
Bill 103
players 103
leader 103
feelings 103
medium 103
constantly 103
campaign 103
adult 102
brand 102
prison 102
soil 102
launched 102
Anderson 102
account 102
Japanese 102
C@@ 102
evolutionary 102
belief 102
Iran 102
restaurant 102
invisible 102
mothers 101
weather 101
producing 101
leaves 101
strategy 101
dinner 101
sum 101
importance 101
intellectual 101
lunch 101
100,000 101
appear 101
independent 101
argue 101
worried 101
station 101
addition 101
George 101
chair 101
increasingly 101
consequences 101
bear 101
chemicals 100
continent 100
breath 100
driven 100
whom 100
bar 100
email 100
filled 100
typical 100
picked 100
Mexico 100
videos 100
Britain 100
rain 100
evil 100
affect 100
awful 99
sites 99
collective 99
arrived 99
experts 99
co 99
wide 99
arts 99
interaction 99
characters 99
nervous 99
specifically 99
effectively 99
suggest 99
treated 99
honest 99
toward 99
finish 99
equipment 99
exercise 99
clinical 99
sharks 99
proud 98
waves 98
leg 98
emerging 98
ation 98
married 98
roughly 98
president 98
variety 98
flies 98
limited 98
curious 98
Kenya 98
photographs 98
spectrum 98
fell 97
hadn 97
ends 97
hasn 97
newspaper 97
cognitive 97
island 97
equal 97
interface 97
roll 97
super 97
due 97
whereas 97
Israel 97
ts 97
stood 97
Big 97
husband 97
businesses 97
flat 97
England 97
river 97
surprising 97
lie 97
atoms 97
coast 96
expression 96
Francisco 96
liked 96
transformation 96
technical 96
accept 96
note 96
resource 96
hydrogen 96
considered 96
empty 96
trip 96
debate 96
bomb 96
Twitter 96
metal 96
heavy 95
associated 95
A@@ 95
whenever 95
T 95
budget 95
NASA 95
deliver 95
desert 95
ten 95
C 95
fair 95
planning 95
sub 95
valuable 95
steel 95
cooking 95
traffic 95
99 95
player 95
reward 95
killing 95
spoke 95
absolute 95
north 95
selling 94
Paul 94
researchers 94
s 94
fold 94
essential 94
wealth 94
definitely 94
stupid 94
display 94
emotion 94
lady 94
gravity 94
photos 94
paint 94
serve 94
personally 94
fresh 94
smell 93
drink 93
clip 93
cutting 93
situations 93
generate 93
folks 93
plus 93
construction 93
joy 93
platform 93
increasing 93
sources 93
particles 93
extreme 93
con@@ 93
agriculture 93
leadership 93
Nigeria 93
21st 93
chain 92
anti 92
rapidly 92
hidden 92
daily 92
Institute 92
consumption 92
naturally 92
farm 92
university 92
bank 92
kilometers 92
rare 92
details 92
ates 92
radiation 92
cultures 92
collect 92
Charles 92
wear 92
bright 92
convince 92
depression 92
silk 92
penguins 92
identify 91
broke 91
ride 91
direct 91
generations 91
If 91
controlled 91
gap 91
ladies 91
underneath 91
presentation 91
cameras 91
method 91
Life 91
wine 91
mistakes 91
movements 91
infected 91
cards 91
lies 91
crime 91
feedback 91
organs 91
Wow 91
crash 91
polio 91
buying 90
south 90
manage 90
ly 90
trick 90
generally 90
voices 90
gold 90
switch 90
print 90
factor 90
recorded 90
possibilities 90
facing 90
chicken 90
Brazil 90
P@@ 89
thoughts 89
calling 89
round 89
consumer 89
relatively 89
release 89
Harvard 89
mis@@ 89
shop 89
mirror 89
exchange 89
define 89
strength 89
aging 89
fossil 89
election 89
practical 88
requires 88
surprised 88
profit 88
sad 88
express 88
YouTube 88
boxes 88
9 88
faith 88
invention 88
saved 88
wondering 88
match 88
fake 88
dogs 88
processes 88
affected 88
pop 88
vaccine 88
theme 87
molecular 87
fill 87
struggle 87
studio 87
Wikipedia 87
prepared 87
promise 87
avoid 87
accident 87
safety 87
wake 87
satellite 87
5,000 87
hits 87
bottle 87
formed 87
received 87
gain 87
coral 87
credit 87
row 87
perception 87
homes 87
houses 87
emissions 87
ought 87
corruption 87
poetry 87
epidemic 87
viruses 86
protected 86
driver 86
winter 86
horse 86
Michael 86
organized 86
instrument 86
employees 86
3,000 86
laptop 86
Center 86
carefully 86
discussion 86
alternative 86
protection 86
rocket 86
threat 86
connections 86
analysis 86
roof 86
taste 86
blocks 86
worlds 86
T@@ 85
lifetime 85
acting 85
management 85
lessons 85
convinced 85
coal 85
neighbors 85
D 85
unlike 85
advanced 85
shoot 85
volume 85
smile 85
pulled 85
click 85
cortex 85
cloud 85
mountains 85
computing 85
skill 85
prove 85
efficiency 85
35 85
kitchen 85
deeper 85
target 85
b@@ 85
carrying 84
introduce 84
curve 84
graduate 84
processing 84
status 84
bus 84
rates 84
centers 84
liquid 84
applied 84
sunlight 84
attempt 84
tons 84
ray 84
stone 84
gift 84
joke 84
pollen 84
reaction 84
watched 84
reverse 84
Islam 84
previous 84
victims 84
properties 84
politicians 84
operation 83
tradition 83
replace 83
user 83
sending 83
goods 83
worldwide 83
defined 83
motor 83
eggs 83
combination 83
grain 83
opinion 83
creature 83
expected 83
linked 83
disaster 83
behavioral 83
Pakistan 83
lets 82
3 82
Pacific 82
ears 82
fingers 82
visible 82
technological 82
destruction 82
relative 82
correct 82
Chicago 82
Darwin 82
GDP 82
sides 82
gun 82
introduced 82
burning 82
microbes 82
nose 82
maps 82
crowd 82
ring 82
marketing 82
3D 82
behaviors 82
My 82
2000 82
proteins 82
wing 82
President 82
singing 82
ultimate 82
axis 82
ecosystem 81
fellow 81
foundation 81
honor 81
mathematical 81
notes 81
runs 81
sample 81
2008 81
unusual 81
Yes 81
tape 81
democratic 81
psychology 81
p@@ 81
Street 81
master 81
E@@ 81
forced 81
signs 81
James 81
Bush 81
fewer 81
professor 80
hoping 80
d@@ 80
string 80
launch 80
require 80
wire 80
boring 80
added 80
upper 80
traveling 80
organism 80
techniques 80
continued 80
users 80
location 80
style 80
shark 80
interests 80
rooms 80
dropped 80
goals 80
frame 80
occurred 80
monkey 80
lying 80
Arab 80
experienced 79
beach 79
wood 79
performing 79
peak 79
e@@ 79
equation 79
components 79
45 79
environments 79
messages 79
battle 79
comfortable 79
encourage 79
radical 79
primary 79
exploration 79
puts 79
Australia 79
Look 79
explanation 79
swimming 79
required 79
solved 79
architect 79
confidence 79
mystery 79
error 79
fail 79
Muslim 79
director 78
fundamentally 78
sphere 78
U.N. 78
risks 78
split 78
Boston 78
depends 78
ted 78
trillion 78
typically 78
violent 78
climb 78
sensitive 78
tech 78
unclear 78
combine 78
birthday 78
existence 78
fishing 78
regular 77
diet 77
productive 77
participate 77
setting 77
75 77
bones 77
appropriate 77
quarter 77
library 77
flowers 77
21 77
ar@@ 77
garden 77
figures 77
member 77
facts 77
capture 77
meaningful 77
conscious 77
organ 77
Germany 77
hotel 77
hero 77
prices 77
quantum 77
whales 76
Canada 76
quiet 76
Do 76
partner 76
en@@ 76
activities 76
sweet 76
title 76
existing 76
manufacturing 76
nations 76
overall 76
economists 76
camp 76
balloon 76
electronic 76
literature 76
mention 76
lay 76
pair 76
selection 76
released 76
operate 76
outcome 76
measured 76
gang 76
increased 75
prototype 75
solid 75
challenging 75
acts 75
September 75
bike 75
unknown 75
keeps 75
mistake 75
regions 75
length 75
600 75
afternoon 75
musical 75
ous 75
presence 75
als 75
vulnerable 75
co@@ 75
tests 75
marriage 75
entrepreneurs 75
hurt 74
liver 74
features 74
burn 74
authority 74
gentlemen 74
Ah 74
falling 74
flew 74
e 74
paradigm 74
abstract 74
therapy 74
institution 74
framework 74
concepts 74
ancestors 74
decline 74
Korea 74
stronger 74
reached 74
shoulder 74
poem 74
density 74
terrorism 74
deaths 74
Day 74
B@@ 73
falls 73
engaged 73
collaboration 73
School 73
exact 73
Bank 73
funding 73
dancing 73
breathe 73
factors 73
Christmas 73
sophisticated 73
transition 73
remind 73
shaped 73
narrator 73
origami 73
wars 73
remains 73
unit 73
Yeah 73
monkeys 73
ages 73
warm 73
awareness 73
sees 72
automatically 72
hospitals 72
topic 72
Thomas 72
80s 72
horrible 72
cents 72
wondered 72
al@@ 72
occur 72
remove 72
di@@ 72
advice 72
meetings 72
Islamic 72
functions 72
And 72
senses 72
II 72
staff 72
somewhat 72
obsessed 72
magnetic 72
shall 72
element 72
swim 72
tube 72
invent 71
causing 71
dramatic 71
explained 71
grid 71
collapse 71
stream 71
detect 71
distributed 71
scan 71
grand 71
ting 71
evolve 71
Union 71
wireless 71
songs 71
input 71
entertainment 71
blow 71
Project 71
identical 71
provides 71
odd 71
nest 71
19th 71
admit 70
include 70
aspect 70
neither 70
vessels 70
clothes 70
instruments 70
drives 70
records 70
films 70
simplicity 70
relevant 70
relate 70
resolution 70
laboratory 70
mix 70
philosophy 70
puzzle 70
infinite 70
technique 70
Gulf 70
spider 70
floating 69
desk 69
remain 69
wheel 69
controlling 69
stress 69
handle 69
G@@ 69
percentage 69
divided 69
plate 69
thin 69
Uganda 69
church 69
State 69
potentially 69
interactive 69
o@@ 69
afterwards 69
false 69
solving 69
Bang 69
army 69
doubt 69
novel 69
circumstances 69
classes 69
largely 69
zoom 69
innovative 69
feeding 69
telephone 69
translate 69
conventional 69
disorders 69
Steve 69
mid 69
ad 69
olds 69
pollution 68
load 68
internal 68
spring 68
sets 68
button 68
vehicles 68
determine 68
raw 68
incentives 68
trend 68
generated 68
bag 68
pure 68
Bible 68
multi 68
grab 68
extinct 68
Okay 68
finance 68
soft 68
angle 68
architects 68
printing 68
symptoms 68
sexual 68
carried 68
algorithms 68
wherever 68
Sweden 68
whale 67
marine 67
inch 67
subjects 67
stands 67
license 67
measuring 67
insight 67
combined 67
Los 67
dozen 67
root 67
Paris 67
constant 67
applications 67
One 67
soul 67
Robert 67
collected 67
cat 67
secondly 67
accurate 67
tracking 67
spreading 67
careful 67
mate 67
Africans 67
da 67
Muslims 67
links 67
Dan 67
em 67
surgeon 67
spoken 67
chip 67
amounts 66
milk 66
seed 66
shut 66
disappear 66
O@@ 66
Valley 66
educational 66
presented 66
toy 66
scared 66
appears 66
frozen 66
statement 66
achieved 66
classic 66
parallel 66
recording 66
closely 66
interview 66
pig 66
Haiti 66
cow 66
centuries 66
feature 66
2007 66
suggests 66
celebrate 66
partners 66
King 66
reference 66
Obama 66
proof 66
script 66
powered 66
mechanism 65
pile 65
at@@ 65
clock 65
agreed 65
perform 65
lung 65
consumers 65
amp 65
tonight 65
evening 65
19 65
equally 65
im@@ 65
pack 65
implications 65
till 65
windows 65
logic 65
transformed 65
component 65
section 65
papers 65
France 65
enemy 65
Russia 65
AB 65
frequency 65
iPhone 65
20,000 65
advertising 65
Ghana 65
skull 65
adapt 65
increases 65
suit 65
allowing 65
toxic 64
immune 64
cook 64
depending 64
breathing 64
channel 64
hunger 64
nor 64
physically 64
transportation 64
productivity 64
designs 64
appeared 64
clever 64
Latin 64
brief 64
younger 64
bubble 64
exploring 64
Microsoft 64
band 64
Apple 64
grows 64
joined 64
hide 64
2005 64
German 64
paintings 64
extent 64
option 64
attacks 64
circuit 64
a@@ 63
chocolate 63
department 63
an@@ 63
surfaces 63
repair 63
healthcare 63
frankly 63
tested 63
sensors 63
70s 63
faced 63
chart 63
silence 63
seeds 63
disappeared 63
cure 63
laugh 63
hardware 63
claim 63
disorder 63
surely 63
placed 63
empathy 63
ton 63
passionate 63
dinosaur 63
facial 63
tries 63
virtually 63
parent 63
harm 63
mice 63
diagram 62
samples 62
actor 62
laser 62
peer 62
busy 62
granted 62
pushing 62
inspiration 62
toilet 62
commitment 62
destroyed 62
economies 62
vertical 62
R 62
&amp; 62
intense 62
symmetry 62
painful 62
Pole 62
properly 62
destroy 62
golf 62
micro 62
conclusion 62
smallpox 62
orbit 62
backwards 62
calculate 62
nets 62
distant 62
behave 62
stayed 62
microscope 62
assume 62
heroes 62
ours 62
underwater 62
gray 62
appreciate 62
application 62
season 62
neuron 62
emergency 62
seats 62
photography 62
pyramid 61
legacy 61
rising 61
chest 61
former 61
contrast 61
actions 61
maintain 61
savings 61
plenty 61
precisely 61
micro@@ 61
slides 61
shock 61
existed 61
funded 61
50,000 61
expand 61
entered 61
miss 61
But 61
D@@ 61
depend 61
95 61
aside 61
inter@@ 61
severe 61
artistic 61
rescue 61
architectural 61
standards 61
options 61
exposed 61
curiosity 61
dignity 61
smoke 61
signed 61
piano 61
plans 61
sculpture 61
Museum 61
mechanical 61
60s 61
lovely 60
tragedy 60
Tom 60
prize 60
i@@ 60
worker 60
rational 60
removed 60
anger 60
recovery 60
poorest 60
touched 60
mess 60
copyright 60
zone 60
expert 60
aircraft 60
Island 60
grass 60
conservation 60
recognition 60
danger 60
educated 60
judge 60
interestingly 60
dramatically 60
furniture 60
facility 60
wired 60
wanting 60
divide 60
writers 60
probability 60
iron 60
enable 60
involves 60
parking 60
suicide 60
dense 60
passing 59
ideal 59
tall 59
height 59
lighting 59
charity 59
represented 59
aspects 59
ch@@ 59
produces 59
providing 59
precise 59
Ethiopia 59
interacting 59
estimate 59
Congress 59
muscles 59
layers 59
dimension 59
ignore 59
offered 59
dioxide 59
fed 59
Revolution 59
connecting 59
truck 59
flower 59
symbol 59
sheep 59
mark 59
football 59
latest 59
W@@ 59
glamorous 59
ma@@ 59
herself 59
chosen 59
narrative 59
personality 59
spiritual 59
7 59
thrown 59
host 59
&apos;@@ 59
brothers 59
22 59
housing 59
surrounded 59
ha 59
borders 59
Hi 59
hall 59
speakers 59
dynamics 59
illegal 58
breaking 58
resistance 58
fixed 58
northern 58
fifth 58
limits 58
shirt 58
rely 58
scary 58
ist 58
drinking 58
pre@@ 58
rocks 58
laid 58
drawn 58
directions 58
orange 58
hang 58
apparently 58
January 58
Second 58
traveled 58
animation 58
snow 58
organize 58
pen 58
sheet 58
bet 58
li@@ 58
So 58
yours 58
June 58
dirty 58
engagement 58
photographed 57
ra@@ 57
globe 57
prefer 57
ear 57
imagined 57
fund 57
teenagers 57
fortunately 57
provided 57
obesity 57
Rwanda 57
upset 57
tone 57
sensory 57
reflect 57
Egypt 57
Foundation 57
wise 57
per@@ 57
House 57
2004 57
dress 57
contribute 57
gender 57
repeat 57
pilot 57
Alzheimer 57
recognized 57
initial 57
output 57
session 57
oldest 57
colleague 57
dependent 57
27 57
lens 57
governance 57
lift 57
Oxford 57
ain 56
pocket 56
includes 56
underground 56
neighbor 56
sticks 56
angry 56
actors 56
tired 56
roads 56
Stanford 56
robotic 56
academic 56
dedicated 56
out@@ 56
embedded 56
RB 56
ness 56
blog 56
concern 56
crying 56
phase 56
collection 56
biologists 56
crossing 56
diverse 56
Don 56
treating 56
attached 56
cry 56
cats 56
depressed 56
overcome 56
pigs 56
exhibition 56
chose 56
cable 56
ingredients 56
variation 56
comfort 56
tea 56
welcome 56
KB 56
west 55
populations 55
g@@ 55
Angeles 55
stable 55
outcomes 55
cute 55
predictions 55
soldier 55
Hollywood 55
ugly 55
survey 55
N@@ 55
drill 55
sight 55
ally 55
greenhouse 55
opens 55
White 55
pulling 55
2009 55
mixed 55
escape 55
sustainability 55
integrated 55
happier 55
hello 55
makers 55
heaven 55
contains 55
villages 55
east 55
score 55
depth 55
regret 55
clinic 55
tribes 55
glamour 55
document 54
motivation 54
monitor 54
harvest 54
inspiring 54
instructions 54
patent 54
loop 54
Let 54
raising 54
K@@ 54
Northern 54
tank 54
thick 54
dot 54
ac@@ 54
habitat 54
salt 54
colony 54
hardly 54
6 54
October 54
briefly 54
x 54
accessible 54
musicians 54
bars 54
psychological 54
mainly 54
There 54
volunteers 54
earthquake 54
reaching 54
filter 54
teams 54
demonstrate 54
I@@ 54
conclude 54
be@@ 54
consume 54
beliefs 54
graphic 54
sales 54
mosquito 54
weak 54
graphics 54
pump 53
spots 53
fabulous 53
bicycle 53
controls 53
flip 53
usual 53
fiction 53
writer 53
General 53
spin 53
ans 53
engaging 53
jail 53
Bronx 53
agricultural 53
embrace 53
hire 53
walks 53
unbelievable 53
boom 53
cave 53
F@@ 53
dive 53
meal 53
permanent 53
is@@ 53
concrete 53
He 53
reported 53
rats 53
fiber 53
positions 53
inspire 53
functional 53
golden 53
ties 53
emerge 53
insurance 53
adding 53
memories 53
ending 53
pandemic 53
plug 53
collecting 53
gotta 53
photographer 53
shooting 53
resilience 53
improvement 53
elections 53
origin 53
fan 53
tasks 53
oxytocin 53
fabric 52
loud 52
shake 52
opposed 52
M@@ 52
hanging 52
2003 52
H@@ 52
fruit 52
served 52
hearts 52
250 52
underlying 52
hey 52
defense 52
limit 52
landed 52
meter 52
electronics 52
struck 52
units 52
Science 52
30,000 52
unexpected 52
consequence 52
industries 52
shrimp 52
apple 52
Red 52
brown 52
ridiculous 52
um 52
continues 52
separated 52
pushed 52
90s 52
stroke 52
realm 52
dig 52
forgotten 52
universities 52
nowhere 52
locked 52
hungry 52
biodiversity 52
figuring 52
2010 52
cartoon 52
fortune 52
physicist 52
sauce 52
focusing 52
optimistic 52
reduction 52
smooth 52
revenue 52
contain 52
policies 52
4 52
characteristics 52
Howard 52
lethal 52
Texas 51
tic 51
plot 51
likes 51
ists 51
elsewhere 51
grandfather 51
Italy 51
corporate 51
fascinated 51
ded 51
genius 51
dish 51
65 51
Eastern 51
extract 51
queen 51
fuels 51
reef 51
International 51
portion 51
interactions 51
poster 51
roots 51
zing 51
climbing 51
excellent 51
translation 51
suffer 51
Manhattan 51
lecture 51
edges 51
analyze 51
vital 51
reports 51
illness 51
insect 51
pregnant 51
breaks 51
Nobel 51
forests 51
encounter 51
pitch 51
corn 51
minister 51
journalist 51
tears 51
clients 51
courage 51
symbols 51
synthetic 51
boundaries 51
detection 51
reduced 50
ic 50
constructed 50
Cambridge 50
leverage 50
intuitive 50
capability 50
conversations 50
domestic 50
hip 50
owned 50
phrase 50
diabetes 50
2006 50
observation 50
suspect 50
26 50
robust 50
Department 50
domain 50
forming 50
23 50
silent 50
transfer 50
threw 50
entering 50
stores 50
Park 50
stages 50
informed 50
simulation 50
crack 50
review 50
blame 50
regime 50
genetics 50
inches 50
transparent 50
32 50
strategies 50
predicted 50
external 50
rebuild 50
reform 50
Atlantic 50
Nations 50
court 50
illusion 50
scales 50
pe@@ 50
historical 50
tour 50
author 50
paralyzed 50
experimental 50
cup 50
tag 50
dopamine 50
memes 50
males 49
Arctic 49
pro@@ 49
V@@ 49
god 49
owner 49
tax 49
farmer 49
assembly 49
communications 49
description 49
invite 49
successfully 49
nerves 49
rarely 49
telescope 49
sandwich 49
2001 49
determined 49
pound 49
privilege 49
Gore 49
Is 49
cast 49
luckily 49
nurses 49
mathematicians 49
methods 49
discoveries 49
or@@ 49
discuss 49
Prize 49
plays 49
neuroscience 49
vacuum 49
cheaper 49
drove 49
killer 49
contemporary 49
contract 49
explaining 49
Shanghai 49
limb 49
protecting 49
neural 49
shit 49
ations 49
methane 49
genocide 49
buried 49
b 49
confident 49
bears 49
barely 48
est 48
algae 48
efforts 48
cycles 48
8 48
perceive 48
clay 48
organizing 48
visited 48
accepted 48
Jim 48
permission 48
silly 48
favor 48
hemisphere 48
shelf 48
gather 48
hitting 48
audio 48
prime 48
1990s 48
stations 48
failing 48
mail 48
tip 48
secure 48
finds 48
awesome 48
alien 48
wings 48
succeed 48
bombs 48
transmission 48
chapter 48
Jack 48
2@@ 48
counter 48
k 48
official 48
uncertainty 48
advance 48
colored 48
phantom 48
southern 48
transparency 48
Wall 48
Taliban 48
delivered 48
spectacular 48
elephant 48
promote 48
entropy 48
Feynman 48
pointed 47
sleeping 47
ator 47
fastest 47
pace 47
identified 47
emerged 47
immediate 47
thirds 47
bee 47
storm 47
bizarre 47
winning 47
crops 47
tent 47
circles 47
computation 47
as@@ 47
picking 47
difficulty 47
Antarctica 47
altitude 47
clothing 47
flows 47
bo@@ 47
Central 47
Dutch 47
occasionally 47
f@@ 47
fragile 47
accidents 47
tied 47
speaker 47
primitive 47
car@@ 47
pink 47
originally 47
searching 47
ters 47
twenty 47
pool 47
conflicts 47
dear 47
qualities 47
restaurants 47
Frank 47
suggesting 47
Soviet 47
dies 47
Man 47
polar 47
Ben 47
shell 47
naked 47
700 47
uncle 47
slavery 47
Jewish 47
replicate 47
deception 47
traditions 47
adopted 47
4,000 47
airplanes 47
tumors 47
linear 47
tap 47
resistant 47
transplant 47
tie 47
PM 47
SW 47
ab@@ 46
ecosystems 46
gradually 46
hunting 46
flexible 46
astonishing 46
subtle 46
t 46
staying 46
ds 46
terribly 46
operations 46
senior 46
innovations 46
programming 46
toys 46
command 46
inevitable 46
mo@@ 46
react 46
rays 46
printer 46
proper 46
n 46
extinction 46
holds 46
op@@ 46
cheese 46
ethical 46
glad 46
Long 46
simultaneously 46
imagery 46
Sea 46
exponential 46
bubbles 46
Smith 46
partly 46
missed 46
globally 46
sisters 46
explosion 46
wash 46
tracks 46
narrow 46
sports 46
beer 46
tendency 46
threshold 46
gut 46
ads 46
widely 46
romantic 46
dialogue 46
besides 46
Mom 46
needle 46
injury 46
nerve 46
initially 46
ine 46
puzzles 46
vagina 46
chaos 46
daughters 46
unlikely 46
tribe 46
dictionary 46
Bay 45
Health 45
begun 45
k@@ 45
assumptions 45
talent 45
captured 45
tends 45
whatsoever 45
gentleman 45
hired 45
impacts 45
stability 45
shifting 45
footprint 45
remembered 45
mode 45
extended 45
trajectory 45
customers 45
guide 45
nuts 45
sits 45
Russian 45
sixth 45
banks 45
dough 45
seek 45
February 45
excuse 45
Homo 45
worms 45
stops 45
subway 45
terror 45
curriculum 45
Arabic 45
weapon 45
Turkey 45
magical 45
stock 45
array 45
expanding 45
guns 45
ownership 45
representation 45
shame 45
geometry 45
foods 45
tion 45
powers 45
sharp 45
ooh 45
bottles 45
JH 45
receive 45
maker 45
seeking 45
founded 45
globalization 45
jumped 45
reefs 45
ex@@ 45
garbage 45
opera 45
p 45
passenger 45
pretend 45
engines 45
tiles 45
unhappy 44
Minister 44
All 44
poet 44
Amazon 44
drivers 44
algorithm 44
shopping 44
outer 44
panels 44
announced 44
engineered 44
expansion 44
trucks 44
fits 44
struggling 44
recover 44
dung 44
gathering 44
r@@ 44
phenomena 44
tions 44
Jesus 44
freely 44
myth 44
serving 44
homework 44
column 44
ceiling 44
cooperation 44
tsunami 44
essence 44
CEO 44
rice 44
border 44
continuous 44
friendly 44
When 44
adventure 44
Ocean 44
loves 44
odds 44
fluid 44
rolling 44
dominant 44
Saharan 44
Moore 44
morality 44
comparison 44
capita 44
openness 44
purposes 44
damn 44
vessel 44
database 44
client 44
cricket 44
genetically 43
publish 43
generating 43
fraction 43
debt 43
capabilities 43
chief 43
surprisingly 43
intuition 43
120 43
apartment 43
suggested 43
rapid 43
800 43
ment 43
bucks 43
bill 43
theories 43
arrive 43
assemble 43
toes 43
proposed 43
gonna 43
sentences 43
mammals 43
stones 43
participants 43
diving 43
painted 43
kills 43
proportion 43
ding 43
ink 43
elected 43
mad 43
broad 43
measures 43
gods 43
cake 43
lowest 43
ings 43
amongst 43
sacred 43
similarly 43
luck 43
miracle 43
Congo 43
targets 43
performed 43
strike 43
winds 43
letting 43
wandering 43
ill 43
u 43
ze 43
supported 43
closing 43
Islands 43
wires 43
ter 43
Mt 43
bulb 43
comics 43
conducted 43
fusion 43
wider 43
cancers 43
upside 43
analogy 43
s@@ 43
translated 43
warning 43
scores 43
cotton 43
Koran 43
canopy 43
LG 43
jihad 43
darkness 42
neck 42
capitalism 42
trends 42
autonomous 42
headed 42
1960 42
breakfast 42
endangered 42
facilities 42
affects 42
impression 42
package 42
stepped 42
R@@ 42
troops 42
bored 42
parties 42
richer 42
federal 42
views 42
helium 42
publishing 42
logo 42
m@@ 42
colonies 42
clouds 42
December 42
static 42
egg 42
transport 42
religions 42
explains 42
committed 42
ar 42
dust 42
minus 42
located 42
enabled 42
articles 42
detailed 42
orchestra 42
improving 42
answered 42
demographic 42
attitude 42
reveal 42
tower 42
scenes 42
balls 42
MRI 42
compete 42
agent 42
bi@@ 42
mysterious 42
extend 42
hypothesis 42
Act 42
SS 42
Spanish 42
50s 42
ks 42
voting 42
agenda 42
reminded 42
completed 42
circuits 42
Coke 42
Santa 42
Stage 42
club 42
classical 42
nutrients 41
mesh 41
assumption 41
electrodes 41
for@@ 41
agency 41
firm 41
Y 41
flash 41
labs 41
scenario 41
Research 41
y@@ 41
tricks 41
cosmic 41
le@@ 41
interior 41
200,000 41
acid 41
planetary 41
Florida 41
convert 41
earn 41
2002 41
footage 41
affordable 41
Watson 41
sciences 41
curves 41
calculations 41
digit 41
humor 41
adapted 41
expertise 41
NGOs 41
restore 41
youth 41
throwing 41
bin 41
fortunate 41
appearance 41
suck 41
rough 41
planes 41
formula 41
Bob 41
Delhi 41
obstacles 41
devil 41
camps 41
surgeons 41
included 41
unable 41
bend 41
documents 41
burned 41
realizing 41
Greek 41
ticket 41
merely 41
c 40
AK 40
Gates 40
entrepreneur 40
category 40
wealthy 40
donor 40
attract 40
mapping 40
abuse 40
cash 40
covering 40
suspended 40
laptops 40
uncomfortable 40
Alexander 40
ty 40
physicists 40
lake 40
du@@ 40
expedition 40
professionals 40
counting 40
lifestyle 40
antibiotics 40
microbial 40
returned 40
3@@ 40
imaging 40
clue 40
ubiquitous 40
cows 40
syndrome 40
forgot 40
occurs 40
nurse 40
comedy 40
bags 40
innocent 40
intensity 40
responses 40
eaten 40
achievement 40
autism 40
impressive 40
smoking 40
Martin 40
demonstration 40
crucial 40
prevention 40
marketplace 40
pointing 40
magnitude 40
Adam 40
caring 40
Vietnam 40
Afghan 40
burden 40
System 40
lo@@ 40
5 40
Force 40
washing 40
Art 40
shelter 40
stretch 40
Johnson 40
storytelling 40
established 40
chips 40
minimum 40
installation 40
predictable 40
O 40
smarter 40
28 40
unprecedented 40
er@@ 40
Spain 40
chairs 40
mainstream 40
kindness 40
suffered 40
drawings 40
highway 40
continents 40
ously 40
distances 40
mechanisms 40
educate 40
glasses 40
shine 40
disgust 40
concentration 39
connects 39
rhythm 39
historic 39
categories 39
channels 39
conservative 39
honey 39
L.A. 39
replaced 39
Who 39
fought 39
der 39
masses 39
sport 39
quest 39
Chile 39
ships 39
elite 39
download 39
versions 39
Bell 39
wheat 39
grandchildren 39
shocked 39
interpretation 39
passive 39
deaf 39
formation 39
ism 39
prisoners 39
compassionate 39
limitations 39
gaps 39
physician 39
terrain 39
accounts 39
ge@@ 39
1970s 39
file 39
despair 39
Peter 39
primarily 39
abilities 39
Law 39
Green 39
armed 39
May 39
comic 39
absence 39
expectations 39
dressed 39
Tanzania 39
vaccines 39
reliable 39
newspapers 39
Ford 39
airport 39
woke 39
participation 39
affecting 39
diameter 39
Now 39
Star 39
Mother 39
prostate 39
S 39
In 39
attractive 39
tubes 39
exception 39
remained 39
seas 39
crows 39
cylinder 39
Redwood 39
correctly 38
shots 38
beneath 38
aesthetic 38
skeletal 38
investing 38
foundations 38
L@@ 38
pause 38
factories 38
communicating 38
recycling 38
invested 38
ching 38
Tony 38
Lab 38
viral 38
cleaning 38
ah 38
supporting 38
economist 38
badly 38
dilemma 38
sensation 38
l@@ 38
cap 38
deserve 38
peoples 38
grasp 38
neat 38
Sunday 38
propose 38
branch 38
decrease 38
Ph.D. 38
cor@@ 38
atomic 38
Space 38
Moon 38
beautifully 38
gases 38
errors 38
witness 38
meanwhile 38
par@@ 38
meme 38
ma 38
smallest 38
shadow 38
prediction 38
branches 38
significantly 38
mood 38
classrooms 38
ratio 38
jellyfish 38
prepare 38
influenced 38
ecology 38
j@@ 38
ethnic 38
miserable 38
mon@@ 38
penguin 38
sensor 38
soup 38
Sir 38
locally 38
cu@@ 38
psychologists 38
Qaeda 38
Christian 38
someday 38
improved 38
trash 38
Italian 38
overhead 38
helicopter 38
approaching 38
traits 38
expectancy 38
compelling 38
treatments 38
bacterial 38
Are 38
Abraham 38
Indus 38
Carolina 37
predator 37
initiative 37
infection 37
no@@ 37
ho@@ 37
ent 37
spinning 37
instant 37
administration 37
River 37
flowing 37
institutional 37
April 37
banking 37
18@@ 37
sale 37
estimates 37
thus 37
consistent 37
customer 37
es@@ 37
folding 37
signature 37
catching 37
scanning 37
gear 37
storage 37
40,000 37
profoundly 37
lungs 37
covers 37
ecological 37
terrifying 37
fires 37
continuing 37
coat 37
batteries 37
Thank 37
Square 37
rush 37
comment 37
biologist 37
urge 37
collapsed 37
zed 37
BG 37
confused 37
blowing 37
courses 37
ongoing 37
1990 37
boss 37
on@@ 37
humanitarian 37
audiences 37
belong 37
recipe 37
manual 37
silver 37
Leonardo 37
discovering 37
refer 37
Air 37
variations 37
wrap 37
Hall 37
reminds 37
wildlife 37
K 37
perceived 37
shortly 37
lawyer 37
bound 37
describes 37
diarrhea 37
strands 37
kick 37
foie 37
gras 37
palm 37
portrait 37
tune 37
rubber 37
angiogenesis 37
kidney 37
judgment 37
collaborative 37
plastics 37
disability 37
poison 37
tension 37
knee 37
gate 37
Lincoln 37
Geographic 37
Abed 37
dolphins 36
Monterey 36
experiencing 36
manipulate 36
approved 36
philanthropy 36
pairs 36
generous 36
challenged 36
venture 36
lap 36
Can 36
offices 36
neighborhoods 36
evolving 36
bug 36
nonprofit 36
computational 36
breakthrough 36
pie 36
liberal 36
reasonable 36
reactions 36
ensure 36
supplies 36
pursue 36
1980s 36
summit 36
Indians 36
printed 36
voted 36
ology 36
72 36
chances 36
tragic 36
ling 36
livestock 36
substance 36
stored 36
annual 36
contrary 36
spill 36
earliest 36
cartoons 36
activated 36
squid 36
civilizations 36
glue 36
blogs 36
app 36
tables 36
JA 36
namely 36
procedure 36
frequently 36
headlines 36
vegetables 36
tongue 36
islands 36
ass 36
flag 36
pills 36
waters 36
relations 36
locations 36
qu@@ 36
listened 36
fever 36
electrons 36
In@@ 36
grateful 36
comparing 36
sustain 36
downtown 36
sequences 36
sheets 36
believing 36
visualization 36
TEDTalk 36
shoe 36
breeding 36
Brian 36
grandparents 36
jazz 36
deployed 36
dumb 36
Mike 36
clubs 36
Shakespeare 36
College 36
Norden 36
predators 35
females 35
reproduce 35
gathered 35
ha@@ 35
gh@@ 35
Silicon 35
lists 35
offering 35
blank 35
expecting 35
halfway 35
handed 35
drops 35
hill 35
phenomenal 35
&apos;clock 35
arguments 35
isolated 35
ms 35
60,000 35
healthier 35
Virginia 35
surrounding 35
diagnosed 35
demands 35
failures 35
camel 35
G 35
V 35
cliff 35
instantly 35
exposure 35
delicious 35
aged 35
landing 35
parachute 35
garage 35
favorites 35
mycelium 35
blown 35
guarantee 35
prior 35
straightforward 35
bio@@ 35
transforming 35
leaf 35
Coast 35
lit 35
St. 35
preparing 35
anxiety 35
extension 35
insights 35
proposition 35
arguing 35
accomplished 35
equations 35
realistic 35
hardest 35
pride 35
historically 35
Swiss 35
ni@@ 35
utterly 35
switched 35
em@@ 35
installed 35
inevitably 35
barrier 35
remaining 35
logical 35
discipline 35
prisoner 35
1960s 35
El 35
bridges 35
ignored 35
assignment 35
stays 35
selected 35
musician 35
profits 35
se 35
Ireland 35
en 35
plain 35
350 35
emergence 35
builds 35
laughing 35
overwhelmed 35
nowadays 35
Andrew 35
Greenland 35
philosopher 35
cheat 35
U@@ 35
route 35
frustrated 35
interviewed 35
practices 35
corals 35
gesture 35
bedroom 35
binary 35
85 35
structural 35
Bangladesh 35
receptor 35
expressions 35
precious 35
journalists 35
pursuit 35
blah 35
roofs 35
Everest 35
eyed 35
TEDTalks 35
preserve 34
dolphin 34
infections 34
horses 34
wedding 34
amazingly 34
collectively 34
approaches 34
ve 34
rituals 34
Southern 34
realization 34
dirt 34
ad@@ 34
Clinton 34
sometime 34
Lego 34
mechanics 34
previously 34
hostile 34
Steven 34
55 34
compromise 34
trigger 34
particle 34
detector 34
Zealand 34
steal 34
items 34
landscapes 34
electron 34
strings 34
1950s 34
ri@@ 34
biomass 34
native 34
fancy 34
useless 34
quit 34
speaks 34
machinery 34
maximum 34
hat 34
networking 34
tackle 34
el 34
amazed 34
succeeded 34
Mark 34
h@@ 34
harmony 34
partnership 34
empowered 34
n@@ 34
district 34
mentor 34
insane 34
attacked 34
candidate 34
sake 34
cooperative 34
competitive 34
objective 34
beating 34
survived 34
multiply 34
Berlin 34
item 34
ary 34
Saturn 34
wishes 34
internet 34
commodity 34
valley 34
Alex 34
yourselves 34
nitrogen 34
texture 34
coverage 34
Nigerian 34
l 34
trading 34
scans 34
sons 34
teaches 34
safer 34
am@@ 34
dominated 34
Larry 34
neutral 34
concentrated 34
drag 34
cart 34
mutation 34
selfish 34
regardless 34
enemies 34
lawyers 34
hook 34
spreads 34
ap@@ 34
temple 34
hormone 34
universes 34
interviews 34
measurements 34
motors 34
nano 34
h 34
pi@@ 34
intervention 34
spinal 34
pad 34
Beijing 34
Church 34
fallen 34
seal 34
Joshua 34
Cyrus 34
lock 33
volunteer 33
a.m. 33
cables 33
citizen 33
commit 33
corners 33
oven 33
distinct 33
seemingly 33
mines 33
platforms 33
technically 33
mixing 33
IBM 33
closest 33
ons 33
t@@ 33
currency 33
relief 33
millimeter 33
telescopes 33
readers 33
scanner 33
concert 33
mushrooms 33
approximately 33
territory 33
asteroid 33
H 33
48 33
it@@ 33
ets 33
witnessed 33
chamber 33
ne@@ 33
crop 33
yard 33
drew 33
dropping 33
simpler 33
tolerance 33
coin 33
consciously 33
drum 33
tunnel 33
ders 33
Newton 33
optical 33
radically 33
lifted 33
researcher 33
narratives 33
trains 33
huh 33
workplace 33
encouraging 33
donors 33
cope 33
rotate 33
supermarket 33
chef 33
fibers 33
secrets 33
Y@@ 33
37 33
revealed 33
strongly 33
Benjamin 33
panel 33
magician 33
duck 33
stack 33
frontal 33
cream 33
shy 33
trivial 33
programmers 33
incentive 33
mall 33
SETI 33
posted 33
farming 33
cheating 33
excitement 33
USA 33
worthy 33
beaten 33
folded 33
horizon 33
ir@@ 33
adjust 33
vulnerability 33
constraints 33
Aristotle 33
profile 33
deals 33
additional 33
reactor 33
surgeries 33
Ray 33
yo 33
frightening 32
hometown 32
can@@ 32
17th 32
bar@@ 32
carries 32
ti@@ 32
intimacy 32
Mar@@ 32
entry 32
bias 32
demonstrated 32
mining 32
competing 32
doors 32
recession 32
civic 32
farms 32
sends 32
concerns 32
orders 32
nevertheless 32
ups 32
crap 32
resolve 32
projection 32
remarkably 32
coordination 32
reflection 32
folds 32
maintenance 32
motivated 32
staring 32
magnificent 32
managers 32
transmitted 32
cattle 32
ec@@ 32
dawn 32
Re@@ 32
enjoying 32
Iranian 32
calculus 32
visions 32
ors 32
literacy 32
verbal 32
March 32
observe 32
rewards 32
rent 32
contributed 32
uh 32
clinics 32
ish 32
wow 32
rings 32
Parkinson 32
progression 32
household 32
carpet 32
picks 32
plates 32
os@@ 32
spiders 32
alright 32
Blue 32
worrying 32
theoretical 32
sizes 32
navigate 32
inventor 32
sink 32
ritual 32
flavor 32
chimpanzees 32
monitoring 32
M 32
exploit 32
simplest 32
nearby 32
guilty 32
loving 32
journal 32
Con@@ 32
vice 32
investments 32
threatened 32
boats 32
connectivity 32
shining 32
gross 32
spaghetti 32
claims 32
broccoli 32
leap 32
criminal 32
agreement 32
comp@@ 32
Dad 32
Henry 32
icon 32
enables 32
FDA 32
simulate 32
raped 32
Netherlands 32
hierarchy 32
deck 32
Iceland 32
approached 32
defining 32
caps 32
mutations 32
cocaine 32
rope 32
Gandhi 32
lottery 32
adoption 32
sulfide 32
33 32
compute 32
authentic 32
cellular 32
bills 32
calories 32
symmetries 32
themes 31
labeled 31
tin 31
BJ 31
ys 31
pulls 31
threats 31
safely 31
aim 31
Army 31
reducing 31
yield 31
vegetable 31
contributing 31
enjoyed 31
August 31
et 31
retirement 31
profession 31
18th 31
Eric 31
bang 31
disk 31
occurring 31
mushroom 31
gram 31
encouraged 31
consumed 31
pan 31
spray 31
boundary 31
install 31
formal 31
apples 31
1950 31
unfortunate 31
dial 31
ves 31
Grand 31
GPS 31
consent 31
behalf 31
Christians 31
damaged 31
Academy 31
origins 31
boards 31
calm 31
peers 31
mimic 31
elementary 31
mathematician 31
marks 31
4@@ 31
wound 31
dare 31
marry 31
peaceful 31
contribution 31
ality 31
asks 31
transmit 31
therapies 31
bother 31
regard 31
6,000 31
sub@@ 31
elegant 31
Copenhagen 31
fate 31
thumb 31
transformative 31
el@@ 31
robotics 31
skeleton 31
dozens 31
via 31
fifty 31
arrested 31
matched 31
fication 31
decent 31
philosophical 31
estate 31
automobile 31
independence 31
systematically 31
connectome 31
Jeff 31
cube 31
determines 31
translator 31
shed 31
smiling 31
authorities 31
ordered 31
gallery 31
striking 31
silicon 31
Milo 31
Age 31
July 31
pockets 31
le 31
lions 31
prevalence 31
scratch 31
metabolism 31
officer 31
Laden 31
yeast 31
craft 31
cuts 31
congestion 31
vitamin 31
heating 31
Neanderthals 31
portraits 31
Phoenix 31
WK 31
om@@ 30
seals 30
cholera 30
ci@@ 30
Joe 30
mayor 30
sensing 30
ol@@ 30
hopeful 30
confront 30
legislation 30
crew 30
applying 30
concentrate 30
destroying 30
loan 30
vary 30
pencil 30
integration 30
keyboard 30
proposal 30
caves 30
attitudes 30
wheels 30
packed 30
follows 30
Seattle 30
wooden 30
Library 30
van 30
belongs 30
he@@ 30
meals 30
nodes 30
acids 30
m 30
proved 30
Friday 30
alarm 30
Please 30
continuously 30
peculiar 30
documented 30
frequencies 30
Here 30
reflected 30
helpful 30
calculating 30
codes 30
choosing 30
believes 30
knife 30
recommend 30
hallucinations 30
visually 30
visiting 30
teenage 30
acknowledge 30
go@@ 30
sexy 30
patents 30
teenager 30
luxury 30
touching 30
Disney 30
households 30
injuries 30
interventions 30
12,000 30
pigeon 30
Jupiter 30
atom 30
victim 30
strip 30
sir 30
7@@ 30
1,500 30
mobility 30
spare 30
juice 30
beef 30
crossed 30
prey 30
Atlanta 30
kidding 30
Yemen 30
chess 30
Jews 30
aggressive 30
reserves 30
bribe 30
Gene 30
variable 30
Mandela 30
sectors 30
politically 30
ps 30
construct 30
slower 30
wrist 30
mindset 30
Where 30
30s 30
tics 30
priorities 30
physicians 30
offers 30
Court 30
Lord 30
25,000 30
doubled 30
creator 30
pulse 30
bio 30
judgments 30
bold 30
McDonald 30
Asian 30
interpret 30
gained 30
Tim 30
terrific 30
cord 30
counted 30
knock 30
steam 30
basking 30
leopard 30
broader 30
upward 30
compound 30
beetle 30
melting 30
praying 30
triangle 30
diamonds 30
accumulate 29
metals 29
parks 29
harmful 29
jet 29
Jones 29
sized 29
cardboard 29
label 29
funds 29
linking 29
bush 29
girlfriend 29
Switzerland 29
pays 29
involve 29
integrate 29
regional 29
intensive 29
backyard 29
welfare 29
acquired 29
Scott 29
ch 29
graphs 29
matrix 29
Saudi 29
20s 29
delivery 29
converted 29
thrilled 29
pour 29
Nature 29
lamp 29
professors 29
Society 29
rape 29
fi@@ 29
acquire 29
significance 29
reasoning 29
Go 29
holy 29
sensitivity 29
honestly 29
western 29
ths 29
verb 29
separation 29
reputation 29
occasion 29
temporal 29
clusters 29
scream 29
advances 29
manager 29
mud 29
joint 29
campus 29
grains 29
Hong 29
lobby 29
z 29
heading 29
Z 29
format 29
bathroom 29
markers 29
1999 29
aliens 29
tomato 29
shelves 29
denial 29
goat 29
premise 29
symmetrical 29
47 29
exploded 29
poly@@ 29
attach 29
rivers 29
42 29
honored 29
astronomy 29
beam 29
playful 29
melt 29
Mumbai 29
1998 29
intended 29
immense 29
actively 29
crude 29
gasoline 29
2020 29
select 29
diagnosis 29
accelerating 29
personalized 29
selves 29
Two 29
tagged 29
harbor 29
philosophers 29
investigate 29
pole 29
fence 29
rec@@ 29
budgets 29
Harry 29
periods 29
mm 29
shocking 29
loose 29
stomach 29
Zero 29
feeds 29
Z@@ 29
investors 29
nearest 29
obese 29
columns 29
terrorists 29
Lewis 29
Peace 29
implant 29
cooling 29
satellites 29
desperately 29
producers 29
bite 29
Galapagos 29
prosperity 29
lifespan 29
hormones 29
division 29
Sylvia 29
grades 29
warmer 29
youngest 29
authors 29
topics 29
Natasha 29
relation 29
gay 29
infrared 29
Brad 29
monsoon 29
cups 29
ultraviolet 29
chromosome 29
dragonflies 29
shore 28
crab 28
loses 28
wet 28
empower 28
equity 28
gi@@ 28
County 28
surround 28
presenting 28
alcohol 28
privileged 28
abandoned 28
LED 28
momentum 28
Media 28
PC 28
8,000 28
Jefferson 28
taxes 28
baseball 28
screaming 28
probe 28
96 28
establish 28
ft 28
An@@ 28
libraries 28
heavily 28
fungi 28
ro@@ 28
alized 28
compounds 28
pharmaceutical 28
hi@@ 28
refugee 28
modeling 28
counts 28
yards 28
fl@@ 28
Hawaii 28
cur@@ 28
pu@@ 28
hiding 28
stranger 28
Rick 28
pleased 28
ces 28
tional 28
composition 28
Albert 28
Milky 28
Way 28
tically 28
frogs 28
winner 28
pray 28
stolen 28
textbooks 28
tight 28
Al@@ 28
elaborate 28
mor@@ 28
odor 28
span 28
Three 28
satisfaction 28
Kevin 28
punishment 28
prototypes 28
passes 28
accountability 28
desperate 28
conductor 28
illustrate 28
typing 28
highlight 28
pill 28
eats 28
pet 28
expanded 28
Johnny 28
ent@@ 28
reserve 28
1@@ 28
couch 28
Brown 28
ingredient 28
analyzed 28
ou@@ 28
critically 28
trace 28
Korean 28
tive 28
repeated 28
estimated 28
alize 28
controversial 28
elephants 28
doses 28
irony 28
visualize 28
iPod 28
priority 28
elevator 28
frustration 28
systematic 28
ward 28
mu@@ 28
pleasant 28
shoulders 28
famine 28
hoped 28
destiny 28
adolescence 28
addiction 28
un 28
shaking 28
Joseph 28
upright 28
promoting 28
climbed 28
tissues 28
chemotherapy 28
filling 28
Amy 28
charged 28
To 28
disabled 28
workforce 28
authoritarian 28
Lee 28
surgical 28
da@@ 28
thermal 28
corresponds 28
eradication 28
weigh 28
purple 28
receiving 28
tangible 28
virtue 28
novelty 28
disagree 28
enormously 28
convey 28
Queen 28
copied 28
crimes 28
jaw 28
owners 28
plankton 27
Tokyo 27
functioning 27
ving 27
charges 27
Craig 27
ying 27
kindergarten 27
distinction 27
tear 27
empowering 27
infant 27
deepest 27
Stewart 27
pro 27
graduated 27
pouring 27
smells 27
duty 27
Co@@ 27
g 27
Berkeley 27
shorter 27
po@@ 27
paradox 27
farther 27
bur@@ 27
awe 27
astronomers 27
Lake 27
weighs 27
150,000 27
millennia 27
la@@ 27
absorb 27
proven 27
biologically 27
eighth 27
extraordinarily 27
v@@ 27
shops 27
abundance 27
expressed 27
segment 27
tile 27
exhibit 27
outbreak 27
Design 27
poems 27
spell 27
mixture 27
texts 27
practically 27
healing 27
As 27
rockets 27
r 27
lectures 27
scheme 27
Rover 27
sadly 27
statistical 27
desktop 27
stopping 27
preparation 27
hills 27
manipulation 27
generosity 27
mask 27
accuracy 27
streams 27
chronic 27
bowl 27
grant 27
processor 27
Ar@@ 27
cl@@ 27
indicates 27
I. 27
travels 27
man@@ 27
spiral 27
beds 27
murder 27
P 27
De@@ 27
authenticity 27
opinions 27
monster 27
op 27
barrel 27
presidential 27
Be@@ 27
lion 27
ingly 27
abroad 27
revenues 27
cares 27
Daniel 27
nights 27
worm 27
recall 27
integrity 27
horizontal 27
rat 27
wished 27
airline 27
randomly 27
Egyptian 27
genomes 27
d 27
practicing 27
Brooklyn 27
buttons 27
iconic 27
ego 27
F 27
targeted 27
Sputnik 27
panic 27
fishermen 27
interviewer 27
microscopic 27
exponentially 27
abundant 27
incident 27
request 27
horror 27
blew 27
tuned 27
29 27
Arduino 27
Time 27
Council 27
lands 27
occupy 27
dating 27
eternal 27
answering 27
clips 27
strangers 27
crashes 27
dose 27
gestures 27
activists 27
toss 27
ham 27
anesthesia 27
copying 27
DR 27
bombsight 27
pollutants 26
offspring 26
gu@@ 26
terrified 26
aluminum 26
Global 26
enterprise 26
accelerate 26
considering 26
racing 26
appreciation 26
parenting 26
ag@@ 26
conditioning 26
intact 26
intention 26
15,000 26
habit 26
pin 26
observed 26
salary 26
They 26
assuming 26
1980 26
storms 26
Trade 26
wells 26
socially 26
attacking 26
raises 26
Republicans 26
adopt 26
des 26
disappears 26
wins 26
cosmos 26
trips 26
stake 26
cracks 26
Telescope 26
nonetheless 26
stamp 26
temperatures 26
disciplines 26
delivering 26
belt 26
bandwidth 26
wrapped 26
irrational 26
kingdom 26
biosphere 26
acres 26
Columbia 26
attracted 26
behold 26
losses 26
rethink 26
pot 26
defend 26
laughed 26
moreover 26
Good 26
destination 26
lanes 26
float 26
te 26
frog 26
trusted 26
torture 26
embarrassed 26
residents 26
rose 26
pipe 26
transported 26
stimulation 26
hunt 26
notions 26
tourist 26
powder 26
enters 26
hopes 26
touches 26
baseline 26
L 26
grabbed 26
corporations 26
serves 26
arise 26
tooth 26
chickens 26
Hans 26
Cold 26
understands 26
reaches 26
36 26
introduction 26
cruel 26
Tibet 26
specialized 26
Monday 26
statements 26
endeavor 26
lined 26
ble 26
mature 26
programmed 26
bl@@ 26
tuna 26
agents 26
nonsense 26
Mac 26
shifted 26
ia 26
assumed 26
achieving 26
consuming 26
Alice 26
convenient 26
gallons 26
ies 26
findings 26
declared 26
Nelson 26
et@@ 26
accomplish 26
rolled 26
soap 26
pH 26
messy 26
catastrophic 26
contained 26
mere 26
Ed 26
clapping 26
schizophrenia 26
lasting 26
finishing 26
overnight 26
assembled 26
chop 26
potent 26
avatar 26
agencies 26
candidates 26
risky 26
hairs 26
planned 26
spacecraft 26
responded 26
convicted 26
sticking 26
empire 26
drunk 26
tale 26
noisy 26
associate 26
headline 26
textbook 26
imagining 26
replacement 26
assets 26
impulse 26
Jerusalem 26
observations 26
electromagnetic 26
cluster 26
representing 26
fired 26
Mount 26
politician 26
humility 26
climbers 26
variables 26
contradiction 26
jewelry 26
mammography 26
sang 26
Tasmanian 26
protocell 26
loads 25
os 25
shipping 25
under@@ 25
ancestor 25
William 25
ridge 25
quarters 25
individually 25
friction 25
glimpse 25
intimate 25
shifts 25
Danny 25
migration 25
IM 25
rains 25
hop 25
ably 25
inexpensive 25
dishes 25
minority 25
November 25
pricing 25
Israeli 25
naive 25
98 25
slope 25
eliminate 25
hyper 25
Princeton 25
representative 25
mirrors 25
interfaces 25
websites 25
debris 25
calcium 25
nutrition 25
Di@@ 25
strains 25
lo 25
ethanol 25
rainforest 25
potatoes 25
basement 25
temporary 25
documentary 25
regrets 25
screening 25
bat 25
J@@ 25
weekend 25
tags 25
guards 25
afterward 25
mating 25
belly 25
submit 25
parasite 25
incidentally 25
characteristic 25
Beach 25
ambitious 25
waited 25
instinct 25
sexually 25
confronted 25
exam 25
node 25
frightened 25
chase 25
Canyon 25
diplomacy 25
asset 25
conduct 25
commons 25
motivate 25
wives 25
substantial 25
implemented 25
promised 25
enthusiasm 25
choir 25
principal 25
managing 25
habits 25
artifacts 25
equals 25
circular 25
deciding 25
geography 25
cra@@ 25
goodbye 25
tar 25
Arthur 25
edit 25
bow 25
SB 25
hugely 25
unseen 25
anticipate 25
Namibia 25
mild 25
Tesla 25
gallon 25
digging 25
vi@@ 25
43 25
OECD 25
manufacturers 25
fatal 25
infectious 25
bugs 25
breed 25
richest 25
sh@@ 25
mythology 25
offshore 25
Ken 25
planted 25
gra@@ 25
anonymous 25
propaganda 25
Rs 25
pri@@ 25
zes 25
Buddha 25
bu@@ 25
terrorist 25
sucks 25
headquarters 25
Singapore 25
applies 25
sections 25
pathway 25
130 25
paste 25
unconscious 25
angles 25
embarrassing 25
sketch 25
tricky 25
Charlie 25
consensus 25
towns 25
nasty 25
copper 25
Sudan 25
rejected 25
Sam 25
uniform 25
collision 25
responding 25
pipes 25
ethic 25
reproduction 25
inherently 25
detected 25
erectus 25
slums 25
Wolfram 25
Alpha 25
KA 25
Pittsburgh 25
Teszler 25
grocery 24
ins 24
1995 24
pressures 24
ic@@ 24
th 24
ex 24
recycled 24
laying 24
au@@ 24
operated 24
operational 24
countless 24
examine 24
adaptation 24
developers 24
C. 24
recognizing 24
nurture 24
destructive 24
Republican 24
vocabulary 24
disgusting 24
delight 24
Ross 24
mysteries 24
me@@ 24
lasts 24
bare 24
Buddhist 24
kicked 24
Organization 24
chains 24
Arabia 24
fied 24
1991 24
circulation 24
literal 24
CD 24
jumps 24
solo 24
parameters 24
distinguish 24
suggestion 24
cop 24
washed 24
comments 24
freezing 24
spontaneous 24
implement 24
displays 24
strikes 24
cre@@ 24
Catholic 24
passage 24
checks 24
standpoint 24
copies 24
mankind 24
composed 24
relativity 24
gravitational 24
lighter 24
canvas 24
foster 24
banned 24
back@@ 24
lips 24
awkward 24
metric 24
log 24
squares 24
blindness 24
recognizes 24
migraine 24
manner 24
scientifically 24
emphasize 24
Four 24
speeds 24
il@@ 24
encyclopedia 24
SMS 24
Apollo 24
Stephen 24
se@@ 24
1945 24
governmental 24
talented 24
processed 24
junk 24
reasonably 24
2011 24
2050 24
slice 24
chasing 24
Mary 24
unfair 24
investigation 24
Indonesia 24
.@@ 24
pipeline 24
burst 24
keys 24
Car@@ 24
ence 24
officials 24
ger 24
controversy 24
heritage 24
instruction 24
bounce 24
st@@ 24
ner 24
happily 24
Kong 24
exotic 24
menu 24
alist 24
ess 24
ta 24
procedures 24
skeptical 24
researching 24
scaling 24
matches 24
legitimate 24
editor 24
disasters 24
server 24
strategic 24
barriers 24
bacterium 24
assistance 24
filters 24
boots 24
profitable 24
neocortex 24
regulations 24
summarize 24
magnet 24
winners 24
reporting 24
activate 24
illusions 24
1.5 24
optimism 24
1997 24
attraction 24
intriguing 24
woods 24
Prince 24
secondary 24
Wright 24
flights 24
Dean 24
gains 24
RISD 24
cy@@ 24
appeal 24
commodities 24
celebrity 24
Jill 24
900 24
cellphone 24
guard 24
Rio 24
beneficial 24
sanitation 24
Bosnia 24
votes 24
solemn 24
injured 24
cardiac 24
les 24
lied 24
BL 24
disappearing 24
generates 24
equality 24
chemist 24
photographers 24
radius 24
entrance 24
dancers 24
mustard 24
institute 24
FG 24
medicines 24
Camp 24
tattoo 24
chromosomes 24
AIMS 24
min@@ 23
traditionally 23
cloth 23
hated 23
ators 23
Cape 23
operates 23
entrepreneurial 23
eBay 23
Fund 23
Women 23
twist 23
texting 23
expectation 23
calculated 23
misery 23
allies 23
fy 23
intentions 23
deficit 23
improvements 23
earning 23
Child 23
firms 23
har@@ 23
11th 23
ce 23
checking 23
retreat 23
projected 23
2030 23
supportive 23
delay 23
repeatedly 23
bond 23
Bangalore 23
asleep 23
addressing 23
kilometer 23
handful 23
tanks 23
gorgeous 23
Palestinian 23
pathways 23
bonds 23
oyster 23
Defense 23
index 23
potato 23
Industrial 23
wiped 23
surviving 23
Pennsylvania 23
do@@ 23
promising 23
accompanied 23
physiology 23
hybrid 23
pants 23
Up 23
predicting 23
mapped 23
problematic 23
ambition 23
impressed 23
der@@ 23
pose 23
labels 23
lobe 23
Tuesday 23
derived 23
bioluminescence 23
brush 23
juvenile 23
learns 23
th@@ 23
hunters 23
symbolic 23
alphabet 23
multi@@ 23
super@@ 23
adds 23
broadcast 23
stare 23
Would 23
innovate 23
expense 23
evaluate 23
medication 23
backs 23
founding 23
gl@@ 23
pa@@ 23
tick 23
catastrophe 23
bust 23
wasted 23
calculation 23
disconnected 23
easiest 23
Sierra 23
gardens 23
ars 23
resist 23
ative 23
genuine 23
microphone 23
52 23
marvelous 23
fantasy 23
D.C. 23
justify 23
specialist 23
ologists 23
hamburger 23
News 23
fault 23
personalities 23
demo 23
sessions 23
storyteller 23
Native 23
influences 23
Jay 23
sc@@ 23
elbow 23
Denmark 23
recovered 23
ley 23
numerous 23
overwhelming 23
whoever 23
volcanic 23
deadly 23
preventing 23
fo@@ 23
arose 23
biotechnology 23
absurd 23
ethics 23
responsibilities 23
perspectives 23
purchase 23
coastal 23
refuse 23
synapses 23
soccer 23
Olympics 23
ments 23
loans 23
nightmare 23
borrow 23
Kiribati 23
Katrina 23
flesh 23
privacy 23
manufacture 23
dreaming 23
counter@@ 23
fog 23
regularly 23
cerebral 23
nurturing 23
accelerated 23
dependence 23
association 23
wore 23
Agnes 23
ceremony 23
alike 23
sadness 23
negotiate 23
gecko 23
Me 23
offs 23
bench 23
ski 23
renewable 23
centimeter 23
fears 23
brands 23
devastating 23
helmet 23
eradicate 23
Louis 23
insulin 23
transit 23
sacrifice 23
placebo 23
flexibility 23
Jeopardy 23
rises 23
intangible 23
beside 23
celebration 23
galleries 23
colorful 23
configuration 23
Tamiflu 23
Right 23
singers 23
poses 23
nicely 23
autonomy 23
discussions 23
rainfall 23
divine 23
PR 23
Kibera 23
Coca 23
Cola 23
spades 23
Zipcar 23
dealt 22
Canadian 22
fertilizer 22
blocked 22
equipped 22
daylight 22
Elizabeth 22
consideration 22
thereby 22
patch 22
Brazilian 22
glory 22
ag 22
indicate 22
7,000 22
38 22
amateur 22
na 22
lonely 22
Democrats 22
presents 22
non@@ 22
poll 22
spine 22
documenting 22
Greeks 22
den 22
wage 22
Jazeera 22
titles 22
humankind 22
6@@ 22
ck@@ 22
oc@@ 22
goats 22
her@@ 22
laboratories 22
Development 22
seawater 22
ked 22
Francis 22
snakes 22
vibrating 22
chaotic 22
confined 22
centered 22
ry 22
ev@@ 22
fossils 22
cousins 22
seventh 22
stairs 22
Did 22
impaired 22
spontaneously 22
infinitely 22
velocity 22
collaborator 22
spheres 22
emerges 22
che@@ 22
describing 22
fathers 22
shrink 22
mentally 22
delighted 22
spatial 22
axes 22
morally 22
environmentally 22
mouths 22
surplus 22
cared 22
trailer 22
Secretary 22
hackers 22
Professor 22
anytime 22
singer 22
tales 22
elders 22
apologize 22
regulation 22
lately 22
SARS 22
devoted 22
explored 22
attempts 22
Virgin 22
Mexican 22
1930s 22
180 22
Kennedy 22
Carl 22
partnerships 22
trans@@ 22
threatening 22
den@@ 22
Lebanon 22
bing 22
tickets 22
cap@@ 22
strand 22
partial 22
coding 22
observing 22
SJ 22
packaging 22
flourish 22
thinkers 22
humble 22
truths 22
Dalai 22
Lama 22
midst 22
Empire 22
staggering 22
timing 22
tropical 22
mosquitoes 22
clues 22
ses 22
strengths 22
analyzing 22
Brothers 22
friendship 22
emails 22
analog 22
bonus 22
limbs 22
Matt 22
Lesters 22
Jerry 22
fundraising 22
Republic 22
1,@@ 22
convention 22
psychologist 22
nanotechnology 22
heated 22
Association 22
Medical 22
gosh 22
Human 22
diagnostic 22
trapped 22
La 22
apartments 22
zones 22
Simon 22
testosterone 22
Per@@ 22
membrane 22
Alaska 22
1994 22
candle 22
retina 22
reactors 22
floors 22
dictionaries 22
celebrated 22
fa@@ 22
orphanage 22
vents 22
RNA 22
stunt 22
rage 22
transistors 22
97 22
pristine 22
voters 22
Massachusetts 22
Philip 22
Lady 22
symphony 22
Liberia 22
artwork 22
NGO 22
routine 22
dodo 22
regenerate 22
guitar 22
illnesses 22
wheelchair 22
desertification 22
Mo 22
heal 21
acute 21
beaches 21
famously 21
Ha@@ 21
First 21
accounting 21
riding 21
convincing 21
ging 21
Warren 21
mutual 21
entities 21
frontier 21
isolation 21
discussing 21
replacing 21
Public 21
noticing 21
malnutrition 21
bulbs 21
suits 21
Cambodia 21
si@@ 21
sooner 21
Sony 21
combat 21
indication 21
lenses 21
Security 21
assure 21
ction 21
longest 21
wiring 21
exquisite 21
bloody 21
dancer 21
slaves 21
Russians 21
scope 21
releases 21
ched 21
acre 21
rainforests 21
air@@ 21
thirty 21
refused 21
id 21
masters 21
filmed 21
decides 21
candy 21
jokes 21
inform 21
acceptable 21
integrating 21
wonderfully 21
schooling 21
carrot 21
tenth 21
worship 21
obsolete 21
owe 21
crushed 21
sed 21
intersection 21
feminist 21
Orleans 21
viewed 21
Young 21
doubling 21
continuum 21
deserves 21
revolutions 21
enabling 21
forcing 21
nucleus 21
Venezuela 21
usage 21
realities 21
injustice 21
ya 21
lining 21
avian 21
stimulate 21
screw 21
B. 21
meaningless 21
Golden 21
acoustic 21
Reagan 21
vis 21
doodling 21
sticky 21
census 21
balloons 21
ned 21
bump 21
Sahara 21
cs 21
distorted 21
17@@ 21
dome 21
steady 21
collar 21
Jane 21
alization 21
ie 21
tri@@ 21
blink 21
update 21
basket 21
slight 21
statistically 21
w@@ 21
aggregate 21
barrels 21
2.0 21
Darwinian 21
atheist 21
introducing 21
agnostic 21
sheer 21
all@@ 21
reforms 21
corrupt 21
Darfur 21
deploy 21
informal 21
indigenous 21
pl@@ 21
browser 21
shells 21
automobiles 21
generic 21
Beethoven 21
geese 21
slowed 21
sells 21
honesty 21
jar 21
negotiating 21
lightning 21
Listen 21
rip 21
roles 21
res@@ 21
utter 21
paralysis 21
criminals 21
registered 21
alism 21
custom 21
lean 21
sculptures 21
missions 21
pervasive 21
heroic 21
reviewed 21
anniversary 21
capacities 21
preserved 21
ological 21
radar 21
Susan 21
blows 21
criteria 21
trait 21
Norway 21
reflects 21
pursuing 21
hooked 21
prints 21
talents 21
ignorance 21
entrepreneurship 21
tu@@ 21
certified 21
refined 21
inventions 21
glucose 21
bumps 21
frames 21
History 21
planting 21
marker 21
spills 21
prayer 21
inclusive 21
prosthetic 21
ruins 21
rescued 21
Mc@@ 21
variability 21
diamond 21
germs 21
Country 21
textile 21
marked 21
Dallas 21
erotic 21
orgasm 21
grassroots 21
Black 21
Third 21
bullet 21
resilient 21
patience 21
orientation 21
conceptual 21
BC 21
magazines 21
hatred 21
charcoal 21
atrazine 21
Marine 20
dr@@ 20
antibiotic 20
vector 20
accidentally 20
attributes 20
persuade 20
cane 20
posed 20
boost 20
convergence 20
coach 20
steer 20
modest 20
duration 20
operator 20
norm 20
viable 20
exceptions 20
corporation 20
pumps 20
undergraduate 20
ges 20
Boy 20
clarity 20
envy 20
emotionally 20
greatly 20
respected 20
louder 20
intrinsically 20
coincidence 20
expose 20
ely 20
Desert 20
ca@@ 20
toilets 20
tering 20
Ivan 20
bind 20
screens 20
reader 20
scanned 20
1996 20
Amsterdam 20
flood 20
appreciated 20
obstacle 20
pathogens 20
1.3 20
E. 20
submitted 20
harvesting 20
tes 20
disruptive 20
pizza 20
explanations 20
whistling 20
annoying 20
la 20
5@@ 20
depressing 20
Saturday 20
Roman 20
blade 20
cocktail 20
breakdown 20
bra@@ 20
reduces 20
inviting 20
tips 20
foreground 20
sailing 20
paths 20
throws 20
desires 20
arrest 20
ideology 20
wasting 20
algebra 20
mastery 20
intervene 20
assessment 20
These 20
medications 20
elderly 20
addressed 20
fragments 20
submersible 20
Deep 20
lure 20
releasing 20
semi 20
settled 20
hunter 20
brick 20
fisheries 20
augmented 20
bankers 20
PowerPoint 20
ful 20
payment 20
fails 20
culturally 20
tical 20
violin 20
mold 20
fuzzy 20
ots 20
filmmakers 20
chalk 20
pressing 20
CEOs 20
iceberg 20
tails 20
taboo 20
kilograms 20
heck 20
claws 20
.com 20
cyber 20
Leone 20
ff 20
unstable 20
publicly 20
developments 20
tribal 20
20@@ 20
44 20
cookie 20
Pepsi 20
wa@@ 20
Tennessee 20
mini 20
worldview 20
interconnected 20
logging 20
enlightened 20
hint 20
Pro@@ 20
synesthesia 20
tightly 20
unintended 20
default 20
Lagos 20
writes 20
ard 20
char@@ 20
paradise 20
conclusions 20
addicted 20
swap 20
Parliament 20
Of 20
acceleration 20
crashed 20
award 20
supercomputer 20
commonly 20
appliances 20
govern 20
balanced 20
remix 20
habitats 20
sounded 20
hopeless 20
heights 20
basketball 20
demanding 20
resolved 20
Spring 20
producer 20
jacket 20
availability 20
collaborate 20
earned 20
brave 20
composer 20
pan@@ 20
injection 20
kit 20
hi 20
cked 20
Hill 20
wounded 20
slept 20
circuitry 20
tiger 20
psychiatric 20
primates 20
Year 20
Su@@ 20
happiest 20
Lesterland 20
Your 20
Come 20
hotter 20
flown 20
fighters 20
hotels 20
swing 20
regulate 20
ga@@ 20
officers 20
involving 20
anti@@ 20
revolutionary 20
finite 20
fractal 20
priest 20
bath 20
reviews 20
Dylan 20
summary 20
Titanic 20
Type 20
Roger 20
prototyping 20
protest 20
Bruno 20
distribute 20
handy 20
Dick 20
geographic 20
ines 20
Olympic 20
equilibrium 20
recycle 20
painter 20
longevity 20
oxide 20
fulfilling 20
embryonic 20
statue 20
precision 20
adaptive 20
skilled 20
Abu 20
arena 20
rotating 20
ance 20
enzyme 20
transcend 20
2,500 20
Edinburgh 20
amino 20
Caltech 20
ck 20
sustaining 20
condoms 20
asthma 20
Jersey 20
victory 20
AV 20
posters 20
improvisation 20
Rome 20
cracked 20
psychopath 20
numb 20
fingertips 20
eradicated 20
Neanderthal 20
RG 20
Lakota 20
Maldives 20
drift 19
toxins 19
backed 19
ot@@ 19
cage 19
p.m. 19
onstage 19
oops 19
Nick 19
participating 19
Un@@ 19
vers 19
Har@@ 19
employment 19
Mountain 19
likelihood 19
goodness 19
dump 19
stimulus 19
harness 19
argued 19
settle 19
supports 19
1970 19
jungle 19
launching 19
Q@@ 19
1.2 19
bless 19
Ex@@ 19
relax 19
reporter 19
Joel 19
gaze 19
appropriately 19
chunk 19
loaded 19
sustained 19
BMW 19
com@@ 19
promises 19
slave 19
Siberia 19
hut 19
Falcon 19
glaciers 19
Toronto 19
Carnegie 19
redefine 19
vacation 19
ob@@ 19
to@@ 19
cop@@ 19
minerals 19
Bo@@ 19
Journal 19
march 19
ori@@ 19
sealed 19
Allen 19
envelope 19
ke 19
Kyoto 19
newly 19
Dave 19
nectar 19
rows 19
sweat 19
lapse 19
ape 19
meantime 19
surroundings 19
tly 19
revealing 19
v 19
Theater 19
valid 19
cent 19
inherent 19
quietly 19
astronomical 19
deny 19
rendered 19
coined 19
thirdly 19
Mozart 19
glorious 19
dragged 19
stretched 19
rooted 19
trunk 19
rehabilitation 19
grief 19
wed 19
tennis 19
reveals 19
censorship 19
secular 19
forehead 19
diagnose 19
disturbing 19
abnormal 19
ced 19
bioluminescent 19
bs 19
squeeze 19
beginnings 19
comparable 19
stated 19
reject 19
flock 19
instances 19
referred 19
abandon 19
fruits 19
correlation 19
shower 19
countryside 19
ashamed 19
ents 19
chapters 19
illustration 19
sync 19
Not 19
hence 19
accurately 19
Intel 19
slogan 19
demographics 19
surveys 19
inefficient 19
bananas 19
unacceptable 19
gigantic 19
1993 19
digits 19
developmental 19
listed 19
intend 19
Kepler 19
episode 19
ore 19
meets 19
Mountains 19
seasons 19
hung 19
maintaining 19
bell 19
bas@@ 19
triple 19
edited 19
editing 19
rigid 19
differential 19
Tower 19
fixing 19
involvement 19
replicating 19
1984 19
relatives 19
collaborators 19
alizing 19
observer 19
continually 19
140 19
Windows 19
homeless 19
Evan 19
Barack 19
laughter 19
horrific 19
certainty 19
imperative 19
Alan 19
norms 19
ct 19
infinity 19
Yorker 19
160 19
forbid 19
complained 19
stressed 19
slip 19
export 19
Wal 19
ches 19
matching 19
quo 19
settlement 19
employ 19
likewise 19
perceptions 19
twins 19
Keith 19
container 19
olive 19
fatty 19
romance 19
els 19
skip 19
outdoor 19
thankfully 19
auditory 19
shrinking 19
bulk 19
freeze 19
D. 19
ash 19
cliffs 19
wonders 19
viewer 19
issued 19
headaches 19
determination 19
gratitude 19
suspicious 19
gli@@ 19
remembering 19
synthesize 19
academics 19
Georgia 19
chimpanzee 19
gentle 19
Panbanisha 19
w 19
Whoa 19
beetles 19
charging 19
blogging 19
Fi 19
breakthroughs 19
Hospital 19
Swedish 19
fertility 19
placing 19
crawling 19
literary 19
animate 19
pirate 19
ultra 19
independently 19
ozone 19
shallow 19
projections 19
optimize 19
effectiveness 19
oiled 19
publication 19
Turkish 19
arrow 19
voluntary 19
ep@@ 19
disabilities 19
portable 19
pies 19
explicitly 19
1900 19
depths 19
Cancer 19
journalism 19
Armstrong 19
linguistic 19
cultivate 19
advocate 19
Ten 19
Kansas 19
worthwhile 19
tors 19
Prime 19
metaphors 19
followers 19
refugees 19
icons 19
DP 19
tures 19
stunts 19
riots 19
uranium 19
Ms 19
Scotland 19
slowing 19
repertoire 19
needles 19
Marcus 19
improvise 19
assistant 19
brutal 19
drama 19
globalized 19
scripts 19
IMF 19
ian 19
mosque 19
activist 19
regimes 19
subjective 19
fool 19
routinely 19
drowning 19
rap 19
valve 19
interference 19
packing 19
Rob 19
heel 19
camels 19
angels 19
lithium 19
prescription 19
transistor 19
glacier 19
SP 19
mantis 19
flap 19
sanitary 19
RSW 19
campaigns 18
tide 18
alert 18
equator 18
awake 18
Have 18
unpredictable 18
mi@@ 18
fulfill 18
Vegas 18
rear 18
alpha 18
ce@@ 18
returning 18
economically 18
indoor 18
siblings 18
LEDs 18
nail 18
31 18
Linux 18
survivors 18
Ro@@ 18
fairy 18
smiles 18
fiscal 18
spends 18
mat@@ 18
volumes 18
contents 18
cooked 18
compressed 18
Himalayas 18
ter@@ 18
remotely 18
donation 18
Dead 18
bands 18
People 18
ba@@ 18
voyage 18
Office 18
pitches 18
minded 18
county 18
aerial 18
experimentation 18
titled 18
performers 18
jumping 18
stadium 18
arithmetic 18
vivid 18
chord 18
declining 18
spite 18
returns 18
CIA 18
ironic 18
cousin 18
penetrate 18
tracked 18
continuity 18
draws 18
currents 18
Alabama 18
des@@ 18
cal 18
IT 18
cooperate 18
Flickr 18
simplistic 18
endless 18
sufficient 18
40s 18
tremendously 18
grim 18
1976 18
traumatic 18
cumulative 18
poorer 18
Because 18
Ministry 18
pat@@ 18
dreamed 18
phrases 18
irrelevant 18
sensible 18
slices 18
register 18
telephones 18
prevents 18
strictly 18
traces 18
del@@ 18
grave 18
8@@ 18
1986 18
stealing 18
wipe 18
playground 18
tastes 18
Nairobi 18
Gu@@ 18
Williams 18
breasts 18
arrows 18
IQ 18
funeral 18
forgive 18
satisfied 18
Hitler 18
Mart 18
weekends 18
relevance 18
inc@@ 18
alongside 18
toll 18
poorly 18
council 18
hom@@ 18
conducting 18
ologist 18
unity 18
antenna 18
bending 18
combinations 18
conception 18
dug 18
owns 18
kiss 18
affairs 18
stabilize 18
invasive 18
blessed 18
Ma@@ 18
Pakistani 18
furthermore 18
posture 18
interviewing 18
financially 18
taller 18
developer 18
Guardian 18
halls 18
frequent 18
seriousness 18
lasted 18
unlock 18
trauma 18
snap 18
embodied 18
purely 18
accidental 18
ninety 18
simulated 18
auditorium 18
Supreme 18
Connecticut 18
liberals 18
explorers 18
missile 18
scholarship 18
checked 18
varieties 18
400,000 18
cathedral 18
Wi 18
86 18
pilots 18
von 18
sequencing 18
checklist 18
shield 18
reflective 18
implanted 18
Nike 18
lu@@ 18
mite 18
bro@@ 18
searches 18
laundry 18
willingness 18
Le@@ 18
frustrating 18
thrust 18
pond 18
towers 18
appearing 18
quantities 18
mar@@ 18
br@@ 18
Costa 18
germ 18
differ 18
450 18
FOXO 18
approval 18
tuberculosis 18
sequenced 18
stereo 18
volcanoes 18
Easter 18
carbonate 18
rolls 18
agrees 18
biases 18
personnel 18
distinctive 18
Be 18
fame 18
blast 18
Company 18
slum 18
industrialized 18
strangely 18
Hyun 18
Sook 18
assigned 18
Village 18
Zimbabwe 18
macro 18
sp@@ 18
coordinate 18
programmer 18
moms 18
mounted 18
prefrontal 18
Jobs 18
liberty 18
bling 18
imaginary 18
125 18
commissioned 18
animated 18
butt 18
amateurs 18
Li@@ 18
ninth 18
Scratch 18
rightly 18
fluctuations 18
firmly 18
jury 18
defines 18
bye 18
mammogram 18
fishes 18
utility 18
suburban 18
Fort 18
autistic 18
periodic 18
conspiracy 18
zoo 18
towel 18
donations 18
tattoos 18
cleaner 18
donated 18
ancestry 18
cues 18
YR 18
peanuts 17
Julia 17
spark 17
correspond 17
midnight 17
puppet 17
steering 17
Th@@ 17
shipped 17
qui@@ 17
sunny 17
ey 17
reinventing 17
ler 17
Acumen 17
X@@ 17
consistently 17
chat 17
Skype 17
baker 17
dining 17
Miller 17
cr@@ 17
Andy 17
cooler 17
2.5 17
grounds 17
employed 17
handling 17
optimal 17
indoors 17
united 17
Yves 17
crank 17
watts 17
Peru 17
Get 17
US 17
AI 17
expressing 17
reacting 17
pushes 17
verge 17
ity 17
arbitrary 17
minor 17
needing 17
250,000 17
cognition 17
twin 17
harsh 17
cosmology 17
Ice 17
volcano 17
carved 17
digitize 17
Machine 17
300,000 17
Iraqi 17
CNN 17
envision 17
altered 17
spores 17
epiphany 17
delicate 17
ns 17
deforestation 17
queens 17
complain 17
deer 17
whistle 17
Venus 17
trap 17
Best 17
crowded 17
bothered 17
contaminated 17
citizenship 17
Christ 17
For 17
anthropologists 17
atheists 17
ultrasound 17
Galileo 17
presumably 17
ironically 17
Khan 17
notation 17
manufacturer 17
thread 17
stumbled 17
assign 17
pen@@ 17
graders 17
schedule 17
vocal 17
Oliver 17
inadequate 17
gently 17
extensive 17
Wilson 17
mentors 17
rabbits 17
empires 17
depended 17
up@@ 17
ically 17
Legos 17
murdered 17
credible 17
Com@@ 17
officially 17
Mon@@ 17
husbands 17
transferred 17
sympathy 17
strict 17
insisted 17
historian 17
aspirations 17
N 17
poles 17
Po@@ 17
z@@ 17
retire 17
retired 17
med 17
funders 17
dried 17
emergent 17
Mermaid 17
flu@@ 17
microwave 17
triangles 17
Pentagon 17
ban 17
joining 17
Agency 17
na@@ 17
Caribbean 17
strips 17
urgency 17
Stop 17
head@@ 17
93 17
57 17
invitation 17
ease 17
Man@@ 17
que 17
underway 17
experimenting 17
seafood 17
Nicole 17
J 17
apes 17
Nathan 17
straw 17
admire 17
invaded 17
cies 17
embracing 17
discussed 17
accepting 17
2015 17
accent 17
ID 17
scholars 17
qualified 17
sts 17
successes 17
smartest 17
inflation 17
decentralized 17
antibodies 17
rendering 17
ban@@ 17
practiced 17
conservatives 17
Post 17
editors 17
directors 17
submarine 17
scare 17
leak 17
booms 17
genomics 17
contacts 17
alter 17
manipulated 17
grabs 17
cat@@ 17
contracts 17
investigating 17
explode 17
obsession 17
buys 17
Wars 17
ra 17
Sa@@ 17
ther 17
ently 17
Nepal 17
cleaned 17
Syria 17
Bond 17
fee 17
sponsor 17
Kingdom 17
cli@@ 17
struggled 17
divergence 17
manifest 17
excess 17
dune 17
woo 17
W 17
geo 17
shout 17
snake 17
projecting 17
delusion 17
anatomy 17
reads 17
pers 17
inequality 17
gar@@ 17
DARPA 17
orbital 17
antiangiogenic 17
Medicine 17
illumination 17
insecure 17
cigarette 17
crosses 17
randomness 17
generator 17
weekly 17
1983 17
bikes 17
110 17
Sweeney 17
dy 17
volts 17
firing 17
legged 17
peel 17
Van 17
Stirling 17
parliament 17
correlated 17
chewing 17
dove 17
Ta@@ 17
bly 17
cement 17
drinks 17
popped 17
sail 17
controller 17
sketches 17
U 17
u@@ 17
focuses 17
hydro@@ 17
lin@@ 17
pads 17
lane 17
dly 17
protective 17
intentional 17
billboard 17
stepping 17
couples 17
beats 17
negotiation 17
cores 17
criticized 17
acceptance 17
negotiations 17
ph@@ 17
mammal 17
blueprint 17
gangs 17
guidance 17
Luther 17
Moses 17
peaks 17
Bhutan 17
warrior 17
guidelines 17
respiratory 17
guilt 17
captain 17
imbalance 17
inventors 17
Europa 17
founder 17
fe@@ 17
aura 17
versa 17
polymer 17
civilian 17
marijuana 17
wallet 17
rhythms 17
Mrs. 17
displaced 17
archive 17
prizes 17
minimal 17
museums 17
Ages 17
Benki 17
retail 17
Make 17
Somalia 17
suitcase 17
kings 17
scuba 17
pathology 17
stocks 17
degraded 17
mama 17
recipes 17
basin 17
DJ 17
UV 17
abalone 17
cochlear 17
athlete 17
Emily 17
chariot 17
educating 17
protocells 17
policing 17
Mola 17
scaffold 17
Mahmoud 17
Sergio 17
replicator 17
DG 17
superconductor 17
supermassive 17
Bertie 17
f 16
kin 16
jam 16
accumulation 16
surfing 16
74 16
Port 16
ver 16
Gi@@ 16
innovators 16
publisher 16
sideways 16
races 16
down@@ 16
spike 16
messaging 16
disappointed 16
Philippines 16
exceptional 16
massively 16
elevation 16
pharmaceuticals 16
refrigeration 16
Love 16
escaped 16
hurts 16
executive 16
prisons 16
Jackson 16
1968 16
Children 16
ministers 16
populated 16
stole 16
invasion 16
cue 16
extends 16
deliberately 16
collapses 16
racism 16
contributions 16
drilling 16
overlap 16
ideological 16
Fox 16
intrinsic 16
radi@@ 16
curved 16
adventures 16
radioactive 16
skies 16
signing 16
Wide 16
locking 16
ali@@ 16
fungus 16
Oregon 16
obtained 16
larvae 16
blend 16
DVD 16
footprints 16
zip 16
Virtual 16
confirm 16
Biosphere 16
dreadful 16
toxin 16
sa@@ 16
Bi@@ 16
Par@@ 16
pesticides 16
beekeepers 16
ingenuity 16
berg 16
honeybees 16
sperm 16
bats 16
sterile 16
permanently 16
Renaissance 16
ca 16
Royal 16
Danish 16
confusing 16
10th 16
shirts 16
terminal 16
immensely 16
requirements 16
intent 16
+ 16
hood 16
criticism 16
tively 16
widespread 16
Murray 16
induced 16
dementia 16
cted 16
bent 16
orbiting 16
ringing 16
multiverse 16
manifestation 16
foam 16
execution 16
insist 16
dec@@ 16
reflecting 16
gifted 16
scaffolding 16
chin 16
poke 16
applause 16
rank 16
measurable 16
ruled 16
unfolding 16
arrangements 16
Kelly 16
alists 16
neuro@@ 16
altruism 16
sin 16
spirits 16
eliminated 16
bombing 16
Vietnamese 16
illiterate 16
ory 16
educators 16
identification 16
noble 16
communal 16
descriptions 16
displayed 16
downstairs 16
motions 16
spouse 16
extending 16
mentality 16
conceive 16
sandwiches 16
banana 16
kidneys 16
Montana 16
hypotheses 16
sucked 16
eastern 16
glow 16
Mississippi 16
grounded 16
installations 16
chimps 16
calculator 16
measurement 16
maintained 16
ambiguous 16
cartoonist 16
sweeping 16
calculators 16
judges 16
Lawrence 16
album 16
impose 16
A. 16
rig 16
arteries 16
rides 16
establishment 16
characterized 16
flooding 16
graduates 16
For@@ 16
perceptual 16
Diego 16
reply 16
drank 16
pity 16
announcement 16
stereotypes 16
ay 16
Nollywood 16
CT 16
instincts 16
blob 16
stripped 16
separating 16
emission 16
prayers 16
framed 16
Miss 16
alternatives 16
tourism 16
Gordon 16
relates 16
Open 16
contexts 16
fashioned 16
defeat 16
automatic 16
timeline 16
complaining 16
mineral 16
aesthetics 16
consists 16
magnets 16
cabinet 16
KS 16
dye 16
Portugal 16
fies 16
su@@ 16
Aid 16
swear 16
pepper 16
gifts 16
mutant 16
scenarios 16
Luke 16
capsule 16
poets 16
puberty 16
ee 16
liberation 16
knees 16
hug 16
Mor@@ 16
refers 16
nut 16
drought 16
fifteen 16
CAPTCHA 16
ana 16
modeled 16
ul@@ 16
bled 16
erase 16
juggling 16
folk 16
graffiti 16
flags 16
posts 16
interfere 16
46 16
nu@@ 16
encountered 16
crystal 16
modes 16
develops 16
gates 16
uniquely 16
implants 16
benign 16
Bonobo 16
switches 16
tiniest 16
Senate 16
simulator 16
nerd 16
troubled 16
invade 16
rating 16
monthly 16
compact 16
preservation 16
superior 16
500,000 16
occupation 16
visitors 16
Tri@@ 16
prevalent 16
grandmothers 16
lightweight 16
grasses 16
inputs 16
tofu 16
iPad 16
80,000 16
incremental 16
preferences 16
Europeans 16
disparate 16
Ground 16
gs 16
leather 16
pur@@ 16
port 16
shouting 16
ins@@ 16
fabrication 16
Stockholm 16
loser 16
grip 16
buses 16
athletes 16
substantially 16
Argentina 16
Palestine 16
tagging 16
servant 16
Jamie 16
bri@@ 16
Ron 16
melted 16
Cairo 16
casualties 16
souls 16
Hadron 16
Collider 16
convenience 16
eu@@ 16
TEDsters 16
imitation 16
dividing 16
beloved 16
passions 16
thesis 16
biomimicry 16
immortal 16
constrained 16
Hindu 16
Hungarian 16
knocked 16
strongest 16
animations 16
gadgets 16
scroll 16
outrageous 16
1985 16
jeans 16
preventable 16
pit 16
requests 16
appealing 16
puppy 16
motivates 16
reminder 16
switching 16
sapiens 16
asteroids 16
Sri 16
gamma 16
Sudhir 16
verse 16
combining 16
atmospheric 16
staircase 16
TD 16
Bruce 16
thers 16
Stone 16
Babylon 16
boiling 16
festival 16
1,100 16
Cochrane 16
killers 16
spines 16
Saint 16
structured 16
translating 16
artery 16
margin 16
Vinci 16
curator 16
cookies 16
suey 16
fuck 16
ambiguity 16
League 16
Bono 16
lifelike 16
Archie 16
Scottish 16
ion 16
heavens 16
meditation 16
Molas 16
lamb 16
nitric 16
NM 16
Aimee 16
KT 16
Beck 16
journals 15
tides 15
neurological 15
tolerate 15
Cal@@ 15
advantages 15
articulate 15
anticipated 15
Town 15
Se@@ 15
relaxed 15
mic 15
commerce 15
TEDster 15
degradation 15
Nevada 15
drifting 15
manages 15
anthropologist 15
workshops 15
residential 15
blocking 15
cts 15
floods 15
pregnancy 15
disposal 15
Wired 15
specialists 15
1982 15
Dimitri 15
wander 15
lawn 15
surveillance 15
ber@@ 15
memorial 15
piles 15
Inter@@ 15
capitalist 15
vague 15
migrate 15
foot@@ 15
histories 15
enzymes 15
triggers 15
motorcycle 15
bookstore 15
payload 15
minimize 15
gloves 15
broadly 15
Net 15
Book 15
UCLA 15
concerts 15
reuse 15
ABC 15
soils 15
anim@@ 15
determining 15
prospect 15
exclusive 15
H5N1 15
Graham 15
ol 15
susceptible 15
shuttle 15
Arizona 15
mites 15
implication 15
thy 15
34 15
Ru@@ 15
Max 15
lover 15
shoots 15
suggestions 15
fac@@ 15
cops 15
containing 15
Technology 15
redesign 15
Rule 15
balances 15
semen 15
so@@ 15
compass 15
ming 15
Holy 15
Satan 15
waterfall 15
Hudson 15
ize 15
entity 15
immersed 15
Men 15
Tehran 15
tutoring 15
preferred 15
automated 15
flipping 15
tutor 15
attempted 15
handsome 15
persistent 15
gyrus 15
visualizing 15
exhausted 15
viewing 15
responds 15
warn 15
vastly 15
proceed 15
excellence 15
enhance 15
speeding 15
bureaucratic 15
sters 15
dates 15
experimenter 15
diagrams 15
Rouge 15
orchestras 15
monopoly 15
elites 15
perfection 15
Bar@@ 15
constructive 15
synthesis 15
strive 15
lightly 15
Just 15
calendar 15
relational 15
hobby 15
cafe 15
contributes 15
T. 15
dumped 15
Jean 15
Copernicus 15
ky 15
Roosevelt 15
geometric 15
Hiroshima 15
accused 15
lousy 15
disbelief 15
hammer 15
ran@@ 15
Sh@@ 15
squared 15
Wednesday 15
Labs 15
centimeters 15
manure 15
kite 15
15th 15
predatory 15
imaginative 15
Play 15
Philadelphia 15
IDEO 15
lin 15
cking 15
creators 15
shadows 15
mundane 15
Cross 15
inventing 15
shortage 15
thrive 15
ning 15
intellect 15
margins 15
Sydney 15
questioning 15
mul@@ 15
entitled 15
quantity 15
Russell 15
ise 15
comprehensive 15
centralized 15
organizational 15
chi@@ 15
Thailand 15
gratification 15
indicated 15
bes@@ 15
and@@ 15
pools 15
theirs 15
encode 15
rented 15
ani@@ 15
hurricane 15
outrage 15
Ted 15
adjacent 15
reconstruct 15
persist 15
ZK 15
commercials 15
ure 15
hed 15
ingenious 15
supposedly 15
apps 15
responsive 15
She 15
divorce 15
standardized 15
hers 15
representations 15
Taiwan 15
replied 15
ot 15
partially 15
maggots 15
heartbeat 15
southwest 15
fri@@ 15
beard 15
protects 15
digitally 15
customization 15
Side 15
Duke 15
gears 15
Michigan 15
Cooper 15
toughest 15
bronze 15
hyperbolic 15
selective 15
lobes 15
coma 15
warmth 15
commands 15
modular 15
ged 15
comet 15
Ne@@ 15
sions 15
nuclei 15
extinctions 15
campaigning 15
similarities 15
clap 15
Millennium 15
70,000 15
excessive 15
pioneer 15
lymph 15
concentrations 15
Grey 15
ranging 15
simplify 15
similarity 15
pots 15
Mu@@ 15
agile 15
Nazi 15
performances 15
ghost 15
careers 15
steak 15
memorize 15
acted 15
hu@@ 15
passengers 15
ics 15
Barbara 15
essay 15
hull 15
bladder 15
Doug 15
clash 15
highways 15
rediscover 15
sank 15
sulfur 15
statistic 15
reproductive 15
surprises 15
rigorous 15
formats 15
dumping 15
fragmented 15
Mediterranean 15
dominance 15
E.U. 15
daf 15
improves 15
employee 15
flourishing 15
astounding 15
behaving 15
identities 15
gers 15
sediment 15
83 15
daddy 15
Conference 15
parked 15
Witness 15
oriented 15
hike 15
butter 15
Las 15
fying 15
emphasis 15
miracles 15
freak 15
nerdy 15
references 15
resonance 15
bull 15
1989 15
watt 15
scaled 15
cradle 15
photographing 15
flames 15
torn 15
condom 15
Mahatma 15
delete 15
explicit 15
shaping 15
proving 15
notebook 15
biased 15
enthusiastic 15
Sally 15
urine 15
cas@@ 15
gy 15
disconnect 15
retain 15
abused 15
databases 15
bon@@ 15
pleasures 15
Achilles 15
idiot 15
inter 15
analytical 15
skins 15
evolves 15
Jason 15
lump 15
intuitions 15
wages 15
Ch@@ 15
varied 15
crawl 15
Julian 15
cone 15
Detroit 15
Vermeer 15
Australian 15
optics 15
suburbs 15
excuses 15
Mer@@ 15
Aurora 15
scarce 15
Heart 15
coded 15
Kenyan 15
railroad 15
Margaret 15
Holocaust 15
Sarah 15
crowds 15
Natural 15
bakery 15
humidity 15
diffusion 15
Weibo 15
SOPA 15
PIPA 15
gaining 15
VC 15
gharial 15
cobra 15
Yo 15
therapist 15
Treating 15
Grace 15
inorganic 15
fishery 15
Ushahidi 15
slime 15
Galois 15
roughness 15
absorbed 14
infect 14
Julie 14
crabs 14
ical 14
medi@@ 14
surge 14
Troy 14
verbs 14
bul@@ 14
plywood 14
workshop 14
durable 14
Leo 14
Rockefeller 14
propelled 14
Social 14
portions 14
booth 14
champion 14
resting 14
Cor@@ 14
algorithmic 14
reflex 14
boyfriend 14
Paulo 14
settings 14
salad 14
rein@@ 14
fees 14
nutrient 14
Finland 14
Laptop 14
announcing 14
iPods 14
announce 14
actu@@ 14
hacking 14
bo 14
builder 14
realizes 14
Greece 14
wi@@ 14
sums 14
respectful 14
ripped 14
seniors 14
eliminating 14
Depression 14
physiological 14
apparatus 14
pot@@ 14
arriving 14
ballet 14
bor@@ 14
detectors 14
73 14
Large 14
Word 14
El@@ 14
auto 14
fax 14
unlimited 14
BBC 14
snapshot 14
uncertain 14
cubic 14
inherited 14
mat 14
preserving 14
pops 14
end@@ 14
reinvent 14
beans 14
containers 14
mid- 14
Eden 14
hive 14
veil 14
meadow 14
ites 14
deserts 14
transformational 14
underwear 14
leisure 14
technician 14
unfold 14
unbelievably 14
pets 14
surrender 14
metaphorical 14
Father 14
Karl 14
throat 14
faint 14
Hubble 14
oneself 14
mandate 14
transforms 14
commentary 14
feminine 14
committee 14
Isaac 14
emailed 14
grading 14
evident 14
epilepsy 14
interrupted 14
stimulated 14
collide 14
defending 14
wondrous 14
enhanced 14
broadcasting 14
tops 14
payoff 14
Toyota 14
bloggers 14
backpack 14
cheated 14
tougher 14
Khmer 14
1975 14
communist 14
confirmed 14
arousal 14
esteem 14
adolescent 14
onset 14
holistic 14
Our 14
soy 14
zation 14
crust 14
edible 14
clone 14
basics 14
intricate 14
charts 14
punch 14
Reed 14
Ronald 14
offensive 14
turtles 14
Superman 14
turtle 14
skiing 14
entertaining 14
Service 14
salmon 14
94 14
9@@ 14
58 14
1949 14
fission 14
loops 14
wavelength 14
mid@@ 14
.com. 14
width 14
crises 14
forum 14
expressive 14
roommate 14
dy@@ 14
tense 14
serial 14
incomplete 14
Walker 14
pneumonia 14
mus@@ 14
fooled 14
Lo@@ 14
hor@@ 14
apparent 14
embraced 14
compatible 14
poetic 14
governor 14
constitution 14
immunity 14
Business 14
auction 14
files 14
modified 14
strain 14
alarming 14
enduring 14
slate 14
crocodile 14
tipping 14
personalization 14
renewables 14
od 14
cks 14
Exxon 14
waking 14
chunks 14
pianist 14
warehouse 14
brakes 14
cereal 14
expands 14
pissed 14
backward 14
tasted 14
Bihar 14
shade 14
understandable 14
ale 14
accountable 14
Super 14
gaming 14
pressed 14
Jennifer 14
vibration 14
extremism 14
dispute 14
dra@@ 14
Maitreya 14
passport 14
Dubai 14
multimedia 14
polls 14
Oscar 14
dances 14
inappropriate 14
keen 14
strokes 14
methodology 14
survivor 14
hal@@ 14
divers 14
assignments 14
statues 14
balancing 14
captures 14
ballot 14
tilt 14
tribute 14
knives 14
onion 14
Arts 14
abstraction 14
reception 14
incidence 14
denominator 14
dangers 14
obligation 14
Kanzi 14
scissors 14
stunned 14
occupied 14
swarm 14
Southeast 14
fire@@ 14
obscure 14
starvation 14
aviation 14
hot@@ 14
56 14
spaceship 14
resort 14
whip 14
oral 14
intrigued 14
helix 14
Band 14
fills 14
raging 14
cer@@ 14
uncles 14
Rachel 14
ruler 14
palace 14
war@@ 14
zeros 14
Ber@@ 14
underestimate 14
lexicon 14
Sobule 14
Show 14
neurologic 14
cockroach 14
forty 14
mill 14
attribute 14
positively 14
crux 14
arrangement 14
Photoshop 14
guaranteed 14
cult 14
Saddam 14
High 14
rushed 14
patented 14
Warner 14
quiz 14
Marshall 14
substitute 14
Digital 14
novels 14
bat@@ 14
impress 14
unite 14
Gehry 14
lever 14
tigers 14
ve@@ 14
sh 14
multinational 14
ne 14
tapes 14
attend 14
primordial 14
conscience 14
timber 14
superpower 14
53 14
suffers 14
recipient 14
limitation 14
restricted 14
kindly 14
ple@@ 14
celebrating 14
fucking 14
receiver 14
aunt 14
theft 14
heels 14
commission 14
Five 14
hallway 14
Jordan 14
Chief 14
Judaism 14
Commandments 14
tized 14
subsidies 14
fictional 14
warfare 14
hummingbird 14
cords 14
F. 14
purse 14
estrogen 14
biofuels 14
cul@@ 14
airports 14
Enlightenment 14
Moscow 14
proliferation 14
Poland 14
Billy 14
cy 14
upload 14
Point 14
attempting 14
Hebrew 14
compose 14
flutes 14
crow 14
popping 14
Tra@@ 14
praise 14
lava 14
filmmaker 14
Chicken 14
Slow 14
proscenium 14
Hmm 14
Ad@@ 14
specialize 14
existential 14
northeast 14
racial 14
anthropology 14
hypertension 14
yearning 14
tan 14
Little 14
blobs 14
pixels 14
tra@@ 14
diary 14
questioned 14
herd 14
lifetimes 14
Voice 14
Walter 14
Channel 14
expeditions 14
Bali 14
tweet 14
defeated 14
outward 14
Information 14
mechanically 14
bamboo 14
Forest 14
certificate 14
extracted 14
maternal 14
peanut 14
cigarettes 14
Venter 14
Alfred 14
someplace 14
seminal 14
stacking 14
nanoscale 14
fingerprint 14
vascular 14
adolescents 14
cymatics 14
col@@ 14
apartheid 14
Studio 14
Cs 14
melody 14
Yale 14
ideals 14
Sioux 14
vaginas 14
USDA 14
Netra 14
Broadmoor 14
Susie 14
pigmented 14
pigmentation 14
Len 14
unhealthy 13
protocol 13
polite 13
flashing 13
poisoning 13
pioneering 13
terrestrial 13
hyena 13
1981 13
holiday 13
banker 13
tire 13
autonomously 13
neuroscientists 13
imposed 13
Cameron 13
cellphones 13
deployment 13
Kosovo 13
ina 13
mimics 13
exit 13
rainwater 13
veterans 13
pillar 13
rebuilding 13
empowerment 13
nutritional 13
fitting 13
leveraging 13
sued 13
counterintuitive 13
generators 13
Am@@ 13
Libya 13
1978 13
hack 13
upstairs 13
navigation 13
battlefield 13
Democratic 13
leaning 13
stakes 13
moderate 13
pragmatic 13
conferences 13
bedrock 13
fights 13
quicker 13
watches 13
cinema 13
triumph 13
transcendence 13
exposing 13
ear@@ 13
enjoyable 13
brilliantly 13
functionality 13
indirectly 13
technicians 13
Free 13
ousness 13
wax 13
CDs 13
recordings 13
Jon 13
prejudice 13
ulate 13
erosion 13
aftermath 13
Hu@@ 13
rewarded 13
fer@@ 13
ulated 13
hydrocarbons 13
Barbie 13
umbrella 13
miniature 13
valves 13
render 13
cans 13
declined 13
lawns 13
companion 13
Eve 13
ju@@ 13
Noah 13
snails 13
reptiles 13
Movement 13
rode 13
facade 13
More 13
spelled 13
danced 13
inv@@ 13
indicating 13
servers 13
beast 13
Or@@ 13
anxious 13
ignorant 13
quotes 13
burns 13
Schwarzschild 13
merge 13
echo 13
drums 13
ctions 13
trunks 13
shortcut 13
mobilize 13
Iranians 13
modules 13
nursing 13
unrelated 13
fade 13
fMRI 13
octopus 13
mates 13
bucket 13
youngsters 13
mathematically 13
literate 13
frontiers 13
quantitative 13
competence 13
sought 13
ideally 13
slash 13
fairness 13
grazing 13
tered 13
acknowledged 13
Mao 13
1965 13
Civil 13
pla@@ 13
translates 13
wounds 13
Cup 13
passionately 13
respects 13
cursor 13
flipped 13
tenths 13
clinically 13
scheduled 13
mainframe 13
Magazine 13
gait 13
coordinated 13
supermarkets 13
sliced 13
discarded 13
nests 13
satisfy 13
activation 13
addresses 13
primal 13
judging 13
Franklin 13
mutually 13
commander 13
fur 13
humpback 13
fins 13
fin@@ 13
Northwest 13
elder 13
grace 13
16@@ 13
1900s 13
cloudy 13
madness 13
ADHD 13
hacker 13
Greg 13
attendance 13
worn 13
deprivation 13
progressive 13
impulses 13
suppress 13
visionary 13
closet 13
firemen 13
geniuses 13
lemon 13
packs 13
instability 13
1967 13
resemble 13
ble@@ 13
liking 13
# 13
Igbo 13
valued 13
sequel 13
hosts 13
Pi@@ 13
eager 13
governed 13
psychiatrists 13
Pri@@ 13
lacking 13
ered 13
belonging 13
prophet 13
secretly 13
mortgage 13
1918 13
swine 13
ances 13
leaks 13
aries 13
ff@@ 13
lowered 13
rail 13
comparisons 13
stacks 13
contemplating 13
Jonas 13
warriors 13
coalition 13
crafts 13
dude 13
Tahrir 13
arises 13
R. 13
hears 13
comprised 13
equ@@ 13
Hussein 13
wears 13
Brigades 13
psychiatrist 13
transformations 13
token 13
singular 13
Nazis 13
dunes 13
geek 13
dismiss 13
taped 13
exploding 13
pine 13
ruined 13
balconies 13
composite 13
lakes 13
triggered 13
tru@@ 13
jelly 13
unfinished 13
Ra@@ 13
au 13
Rod 13
representatives 13
historians 13
1,200 13
synchrony 13
confuse 13
operators 13
Bridge 13
dro@@ 13
pest 13
catalog 13
instinctively 13
9,000 13
Rush 13
persistence 13
Brain 13
sidewalk 13
testimony 13
reconstructed 13
Vagina 13
enclosure 13
coins 13
Neumann 13
programmable 13
Kerry 13
eighty 13
adapting 13
sushi 13
Oprah 13
pinpoint 13
electrode 13
severely 13
phases 13
fulfillment 13
ambulance 13
16th 13
vibrate 13
boot 13
tro@@ 13
Captain 13
og@@ 13
experimented 13
Q 13
gged 13
infants 13
noises 13
tablet 13
bombers 13
92 13
blogosphere 13
liberated 13
twentieth 13
ades 13
crashing 13
dengue 13
kissing 13
spit 13
penis 13
DIY 13
cloned 13
bribes 13
millennium 13
arguably 13
beams 13
antennae 13
vet 13
Jesse 13
Amanda 13
rotation 13
Kamen 13
50th 13
assess 13
lastly 13
fli@@ 13
predicts 13
inertia 13
altogether 13
lazy 13
genuinely 13
Roy 13
donate 13
vent 13
flo@@ 13
tier 13
pillars 13
scars 13
bitter 13
theoretically 13
pore 13
cockpit 13
speeches 13
Antarctic 13
limestone 13
metabolic 13
Qatar 13
Osama 13
Israelis 13
richness 13
fellows 13
magnetism 13
surrounds 13
rabbit 13
Fahrenheit 13
Road 13
downloaded 13
fore@@ 13
chemists 13
technologists 13
atory 13
Maslow 13
civilians 13
digest 13
shares 13
intuitively 13
dominate 13
Botswana 13
costly 13
Madagascar 13
uploaded 13
mattered 13
PISA 13
dragline 13
silks 13
weaving 13
helpless 13
butterflies 13
Du@@ 13
thou 13
extremes 13
crystals 13
IV 13
affection 13
systemic 13
photographic 13
tours 13
Arkansas 13
ens 13
poured 13
toaster 13
Trek 13
commute 13
messed 13
Batman 13
Austria 13
postcards 13
academia 13
planners 13
biotech 13
believer 13
Irish 13
collector 13
myths 13
forecast 13
receives 13
helicopters 13
filming 13
Creative 13
Tomorrow 13
typography 13
kilos 13
replication 13
masks 13
pr@@ 13
Guinea 13
carve 13
sponsored 13
Han 13
pulses 13
pearl 13
headache 13
ved 13
euros 13
restorative 13
Diana 13
cker 13
45,000 13
Galvao 13
Tso 13
template 13
multitasking 13
Mathematica 13
visuals 13
festivals 13
presentations 13
Board 13
Higgs 13
carbs 13
doodle 13
palette 13
grassland 13
ace 13
Colorado 13
Tumor 13
Fields 13
Browne 13
Aye 13
CP 13
Odysseus 13
Tarahumara 13
Triceratops 13
daunting 12
bay 12
ecologist 12
accumulating 12
calf 12
rider 12
tioned 12
sk@@ 12
seasonal 12
directed 12
desperation 12
Joey 12
inn@@ 12
aspiration 12
ig@@ 12
iteration 12
inhabit 12
buddy 12
oning 12
flour 12
locals 12
Corporation 12
Radio 12
cheapest 12
eco 12
gardening 12
restoring 12
TED@@ 12
interdependence 12
queue 12
tor 12
bicycles 12
Rice 12
rubble 12
saturated 12
ruin 12
ide@@ 12
ills 12
yelling 12
reactive 12
universally 12
Universe 12
Minnesota 12
Egyptians 12
book@@ 12
utopian 12
pat 12
cell@@ 12
achievements 12
bel@@ 12
fuse 12
restoration 12
logarithmic 12
hand@@ 12
dragging 12
flush 12
Tu@@ 12
exclusively 12
intensely 12
ark 12
angel 12
manipulating 12
Ho@@ 12
forgetting 12
illustrates 12
dressing 12
insert 12
evaluation 12
proposing 12
eds 12
brilliance 12
fitness 12
obey 12
Wait 12
noted 12
hardwired 12
quoted 12
devastated 12
celestial 12
crush 12
merging 12
elusive 12
multiplied 12
violate 12
battles 12
reporters 12
dilemmas 12
foremost 12
uprising 12
excerpt 12
competent 12
learner 12
Club 12
examined 12
Bonnet 12
exc@@ 12
coherent 12
encoded 12
knot 12
glowing 12
attracting 12
startling 12
proves 12
selecting 12
hiring 12
broadband 12
competitors 12
il 12
punish 12
entries 12
acquisition 12
derive 12
province 12
Kabul 12
arrival 12
reconciliation 12
replicated 12
awarded 12
critic 12
Symphony 12
bass 12
junior 12
meanings 12
needless 12
promotion 12
criticize 12
rub 12
typed 12
telecommunications 12
customized 12
Magic 12
pork 12
maize 12
packets 12
whilst 12
striving 12
inject 12
rex 12
Maltese 12
embryo 12
genesis 12
modify 12
chick 12
deliberate 12
claimed 12
creepy 12
freaked 12
superhero 12
Mission 12
Inuit 12
sands 12
trickster 12
burial 12
hangs 12
aisle 12
84 12
49 12
1947 12
76 12
riot 12
proportional 12
edi@@ 12
guest 12
courtyard 12
Nor@@ 12
bility 12
adulthood 12
pretending 12
fireman 12
clo@@ 12
grapes 12
hollow 12
bleeding 12
receptors 12
overfishing 12
Mo@@ 12
specimens 12
ater 12
dent 12
utilitarian 12
dness 12
coupled 12
cro@@ 12
pped 12
Senator 12
fans 12
mer@@ 12
referring 12
starving 12
colonial 12
knit 12
adequate 12
Maria 12
Victorian 12
radiologists 12
hyper@@ 12
tizing 12
tre@@ 12
bearing 12
Area 12
OPEC 12
ols 12
hostility 12
Pope 12
preach 12
sins 12
teapot 12
Police 12
transfers 12
courageous 12
Ri@@ 12
89 12
pathogen 12
biomedical 12
assumes 12
yogurt 12
efficacy 12
ak@@ 12
import 12
Blair 12
Sin@@ 12
swept 12
sweating 12
lifelong 12
branding 12
collapsing 12
athletic 12
lessly 12
synapse 12
fleet 12
ridicule 12
gel 12
Starbucks 12
electro@@ 12
Neil 12
ow 12
boil 12
Eduardo 12
Garden 12
insult 12
extraction 12
cried 12
zer 12
compelled 12
explosions 12
collaborating 12
downhill 12
tortured 12
taxi 12
demonstrating 12
Mandarin 12
latter 12
refer@@ 12
attachment 12
aroused 12
psyche 12
providers 12
ro 12
reluctant 12
transnational 12
borrowing 12
propulsion 12
ten@@ 12
distress 12
1.4 12
pun@@ 12
ery 12
plugged 12
framing 12
du 12
ster 12
blues 12
recess 12
bury 12
Bal@@ 12
coll@@ 12
por@@ 12
insurgency 12
ries 12
ALS 12
firsthand 12
shook 12
crochet 12
Festival 12
colleges 12
oned 12
contemplate 12
sensations 12
centigrade 12
unified 12
promotes 12
monsters 12
mas@@ 12
Map 12
conflicting 12
Democrat 12
ulating 12
league 12
Anthony 12
forwards 12
dan@@ 12
Norwegian 12
82 12
efficiently 12
ill@@ 12
selectively 12
Cohen 12
JC 12
devote 12
memorable 12
Jo 12
Do@@ 12
vividly 12
reconstruction 12
His 12
Monologues 12
poop 12
rap@@ 12
fractals 12
Zambia 12
pottery 12
Eleanor 12
adjusted 12
plank 12
progressively 12
twisted 12
satisfying 12
RHex 12
peeling 12
pedal 12
boils 12
ny 12
sovereign 12
cru@@ 12
ire 12
Genome 12
Light 12
matic 12
charities 12
excites 12
recommended 12
backgrounds 12
Survey 12
biography 12
sighted 12
BP 12
rudder 12
ballast 12
upgrade 12
messing 12
Edison 12
ures 12
tolerant 12
Miami 12
Avenue 12
Mad@@ 12
geographical 12
baking 12
incubator 12
pirated 12
pickle 12
Gallery 12
differentiate 12
newest 12
tract 12
hes 12
neighboring 12
vicious 12
DDT 12
ok 12
T.B. 12
Conservation 12
foraging 12
chicks 12
cheaply 12
exports 12
land@@ 12
transplants 12
complexities 12
pluripotent 12
Americas 12
unsustainable 12
cal@@ 12
graduation 12
2,@@ 12
makeup 12
Critic 12
bred 12
evaporate 12
Clark 12
skydiving 12
geological 12
Baghdad 12
revenge 12
cello 12
plasticity 12
unicorn 12
syringe 12
treaties 12
moisture 12
64 12
ite 12
stri@@ 12
14th 12
penicillin 12
guts 12
virtues 12
prone 12
forgiveness 12
fulfilled 12
pastor 12
eh 12
irrigation 12
tripled 12
evolutionarily 12
smiley 12
conventions 12
throwaway 12
constituency 12
eted 12
acronym 12
oysters 12
Burma 12
dynamically 12
gal 12
Solar 12
sole 12
Newtonian 12
droplet 12
unexplored 12
pros@@ 12
carrots 12
ounce 12
ach@@ 12
simulating 12
Ac@@ 12
folder 12
diagnostics 12
Laboratory 12
prince 12
backing 12
Food 12
execute 12
manifestations 12
freedoms 12
acoustics 12
sting 12
constructions 12
spelling 12
chambers 12
Ali 12
Stanley 12
Rand 12
facilitate 12
cease 12
cardiovascular 12
flat@@ 12
denser 12
plutonium 12
persons 12
feasible 12
degrade 12
browse 12
regarded 12
ov@@ 12
axe 12
eless 12
accessing 12
carriers 12
stigma 12
readily 12
alities 12
dictators 12
fled 12
implementation 12
endlessly 12
documentation 12
rhetoric 12
MBI 12
millimeters 12
Building 12
balcony 12
cooled 12
psychopathic 12
Yemeni 12
Rose 12
embarrassment 12
combustion 12
hangers 12
energies 12
EEG 12
urgent 12
1992 12
Rockett 12
sweater 12
processors 12
eli@@ 12
unimaginable 12
ceramics 12
tragedies 12
veteran 12
primate 12
Economist 12
dispersed 12
90,000 12
napkin 12
bipolar 12
fried 12
Harlem 12
SM 12
tectonic 12
Energy 12
vibrations 12
Bollywood 12
ticking 12
aversion 12
banjo 12
TM 12
Accenture 12
jack 12
pornography 12
fry 12
ranges 12
inability 12
rupees 12
progeria 12
Doha 12
swam 12
Doh 12
cabin 12
Transition 12
dividend 12
hypertext 12
suburbia 12
calving 12
biomaterials 12
Hillis 12
cod 12
socket 12
Herbie 12
RD 12
liars 12
Redwoods 12
foragers 12
TBP 12
astrolabe 12
Bilbao 12
Station 11
Save 11
Styrofoam 11
instrumental 11
shores 11
persuaded 11
joins 11
indicator 11
critics 11
dwell 11
wiser 11
Network 11
converge 11
slippery 11
Le 11
ane 11
preliminary 11
sneak 11
Sao 11
asphalt 11
unemployed 11
ed@@ 11
mega 11
daycare 11
overseas 11
pioneers 11
sculptor 11
executives 11
Ethiopian 11
Mongolia 11
Give 11
cher 11
withstand 11
searched 11
stiff 11
Kismet 11
partisan 11
deadline 11
disagreement 11
cent@@ 11
overwhelmingly 11
disastrous 11
automotive 11
anticipation 11
neuroscientist 11
bypass 11
pal@@ 11
resonate 11
titanium 11
prop 11
embodiment 11
microseconds 11
emits 11
submersibles 11
melts 11
Alexandria 11
digitized 11
thunder 11
darn 11
collections 11
tended 11
spirituality 11
vitality 11
hem@@ 11
suite 11
my@@ 11
Douglas 11
membranes 11
grabbing 11
x@@ 11
genic 11
harvested 11
whatnot 11
swamp 11
intentionally 11
outs 11
worries 11
fountain 11
mil@@ 11
annoyed 11
dol@@ 11
contest 11
snail 11
Pants 11
participated 11
Water 11
echoes 11
puzzled 11
originated 11
fearless 11
invites 11
translations 11
Homer 11
troubling 11
Commission 11
headphones 11
stunning 11
mal@@ 11
trails 11
hurry 11
Picasso 11
implies 11
violation 11
wholeness 11
denied 11
mantra 11
longing 11
embody 11
Without 11
Westerners 11
grammar 11
simulations 11
differentiated 11
badge 11
sane 11
relieved 11
fusiform 11
dives 11
fin 11
tasty 11
counseling 11
pictured 11
requirement 11
deli@@ 11
trance 11
administrators 11
assured 11
innate 11
suppliers 11
Interface 11
WorldWide 11
bonuses 11
punished 11
motivations 11
Cultural 11
closes 11
1973 11
regain 11
54 11
symptom 11
yed 11
rehearsal 11
outstanding 11
aims 11
marathon 11
Macintosh 11
bles 11
sponsors 11
Nicholas 11
highlighted 11
Casey 11
exams 11
landfill 11
loaf 11
rotten 11
pale 11
buffer 11
imperfect 11
Ecuador 11
dyslexic 11
advertise 11
Jo@@ 11
suspected 11
subsequent 11
increments 11
JPL 11
0.@@ 11
dated 11
inflate 11
poisonous 11
Simpson 11
ke@@ 11
Sp@@ 11
aded 11
yell 11
59 11
verify 11
1800s 11
1987 11
fluids 11
dials 11
71 11
Could 11
joyful 11
bal@@ 11
practitioners 11
champagne 11
shredded 11
behaves 11
pper 11
removing 11
dip 11
hay 11
Gre@@ 11
neglect 11
di 11
ole 11
lest 11
Sch@@ 11
unfamiliar 11
15@@ 11
Sub 11
negatives 11
bis@@ 11
liter 11
discomfort 11
opposition 11
ums 11
rebel 11
trusting 11
yoga 11
buck 11
discount 11
freeway 11
emit 11
marriages 11
revelation 11
Natalie 11
corresponding 11
aff@@ 11
loyalty 11
licensed 11
injected 11
usable 11
ruling 11
begging 11
horribly 11
ires 11
vibrant 11
clicking 11
runway 11
ulation 11
catalyst 11
shoreline 11
ddy 11
Harbor 11
sion 11
Glass 11
Ste@@ 11
ell@@ 11
Pascal 11
arrange 11
Illinois 11
chefs 11
feathers 11
tearing 11
blessing 11
contractor 11
opaque 11
darker 11
forged 11
toothbrush 11
anomaly 11
assist 11
crappy 11
Take 11
sy 11
sleeve 11
purchasing 11
Group 11
dictator 11
ese 11
Ku@@ 11
teddy 11
subsequently 11
aids 11
hos@@ 11
grams 11
recruit 11
legally 11
duct 11
rowing 11
arranged 11
ls 11
reusable 11
tents 11
volunteered 11
iPhones 11
cab@@ 11
pedestrian 11
shave 11
nickname 11
bends 11
incorporate 11
Jacques 11
gamers 11
Ki@@ 11
underlies 11
tucked 11
psychiatry 11
Freud 11
latent 11
pains 11
arity 11
170 11
supernova 11
fueled 11
swarms 11
premature 11
vegetation 11
far@@ 11
Lucy 11
cing 11
Sue 11
pitched 11
Gar@@ 11
clarify 11
republic 11
dependency 11
1957 11
Norman 11
abyss 11
ventilation 11
ominous 11
autopsy 11
squ@@ 11
om 11
exploitation 11
mutilated 11
Rift 11
iled 11
rearrange 11
rectangle 11
royal 11
divorced 11
Game 11
Thanksgiving 11
stimulating 11
tourists 11
NT 11
reversal 11
toe 11
refrigerator 11
DL 11
amed 11
Gold 11
cleverly 11
sophistication 11
35,000 11
apprentice 11
ws 11
streaming 11
Computer 11
Helvetica 11
typeface 11
Page 11
desirable 11
tunnels 11
pinnacle 11
motivating 11
soda 11
welcomed 11
ella 11
ney 11
Ann 11
bla@@ 11
dotcom 11
fur@@ 11
fuss 11
accommodate 11
arc 11
plague 11
unpleasant 11
firstly 11
wreck 11
wellness 11
weighed 11
kers 11
Christopher 11
Rica 11
intestine 11
mildness 11
tore 11
recruited 11
antiretroviral 11
ineffective 11
treaty 11
Istanbul 11
uptake 11
plentiful 11
saves 11
heroism 11
serotonin 11
puffs 11
1988 11
marrow 11
restored 11
composers 11
smartphone 11
cured 11
bake 11
miraculous 11
Actor 11
unchanged 11
metrics 11
101 11
chan@@ 11
founders 11
Gary 11
pumping 11
Sam@@ 11
Film 11
protons 11
B.C. 11
filtered 11
legitimacy 11
toolbox 11
proteomics 11
bald 11
Bowl 11
ka 11
Fred 11
anecdote 11
thumbs 11
virtuous 11
brute 11
converting 11
Vivian 11
monarchy 11
Model 11
tickle 11
Skycar 11
redundancy 11
initiatives 11
log@@ 11
peek 11
Johns 11
cafeteria 11
Auschwitz 11
disturbed 11
villagers 11
vodka 11
courts 11
difficulties 11
prolific 11
starch 11
slaughter 11
studios 11
TR 11
ropes 11
Field 11
temptation 11
I.M. 11
fragrance 11
whistles 11
recreate 11
venues 11
pasted 11
Fine 11
palms 11
NYU 11
Shah 11
policymakers 11
transcendent 11
interrupt 11
dow@@ 11
crutches 11
I.Q. 11
sporting 11
shelters 11
) 11
Bach 11
drowned 11
mighty 11
tobacco 11
identifying 11
commitments 11
visits 11
grandma 11
sofa 11
2012 11
Taylor 11
bathtub 11
leukemia 11
windmill 11
gatherer 11
fascination 11
Cuban 11
sunglasses 11
flashlight 11
Choir 11
Hindi 11
rebellion 11
ats 11
threads 11
veiled 11
modernist 11
photosynthesis 11
800,000 11
peacekeepers 11
distracted 11
Nation 11
Victoria 11
detached 11
ut@@ 11
paradigms 11
masterpiece 11
Sk@@ 11
discrete 11
pavilion 11
improvising 11
expo 11
ventilated 11
sabbatical 11
dentist 11
deceased 11
assembling 11
Min 11
ethnicity 11
bomber 11
Six 11
petals 11
sponge 11
Gs 11
adore 11
payments 11
WHO 11
outlet 11
swallow 11
sobering 11
1974 11
catches 11
stimuli 11
genomic 11
publishers 11
Monkey 11
carcinogens 11
layered 11
slot 11
1.@@ 11
ric 11
reservations 11
inquiry 11
Beverly 11
marched 11
Worldchanging 11
Fab 11
Pass 11
scarcity 11
compress 11
autobiographical 11
extracting 11
Claus 11
401 11
seatbelts 11
Justice 11
tosses 11
Hamlet 11
casting 11
immersion 11
mum 11
Budapest 11
Potter 11
levers 11
Emmanuel 11
Guatemala 11
packaged 11
13th 11
1,600 11
lbs 11
dialed 11
geology 11
permit 11
tadpole 11
unthinkable 11
Barefoot 11
PS 11
diffuse 11
Zoe 11
deceptive 11
repository 11
saddle 11
JE 11
Najmuddin 11
pasting 11
bloodline 11
maze 11
GPHIN 11
immunization 11
kilogram 11
coumarin 11
Rezero 11
EB 11
Row 10
1940s 10
soluble 10
blooms 10
surf 10
poo 10
epidemics 10
ports 10
daytime 10
puppets 10
curiously 10
Judy 10
collaborated 10
ladder 10
eyesight 10
nylon 10
wh@@ 10
performer 10
averse 10
reformers 10
competitions 10
exaggeration 10
mystical 10
Fair 10
avoided 10
counterparts 10
resemblance 10
Am 10
tease 10
tensions 10
gen@@ 10
cleans 10
medieval 10
Whole 10
read@@ 10
iness 10
absorbs 10
resulting 10
unemployment 10
teen 10
home@@ 10
recyclable 10
handled 10
relies 10
growers 10
tackling 10
philanthropic 10
recovering 10
pellets 10
lers 10
Martha 10
expresses 10
declare 10
Seymour 10
tender 10
Initiative 10
mailing 10
Furby 10
Pa@@ 10
Pe@@ 10
eyebrows 10
lone 10
powerfully 10
freshwater 10
post@@ 10
arrogant 10
ini@@ 10
encourages 10
currencies 10
innocence 10
exquisitely 10
mediated 10
asymmetrical 10
legend 10
flick 10
ping 10
km 10
regards 10
stratosphere 10
cargo 10
technologically 10
but@@ 10
Rovers 10
750 10
Hole 10
doable 10
bets 10
benefited 10
reconnect 10
gourmet 10
locks 10
Por@@ 10
glaze 10
tallest 10
petroleum 10
manufactured 10
sugars 10
met@@ 10
rep@@ 10
cellulose 10
malleable 10
carrier 10
gasses 10
wakes 10
bells 10
diminished 10
solitary 10
pollinators 10
pollinate 10
whistled 10
comforting 10
flowering 10
advancement 10
Buy 10
domesticated 10
faiths 10
Crick 10
improbable 10
paintbrush 10
domination 10
repetition 10
sincere 10
complaint 10
benchmark 10
Sur@@ 10
compression 10
antidote 10
od@@ 10
dity 10
astro@@ 10
est@@ 10
istic 10
habitable 10
observable 10
2.3 10
lifting 10
wetlands 10
Super@@ 10
empathize 10
occasional 10
discourse 10
1979 10
absent 10
coup 10
inspirational 10
school@@ 10
exercises 10
centric 10
Girls 10
sufficiently 10
chiefs 10
pap@@ 10
Freudian 10
je@@ 10
interpreted 10
sel 10
breathtaking 10
imitating 10
twists 10
statisticians 10
41 10
blackboard 10
mit@@ 10
imp@@ 10
democracies 10
liability 10
ately 10
symbiosis 10
treats 10
La@@ 10
guests 10
Marx 10
Reserve 10
bombed 10
Doc 10
bribery 10
flash@@ 10
psycho 10
jo@@ 10
distinguished 10
Orchestra 10
Go@@ 10
degrading 10
emitting 10
halt 10
substrate 10
disc 10
dri@@ 10
Negroponte 10
secretary 10
schemes 10
molded 10
aling 10
Fortune 10
1850 10
departments 10
Qu@@ 10
prescribed 10
caregivers 10
aiming 10
gan@@ 10
empirical 10
unnecessary 10
16,000 10
oranges 10
fridge 10
internationally 10
Jurassic 10
sampled 10
Hell 10
classified 10
puff 10
Madison 10
protocols 10
wasteful 10
delightful 10
Ab@@ 10
ba 10
ki@@ 10
Juan 10
hazard 10
Fi@@ 10
Orange 10
regarding 10
superpowers 10
Estonia 10
webs 10
Incredible 10
intimidating 10
undersea 10
clicks 10
petition 10
haul 10
doom 10
En@@ 10
cian 10
guessing 10
astronomer 10
Klein 10
synthesizer 10
0.2 10
paperwork 10
ta@@ 10
bab@@ 10
Boeing 10
byproduct 10
wrestle 10
cortical 10
sage 10
monks 10
accumulated 10
HC 10
fra@@ 10
hunted 10
peril 10
interactivity 10
spells 10
1920s 10
wholly 10
borrowed 10
Mellon 10
sey 10
tinkering 10
updates 10
startup 10
momentous 10
occasions 10
kicks 10
hunch 10
kin@@ 10
ams 10
gin 10
Trust 10
filing 10
homosexuality 10
Ms. 10
whereby 10
solves 10
subsidize 10
Elephant 10
lar@@ 10
unding 10
ramp 10
gradual 10
suspension 10
Adams 10
Dawkins 10
supernatural 10
infamous 10
ripe 10
Hawking 10
concluded 10
financed 10
futures 10
Financial 10
ach 10
upwards 10
360 10
exporting 10
transmitter 10
dolls 10
injecting 10
seizure 10
behaved 10
feared 10
whisper 10
scar 10
spikes 10
aquatic 10
socks 10
alternate 10
threaten 10
Shi@@ 10
rests 10
charitable 10
deposit 10
ined 10
squirrel 10
Netflix 10
torch 10
Nashville 10
waving 10
cting 10
purchases 10
marble 10
avoiding 10
ken 10
connectomes 10
artificially 10
Au@@ 10
resurrection 10
Bureau 10
dar@@ 10
brainstorms 10
embed 10
fre@@ 10
Sousa 10
conceit 10
imprisoned 10
conducive 10
demanded 10
reminiscent 10
indicators 10
eternity 10
ack 10
Infinity 10
volatile 10
buyers 10
consumerism 10
serendipity 10
25th 10
intermediate 10
absorbing 10
uncover 10
activates 10
aspire 10
Davis 10
Kuwait 10
Austin 10
Mall 10
beep 10
deceive 10
Juliet 10
kidnapped 10
rogue 10
monetary 10
Hurricane 10
dam@@ 10
3.5 10
Cuba 10
enrolled 10
causal 10
virgin 10
zoning 10
banal 10
NK 10
ration@@ 10
hid 10
traded 10
audacity 10
smash 10
influential 10
resin 10
provocative 10
ani 10
woven 10
Kim 10
crafted 10
patches 10
decipher 10
concussion 10
legi@@ 10
adopting 10
Doctor 10
pursued 10
Kiki 10
shiny 10
Titan 10
astronauts 10
drifted 10
humane 10
attributed 10
imitate 10
polling 10
manageable 10
78 10
dam 10
lengths 10
gr@@ 10
Drake 10
Allan 10
Truth 10
resulted 10
Rosling 10
Ooh 10
Von 10
taxpayer 10
lip 10
Guinness 10
oftentimes 10
star@@ 10
inhibit 10
adi@@ 10
regulating 10
advocating 10
Scientific 10
exploited 10
Night 10
appointed 10
aimed 10
casual 10
Baby 10
analyses 10
monitors 10
intellectually 10
shoved 10
survives 10
ey@@ 10
Jeep 10
leaked 10
unfolds 10
four@@ 10
fences 10
12th 10
snack 10
crown 10
mmm 10
Old 10
Plato 10
Hillary 10
Mann 10
cowboy 10
analogies 10
joints 10
adhesive 10
vapor 10
scholar 10
jaws 10
floppy 10
On 10
bore 10
cou@@ 10
appointment 10
War@@ 10
Warcraft 10
railway 10
ducts 10
installing 10
outreach 10
amplify 10
Walmart 10
hospitality 10
flooded 10
ti 10
Giussani 10
Which 10
cleaners 10
appealed 10
RCA 10
mastered 10
Navy 10
Viking 10
unnatural 10
Highway 10
schizophrenic 10
remembers 10
arrives 10
dialog 10
disappointment 10
ben@@ 10
plumbing 10
hin@@ 10
modernism 10
O.K. 10
conceived 10
recline 10
outdoors 10
Kentucky 10
sword 10
whack 10
dealer 10
hat@@ 10
synthesized 10
Lynn 10
fused 10
waterborne 10
virulence 10
genital 10
burnt 10
portal 10
Celine 10
steep 10
agreements 10
hub 10
aggression 10
Me@@ 10
union 10
morph@@ 10
superintendent 10
advocacy 10
Prozac 10
bathe 10
circum@@ 10
casually 10
unsafe 10
randomized 10
curse 10
contagious 10
springs 10
incomes 10
champions 10
cally 10
emulate 10
acidification 10
marginalized 10
lifts 10
1,300 10
Bin 10
bit@@ 10
Kaluza 10
thickness 10
quarks 10
virgins 10
stakeholders 10
devise 10
Islamist 10
invisibility 10
ribs 10
Indo 10
1962 10
purchased 10
mop 10
thriving 10
flaws 10
pillow 10
shepherd 10
dered 10
19@@ 10
flame 10
respecting 10
rejection 10
definitions 10
Award 10
plugging 10
nails 10
Death 10
immersive 10
cleared 10
sun@@ 10
skyline 10
infrastructures 10
discrimination 10
garment 10
nuanced 10
TEDGlobal 10
eureka 10
constitutes 10
finest 10
delayed 10
rel@@ 10
Gapminder 10
heroin 10
Samuel 10
communism 10
toughness 10
spraying 10
by@@ 10
constructing 10
ils 10
crackers 10
probabilities 10
unconsciously 10
stealth 10
Ma 10
teeny 10
transporting 10
Cu@@ 10
Lu@@ 10
bot 10
batch 10
rat@@ 10
grape 10
faked 10
0.1 10
intractable 10
configurations 10
relying 10
twelve 10
considerably 10
embassy 10
Oklahoma 10
Morning 10
scratching 10
ax@@ 10
skepticism 10
geologists 10
bark 10
candles 10
Celsius 10
hats 10
align 10
Beatles 10
handshake 10
forbidden 10
aking 10
reconcile 10
sweep 10
fraud 10
unto 10
prioritize 10
Convention 10
600,000 10
presidents 10
Mozambique 10
Happy 10
creatively 10
gre@@ 10
boarding 10
costing 10
doubts 10
scattered 10
Leviathan 10
Sys 10
Admin 10
mast 10
Learning 10
lovers 10
bushes 10
advancing 10
iling 10
grasslands 10
stockpile 10
Lanka 10
settlements 10
softly 10
blindfold 10
cam@@ 10
enti@@ 10
rang 10
humanities 10
incidents 10
elling 10
proportions 10
ang@@ 10
canal 10
distortion 10
wastewater 10
communicable 10
Pitt 10
dissolved 10
parrot 10
Cassini 10
Enceladus 10
sandstone 10
encouragement 10
latitude 10
emitted 10
editorial 10
fitted 10
ver@@ 10
mist 10
mosses 10
ences 10
Icelandic 10
floats 10
Hills 10
lic@@ 10
maximize 10
Ryan 10
pigeons 10
plea 10
journeys 10
Mis@@ 10
-@@ 10
indirect 10
knocks 10
Huck 10
swollen 10
optimist 10
avert 10
remorse 10
fluorescent 10
reframe 10
Turk 10
tactile 10
reset 10
translators 10
trafficked 10
delivers 10
weaker 10
cortisol 10
princess 10
NIH 10
aligned 10
Dewey 10
sprawl 10
rehab 10
crushing 10
Linus 10
bases 10
encounters 10
efficiencies 10
Chuck 10
variants 10
confrontation 10
Kay 10
replica 10
Hawaiian 10
devils 10
smelling 10
pronounced 10
Sachs 10
Georgetown 10
fisherman 10
quar@@ 10
62 10
mystic 10
esoteric 10
st 10
Hotel 10
Esther 10
expenditure 10
provider 10
removes 10
cartilage 10
vitro 10
descend 10
tragically 10
shortest 10
Embassy 10
Things 10
CL 10
confession 10
ized 10
expenses 10
Lindbergh 10
rainbow 10
otherness 10
Ezra 10
Manchester 10
doubles 10
rooftops 10
Cleveland 10
impatient 10
Aspen 10
fashionable 10
synagogue 10
flex 10
upbeat 10
beaver 10
Commons 10
gadget 10
BMI 10
pardon 10
median 10
flute 10
deleted 10
arch 10
Prego 10
punchline 10
parasites 10
Robicsek 10
Mayan 10
molten 10
turbine 10
grilled 10
Alliance 10
Kerala 10
Gowanus 10
specialization 10
Marduk 10
crease 10
instructor 10
Mister 10
Splashy 10
cartoonists 10
Minto 10
Cargill 10
Nano 10
Mach 10
nonverbals 10
ST 10
Lucifer 10
pups 10
Alhambra 10
LOLcats 10
Jamaica 10
Okapi 10
buttermilk 10
briquettes 10
paints 9
PCBs 9
chocolates 9
EPA 9
compromised 9
sewage 9
Packard 9
fortunes 9
bunker 9
ghts 9
passively 9
giraffe 9
Horse 9
hind 9
St@@ 9
To@@ 9
mol@@ 9
democratization 9
betting 9
ong 9
ripping 9
catastrophes 9
imposing 9
uniforms 9
removal 9
payback 9
featured 9
gener@@ 9
formerly 9
yields 9
segregated 9
disparity 9
Talk 9
onic 9
organically 9
tomatoes 9
blending 9
stacked 9
belts 9
advised 9
shareholders 9
kits 9
Robotics 9
3,500 9
Kar@@ 9
regulated 9
favorable 9
stamps 9
saltwater 9
handouts 9
Nixon 9
pilgrimage 9
ambient 9
greeted 9
atively 9
Ter@@ 9
dedication 9
terabytes 9
cutter 9
penny 9
Wal@@ 9
Palestinians 9
pioneered 9
magicians 9
hum@@ 9
spongy 9
ber 9
diesel 9
gateway 9
downstream 9
carpenter 9
termites 9
squash 9
breathed 9
storing 9
compost 9
astonishingly 9
hives 9
Guard 9
movable 9
ade 9
Gro@@ 9
Kate 9
hurting 9
bites 9
starve 9
bloom 9
faithful 9
bumblebees 9
us@@ 9
prestige 9
reinforce 9
apex 9
curl 9
ethically 9
vegetarian 9
synchronize 9
ye 9
dation 9
ger@@ 9
mer 9
misunderstood 9
Mouse 9
Allah 9
Christianity 9
ministry 9
Devil 9
modalities 9
pel 9
ste@@ 9
fle@@ 9
Jew 9
Sciences 9
fond 9
Galaxy 9
stretching 9
inmates 9
Creek 9
Wildlife 9
spotted 9
boo@@ 9
ren@@ 9
oneness 9
limitless 9
exile 9
descended 9
Morocco 9
Sha@@ 9
analogous 9
ratios 9
gracefully 9
takeoff 9
ame 9
cin@@ 9
Col@@ 9
Maybe 9
addictive 9
perv@@ 9
seated 9
freshman 9
swallowed 9
salute 9
enlist 9
Protestant 9
transaction 9
zooming 9
2.@@ 9
participant 9
speculate 9
enjoyment 9
ignoring 9
mixes 9
experimentally 9
builders 9
liberate 9
restriction 9
wards 9
shattered 9
manuals 9
provinces 9
ara 9
Jose 9
intimately 9
sensibility 9
overcoming 9
prostitution 9
horrified 9
diagonal 9
misses 9
rug 9
cookbook 9
preferably 9
win@@ 9
gue 9
fan@@ 9
gled 9
sickness 9
compliance 9
CA@@ 9
scandal 9
provision 9
undertaking 9
wolf 9
Matthew 9
Harris 9
backup 9
tis 9
Bur@@ 9
investigative 9
diplomatic 9
cyber@@ 9
reciprocal 9
Ros@@ 9
evoke 9
valleys 9
dragon 9
Ernest 9
overboard 9
explorer 9
wilderness 9
pipelines 9
assault 9
ell 9
1800 9
requiring 9
68 9
atmospheres 9
sew 9
unk 9
contractions 9
bricks 9
life@@ 9
suppression 9
eruption 9
esses 9
ine@@ 9
bus@@ 9
tation 9
Boyle 9
crafting 9
enhances 9
advisers 9
ki 9
flips 9
freaks 9
sidewalks 9
Colombia 9
bubbling 9
inging 9
coldest 9
curvature 9
blinking 9
nerds 9
tapped 9
app@@ 9
demonstrates 9
prevailing 9
suspects 9
dissent 9
depleted 9
consumes 9
Darwinism 9
rocking 9
elegance 9
rationally 9
Was 9
1.1 9
mobilized 9
shattering 9
sto@@ 9
Edward 9
hypothetical 9
lacks 9
shorthand 9
Discovery 9
usions 9
wraps 9
turnover 9
kes 9
cious 9
TB 9
albeit 9
antibody 9
ables 9
sparks 9
vaccinated 9
salvation 9
ere 9
hijacked 9
treasure 9
def@@ 9
iting 9
curate 9
refueling 9
dge 9
insulation 9
presently 9
haunted 9
leaking 9
blo@@ 9
spawning 9
Pearl 9
Fo@@ 9
pp@@ 9
obtain 9
erased 9
rushing 9
detecting 9
goose 9
steroids 9
ducks 9
gle@@ 9
herbs 9
Pharaoh 9
Janine 9
prescriptions 9
districts 9
litigation 9
silenced 9
lease 9
monitored 9
activism 9
confusion 9
bathed 9
guiding 9
hooks 9
perceiving 9
Ahmed 9
strapped 9
play@@ 9
Announcer 9
Wil@@ 9
cassette 9
periphery 9
trillions 9
liberties 9
oars 9
psychologically 9
knots 9
Heroes 9
ishing 9
cholesterol 9
jerk 9
unreasonable 9
screwed 9
exterior 9
pres@@ 9
bully 9
antidepressants 9
arsenal 9
faded 9
bin@@ 9
stainless 9
pointer 9
bag@@ 9
interconnectedness 9
brink 9
applicable 9
groundbreaking 9
persuasive 9
revolutionized 9
Cornell 9
spherical 9
wool 9
contributors 9
vastness 9
Capgras 9
chap 9
damaging 9
aming 9
supplying 9
av@@ 9
focal 9
radiant 9
propensity 9
photons 9
eff@@ 9
atic 9
moons 9
slim 9
blades 9
Data 9
fireflies 9
hottest 9
colder 9
bounds 9
Houston 9
39 9
renaissance 9
placenta 9
myriad 9
ball@@ 9
lesions 9
ly@@ 9
substances 9
profiles 9
Penn 9
vertically 9
concerning 9
antly 9
audacious 9
suppressed 9
brutality 9
defy 9
atrocities 9
teens 9
greeting 9
An 9
blended 9
Asperger 9
decreased 9
bedtime 9
inheritance 9
coated 9
Friedman 9
illuminating 9
7th 9
possessed 9
PET 9
impairment 9
predominantly 9
bouncing 9
computations 9
treadmill 9
maneuverable 9
craters 9
milliseconds 9
1858 9
1928 9
biblical 9
rewarding 9
gum 9
bankrupt 9
Rhode 9
Android 9
stressful 9
allo@@ 9
advertisers 9
fare 9
Brunel 9
W. 9
embark 9
conversion 9
0 9
devotion 9
Mitchell 9
polish 9
turbulence 9
controllers 9
miniaturization 9
strengthen 9
glove 9
lawsuits 9
Intelligence 9
lyrics 9
Architecture 9
accomplishment 9
trail 9
awards 9
spam 9
missionary 9
inconsistent 9
dock 9
mailbox 9
menus 9
oll@@ 9
Mayor 9
submarines 9
bitten 9
probable 9
disadvantage 9
ker 9
365 9
seize 9
emperor 9
mortal 9
scrap 9
openly 9
DVDs 9
Han@@ 9
Cha@@ 9
elevators 9
ware 9
densities 9
collisions 9
TK 9
percentile 9
endemic 9
lon@@ 9
Nino 9
barcode 9
Balkans 9
Stalin 9
impacted 9
conquered 9
lumber 9
fun@@ 9
anchor 9
vow 9
eh@@ 9
Ottoman 9
zers 9
rebels 9
Ash@@ 9
binds 9
apathy 9
phen@@ 9
Star@@ 9
god@@ 9
sorrow 9
aka 9
reprogram 9
hype 9
aring 9
guesswork 9
Samaritan 9
smartphones 9
cherish 9
holidays 9
thinner 9
positives 9
nicer 9
gon@@ 9
pores 9
initiate 9
exhilarating 9
wn 9
climber 9
ascent 9
flapping 9
blanket 9
dissolve 9
Control 9
projector 9
Lebanese 9
Iraqis 9
Tel 9
Aviv 9
intertwined 9
CERN 9
spectral 9
ile 9
suspicion 9
marshmallow 9
Koreans 9
diplomats 9
interstate 9
landmines 9
powerless 9
edition 9
Jimmy 9
4th 9
undermining 9
Mal@@ 9
Naomi 9
idealism 9
= 9
brainer 9
qualify 9
650 9
monumental 9
inversion 9
defect 9
bioenergy 9
EU 9
notable 9
endeavors 9
ei@@ 9
pub 9
pos@@ 9
explosive 9
Germans 9
drone 9
draft 9
porn 9
Alley 9
massage 9
coil 9
sl@@ 9
decay 9
subset 9
Mobile 9
Jonathan 9
headlights 9
Maryland 9
Hopkins 9
insignificant 9
Divergence 9
examination 9
Tunisia 9
orb 9
Charlotte 9
prevented 9
tying 9
instrumentation 9
faculty 9
sexuality 9
Broadway 9
headset 9
consistency 9
thankful 9
top@@ 9
buyer 9
con 9
oli@@ 9
dispen@@ 9
Indiana 9
tapping 9
Midwest 9
skinny 9
estimation 9
seamlessly 9
collects 9
addict 9
monk 9
bleed 9
LOL 9
Jake 9
printers 9
detects 9
troop 9
decisive 9
admitted 9
CAT 9
orthopedic 9
treatable 9
fatigue 9
Randi 9
Brilliant 9
spectroscopy 9
charter 9
Carter 9
Everything 9
nau@@ 9
puzzling 9
reverberation 9
ast 9
melodies 9
hockey 9
lows 9
HAL 9
Licklider 9
disruption 9
untie 9
Rights 9
Left 9
intentioned 9
contacted 9
waterfront 9
regulatory 9
Home 9
Malawi 9
fluent 9
sculpting 9
Philippe 9
Dana 9
shutter 9
Boltzmann 9
crucially 9
fluctuation 9
impressions 9
after@@ 9
overview 9
hominid 9
descendants 9
solely 9
ATM 9
Ghraib 9
Plan 9
ari@@ 9
contractors 9
childbirth 9
brighter 9
Layma 9
poli@@ 9
policeman 9
Muhammad 9
cling 9
recurrent 9
intellectuals 9
extremists 9
dictatorship 9
veins 9
robe 9
Sanghamitra 9
skyrocketing 9
indifferent 9
rationality 9
gymnosophist 9
dads 9
nailed 9
cubes 9
pol@@ 9
filtering 9
chunky 9
Face 9
UE 9
Modern 9
1940 9
hoo 9
neo 9
metropolitan 9
corridors 9
2100 9
traction 9
rooftop 9
optic 9
hose 9
Tata 9
greed 9
88 9
PhD 9
succeeding 9
destined 9
outbreaks 9
churches 9
admired 9
pavement 9
flop 9
tapestry 9
ambassador 9
rebreather 9
Papua 9
joking 9
audition 9
lineage 9
priests 9
tires 9
smoothly 9
undergraduates 9
summarized 9
wrinkles 9
complications 9
3.3 9
1929 9
Tasmania 9
tailed 9
cloning 9
ivory 9
UC 9
blinded 9
desks 9
Really 9
muffin 9
tempting 9
mimicking 9
microfinance 9
Never 9
tism 9
devised 9
merchants 9
viewers 9
guesses 9
ecstasy 9
glance 9
Pink 9
testable 9
starlight 9
neuro 9
humanoid 9
acc@@ 9
arrowheads 9
vocational 9
ogram 9
Langley 9
Frederick 9
seller 9
ath 9
loc@@ 9
ee@@ 9
positioned 9
Pauling 9
cheeks 9
queerer 9
wavelengths 9
J. 9
opium 9
energetic 9
Ca@@ 9
Chandler 9
Gilbert 9
GB 9
earthquakes 9
illuminate 9
polluted 9
Serra 9
Glenn 9
rut 9
sniff 9
Rwandan 9
baked 9
scalable 9
regenerative 9
65,000 9
Goldman 9
mania 9
weeping 9
Ridge 9
thinker 9
utes 9
thereafter 9
blamed 9
Evelyn 9
acne 9
ja 9
Woody 9
Land 9
Willie 9
hun@@ 9
ast@@ 9
JM 9
Kiva 9
sec 9
astronaut 9
Turing 9
artifact 9
memetics 9
polymers 9
compiled 9
compiler 9
macho 9
51 9
kittens 9
Rufus 9
interacted 9
crave 9
Gould 9
Raleigh 9
lifestyles 9
futureless 9
weep 9
memorized 9
formations 9
aerodynamic 9
advent 9
Bedouin 9
Dravidian 9
traders 9
guessed 9
tuning 9
golfer 9
cubicle 9
contagion 9
megawatts 9
turbines 9
PRIZE 9
snuck 9
chemo 9
DMCA 9
whipped 9
Pool 9
feather 9
MBA 9
Muti 9
Kleiber 9
pension 9
fracking 9
Babbage 9
credibility 9
goofy 9
rotates 9
Main 9
blunt 9
tapestries 9
DM 9
hydrothermal 9
yin 9
skier 9
soprano 9
tornado 9
ka@@ 9
distraction 9
enhancement 9
stent 9
paycheck 9
O.C. 9
Queensland 9
styles 9
Missouri 9
Duolingo 9
potassium 9
quake 9
booking 9
240 9
encrypted 9
distractions 9
Fermi 9
Jabbar 9
kites 9
Git 9
skied 9
quorum 9
Prakash 9
pinch 8
interconnections 8
indi@@ 8
tible 8
Bs 8
juveniles 8
arctic 8
clogged 8
jams 8
surfers 8
ox@@ 8
vectors 8
Grove 8
perpetual 8
00 8
Helen 8
paw 8
struggles 8
1971 8
Mali 8
Theatre 8
canoe 8
alistic 8
thoroughly 8
ering 8
Once 8
tidal 8
coolest 8
networked 8
aggregated 8
dashboard 8
ama 8
confess 8
ene 8
workload 8
sociologists 8
migrant 8
corridor 8
bureaucracy 8
employers 8
livable 8
miners 8
alliance 8
impoverished 8
benefiting 8
buzz 8
defenses 8
gambling 8
enterprises 8
periodically 8
admission 8
striped 8
2000s 8
merit 8
Kofi 8
retrospect 8
commonplace 8
Verizon 8
Uruguay 8
dire 8
Min@@ 8
descent 8
pra@@ 8
No@@ 8
fr@@ 8
cynical 8
capitalists 8
hates 8
duc@@ 8
75,000 8
weddings 8
cist 8
awfully 8
ans@@ 8
relaxation 8
limbic 8
eyebrow 8
hail 8
Alps 8
disturb 8
neutrinos 8
monastery 8
librarians 8
pop@@ 8
attended 8
beta 8
scanners 8
Zen 8
NBC 8
Line 8
admiration 8
inf@@ 8
rot 8
footsteps 8
marking 8
Ge@@ 8
bursts 8
elle 8
oasis 8
bait 8
suitable 8
pesticide 8
xes 8
ians 8
hair@@ 8
packages 8
livelihood 8
beekeeping 8
inventive 8
knowledgeable 8
Wisconsin 8
nomadic 8
sampling 8
murdering 8
Dennis 8
weed 8
Holland 8
devi@@ 8
rehearse 8
ea 8
pollination 8
assisted 8
depicted 8
hybrids 8
videotape 8
silently 8
disseminate 8
dairy 8
wardly 8
creed 8
purity 8
Intelligent 8
fluke 8
Ganges 8
mentioning 8
ening 8
expansive 8
freshmen 8
trajectories 8
vantage 8
sped 8
stretches 8
prairie 8
ement 8
nationalism 8
grind 8
oddly 8
provoke 8
cruelty 8
1953 8
realist 8
feminism 8
portrayed 8
Salman 8
supplement 8
smiled 8
hints 8
Altos 8
humanize 8
bad@@ 8
hallucination 8
repetitive 8
mag@@ 8
itable 8
common@@ 8
tin@@ 8
undoubtedly 8
stir 8
celled 8
burglar 8
blinds 8
Pandora 8
starfish 8
Eye 8
cockroaches 8
Bahamas 8
specialty 8
Principle 8
Number 8
quarries 8
suited 8
dominating 8
reserved 8
constitutional 8
thering 8
considerable 8
assurance 8
fierce 8
tournament 8
transactions 8
depletion 8
contested 8
socialism 8
Yochai 8
microorganisms 8
Maps 8
eg@@ 8
sourced 8
registration 8
crane 8
pins 8
eps 8
Federal 8
prescribe 8
Afghans 8
worthless 8
eleven 8
delegation 8
the@@ 8
grinding 8
branching 8
anecdotes 8
Walt 8
correspondence 8
reconstructing 8
arthritis 8
new@@ 8
administrator 8
persists 8
Clinic 8
allowance 8
stats 8
unpack 8
feces 8
eri@@ 8
tr@@ 8
specimen 8
classify 8
modification 8
sorted 8
USB 8
IP 8
oth 8
solids 8
realms 8
scares 8
black@@ 8
pirates 8
Vice 8
Sta@@ 8
cyberspace 8
relay 8
fol@@ 8
superheroes 8
Spiderman 8
Hulk 8
ribbon 8
block@@ 8
sanctuary 8
multiplying 8
10@@ 8
3,@@ 8
Woman 8
0@@ 8
recharge 8
1966 8
phon@@ 8
technologist 8
1969 8
recommendation 8
Hewlett 8
rifle 8
hing 8
murderer 8
Tech 8
consultants 8
contextual 8
deprived 8
adaptability 8
energized 8
infused 8
Br 8
tasting 8
cooks 8
seaweed 8
buds 8
barbecue 8
IPCC 8
79 8
Anna 8
14,000 8
capturing 8
Cameroon 8
Vi@@ 8
obliged 8
punched 8
ab 8
blurry 8
interacts 8
chant 8
sailed 8
debates 8
immigration 8
Mexicans 8
tor@@ 8
immigrant 8
loosely 8
oma 8
salaries 8
Nigerians 8
messenger 8
ko@@ 8
flawed 8
democratized 8
blindly 8
shines 8
affordability 8
refine 8
downs 8
Bobby 8
allegedly 8
advis@@ 8
tactical 8
creationists 8
tactics 8
fu@@ 8
yer 8
parade 8
Ba@@ 8
straws 8
immortality 8
mismatch 8
dedicate 8
respectable 8
Metropolitan 8
belonged 8
privatization 8
predictability 8
gun@@ 8
inverted 8
ored 8
gh 8
motivator 8
immunized 8
influenza 8
proximity 8
lat@@ 8
binding 8
cri@@ 8
Generation 8
exclude 8
claiming 8
abusing 8
acy 8
Sal@@ 8
squatter 8
oppressed 8
bre@@ 8
consulting 8
epic 8
Justin 8
Sergey 8
updated 8
lings 8
booming 8
bidding 8
Sebastian 8
fragment 8
coloring 8
guides 8
prophets 8
whoa 8
magnetically 8
vendor 8
painters 8
spear 8
retaining 8
supplied 8
spoil 8
formulate 8
policemen 8
spun 8
summed 8
rationale 8
gavage 8
implicated 8
ished 8
Hampshire 8
crowdsource 8
targeting 8
impostor 8
off@@ 8
mutants 8
ego@@ 8
Lou 8
bitch 8
Jaws 8
Eddie 8
advertisement 8
handing 8
bou@@ 8
discriminate 8
listeners 8
mother@@ 8
distributions 8
ography 8
distort 8
Buddhism 8
cries 8
Hello 8
Wo@@ 8
butterfly 8
judged 8
gling 8
consultant 8
resourceful 8
pathetic 8
contaminate 8
check@@ 8
separates 8
enforced 8
silos 8
Phase 8
geneticist 8
correlations 8
weakness 8
castle 8
eting 8
cam 8
simplified 8
inherit 8
Tr@@ 8
heart@@ 8
chooses 8
circus 8
claw 8
collectors 8
cliche 8
dis 8
metallic 8
ctive 8
urbanization 8
appetite 8
cut@@ 8
wel@@ 8
cabinets 8
circled 8
objectives 8
7.@@ 8
With 8
unleash 8
fists 8
ll@@ 8
bloodstream 8
chemically 8
Reef 8
uterus 8
excruciating 8
angular 8
downside 8
schematic 8
plaque 8
runaway 8
Bonobos 8
flakes 8
mash 8
Ohio 8
Capitol 8
dysfunction 8
solvable 8
provoked 8
1958 8
unison 8
splitting 8
synchronized 8
pacemaker 8
cles 8
lasers 8
rhythmic 8
gle 8
witnesses 8
comfortably 8
breeds 8
pests 8
conserve 8
charismatic 8
mainland 8
Inconvenient 8
lateral 8
scrotum 8
underside 8
colonization 8
1908 8
manned 8
joy@@ 8
Ansari 8
commercially 8
harmless 8
metastases 8
lic 8
interactively 8
masterpieces 8
Think 8
ven@@ 8
TEDx 8
alibi 8
eyewitness 8
inference 8
speculation 8
slightest 8
attending 8
suppressing 8
pee 8
rampant 8
Cre@@ 8
overheard 8
altar 8
sacrifices 8
bullying 8
Gal@@ 8
Sutherland 8
adaptable 8
popcorn 8
circumstance 8
porous 8
nanometers 8
billionth 8
nanoparticles 8
revolutionize 8
Know 8
Code 8
wirelessly 8
dime 8
dictate 8
permits 8
ae 8
Velcro 8
thermodynamics 8
ser 8
absorption 8
ammonia 8
admitting 8
hosted 8
complication 8
dentists 8
overload 8
conjunction 8
sweetness 8
marvel 8
symbiotic 8
hatch 8
break@@ 8
assistants 8
RO@@ 8
monument 8
cky 8
fores@@ 8
dropout 8
leveraged 8
tweak 8
sticker 8
J.@@ 8
feasibility 8
ured 8
Circle 8
ser@@ 8
Burger 8
ful@@ 8
ght 8
unleashed 8
Pen@@ 8
decreasing 8
Environment 8
McLuhan 8
insula 8
pyramids 8
accountants 8
wrapping 8
news@@ 8
welcoming 8
goggles 8
interiors 8
styling 8
knob 8
fertile 8
employer 8
swings 8
preoccupied 8
chat@@ 8
1.8 8
istan 8
sneakers 8
piracy 8
ading 8
decoration 8
fabricate 8
diarrheal 8
yep 8
Vibrio 8
anyhow 8
knocking 8
tations 8
prostheses 8
1912 8
prosthesis 8
dull 8
gri@@ 8
questionable 8
reviewing 8
4.6 8
zinc 8
undermine 8
Seoul 8
routes 8
ga 8
Gaza 8
vy 8
loyal 8
Azerbaijan 8
therapeutic 8
activating 8
MR 8
nesting 8
celebrities 8
rabbi 8
geneticists 8
transplantation 8
executed 8
key@@ 8
dismissed 8
predictive 8
abdomen 8
chew 8
plots 8
marital 8
towels 8
swinging 8
breaker 8
instantaneously 8
Marc 8
adaptations 8
staged 8
sediments 8
Na@@ 8
warmed 8
1954 8
gran@@ 8
bombings 8
horrifying 8
logically 8
unions 8
theaters 8
holder 8
Geneva 8
rubbish 8
kidnapping 8
autumn 8
uncommon 8
confirmation 8
dissonance 8
Should 8
inclusion 8
captivity 8
Freedom 8
Pollock 8
excavate 8
diagnosing 8
extraterrestrial 8
remark 8
brass 8
alls 8
dental 8
dummy 8
vain 8
exp@@ 8
laureates 8
liberating 8
wo@@ 8
paraphrase 8
Sinclair 8
wildest 8
stewardship 8
affluence 8
quantify 8
orphans 8
NFL 8
vaccinate 8
Augustine 8
altering 8
Self 8
giants 8
valuing 8
fostered 8
UK 8
Portuguese 8
Will 8
drones 8
tossed 8
cos@@ 8
Administration 8
disposable 8
broaden 8
adage 8
BPA 8
atives 8
biodegradable 8
ular 8
losers 8
77 8
Nancy 8
inhibited 8
relating 8
initiated 8
bombar@@ 8
utilize 8
fetched 8
donating 8
girlfriends 8
Copernican 8
charming 8
1500 8
rebuilt 8
barren 8
geologic 8
regrow 8
armor 8
litter 8
epoxy 8
implicit 8
Betty 8
migrated 8
Bayes 8
Eisenhower 8
Next 8
violated 8
bargain 8
FedEx 8
packet 8
exceeds 8
Advanced 8
cible 8
tempted 8
ffs 8
smelled 8
gauge 8
progressing 8
dazzling 8
overweight 8
spears 8
thr@@ 8
Cap@@ 8
curtain 8
audi@@ 8
consist 8
mobs 8
rainy 8
Hunt 8
Fall 8
1956 8
Whitney 8
posing 8
hertz 8
hubris 8
stein 8
inclined 8
posting 8
blu@@ 8
semester 8
examining 8
dom@@ 8
stethoscope 8
stripes 8
proceeded 8
preacher 8
battling 8
glorified 8
gentler 8
mercy 8
jealousy 8
foreplay 8
Management 8
arenas 8
lander 8
Marilyn 8
agonizing 8
105 8
straps 8
grand@@ 8
compiling 8
canary 8
placement 8
nationwide 8
tionally 8
Volvo 8
cassava 8
sunshine 8
thanked 8
sermon 8
billboards 8
ment@@ 8
dilute 8
augment 8
( 8
modifying 8
hab@@ 8
rails 8
theorist 8
peacock 8
vest 8
licenses 8
asses 8
opponent 8
Marines 8
relaxing 8
modernity 8
oppression 8
sari 8
Malcolm 8
Kaaba 8
skeptics 8
inland 8
Oz 8
womb 8
downward 8
negotiated 8
Ram 8
eness 8
pharmacy 8
87 8
tempo 8
spoon 8
ratings 8
amidst 8
darkest 8
elastic 8
tidy 8
Norse 8
Julius 8
org 8
diver 8
wingsuit 8
Vs 8
missiles 8
topography 8
Paula 8
sentiments 8
Coach 8
deposited 8
reclaim 8
doomed 8
Mus@@ 8
crammed 8
dresses 8
irrespective 8
te@@ 8
divinity 8
rodeo 8
timely 8
700,000 8
Bra@@ 8
proudly 8
juggler 8
alignment 8
flan@@ 8
temperate 8
tropics 8
stripping 8
enlightenment 8
kicking 8
Farm 8
Protection 8
Nathaniel 8
Kahn 8
presume 8
anticipating 8
inception 8
forger 8
epidemiology 8
contradictions 8
raft 8
Medicines 8
Alberto 8
clones 8
Encyclopedia 8
jum@@ 8
demonstrations 8
chers 8
jargon 8
governs 8
listener 8
courtship 8
pig@@ 8
Newcastle 8
underestimated 8
enjoys 8
Twain 8
mockingbird 8
wa 8
hippie 8
Oakland 8
pping 8
barn 8
mounting 8
orient 8
Chopin 8
colon 8
summaries 8
Mechanical 8
unhappiness 8
slows 8
uniformly 8
M. 8
joystick 8
Denisovans 8
Niger 8
depres@@ 8
sunk 8
men@@ 8
advise 8
Airport 8
blur 8
duction 8
220 8
contempt 8
multicultural 8
som@@ 8
bolt 8
heap 8
Pradesh 8
hump 8
Mauritius 8
ises 8
stranded 8
brightest 8
Umar 8
crocodiles 8
parallels 8
poaching 8
continual 8
extremist 8
prosperous 8
geeky 8
sman 8
excluded 8
resident 8
Mur@@ 8
desired 8
droughts 8
Florence 8
exhibitions 8
Ranger 8
cited 8
ari 8
Chad 8
hillside 8
fixes 8
occurrence 8
amoeba 8
elevated 8
mutilation 8
marketers 8
Rumi 8
debut 8
Is@@ 8
powering 8
District 8
lentils 8
Tiger 8
work@@ 8
hominids 8
uninterrupted 8
3.@@ 8
administrative 8
acuity 8
cot 8
tabletop 8
incorrect 8
decreases 8
2D 8
Thatcher 8
Dennett 8
forage 8
dian 8
Bulgaria 8
biking 8
Char@@ 8
complaints 8
raining 8
visceral 8
glider 8
shard 8
hectare 8
greedy 8
supplements 8
sand@@ 8
crest 8
exhibits 8
del 8
uphill 8
ek 8
wiping 8
comets 8
converts 8
warheads 8
motivators 8
societal 8
ase 8
sewers 8
electrified 8
chairman 8
Patent 8
sovereignty 8
massacre 8
Karajan 8
handwriting 8
outliers 8
homicide 8
Huntington 8
bottleneck 8
sunfish 8
testes 8
convictions 8
Orion 8
Anonymous 8
ravaged 8
cho@@ 8
relentless 8
temples 8
Cash 8
poachers 8
forums 8
Sex 8
newborn 8
biomaterial 8
plaster 8
allocation 8
Kir@@ 8
Lyndon 8
Dodgers 8
NO 8
Greenpeace 8
exchanges 8
hemispheres 8
yum 8
hear@@ 8
Us 8
Bess 8
drain 8
toast 8
magnesium 8
Shreddies 8
tokens 8
subjected 8
asthmatic 8
sculptural 8
mistrust 8
chords 8
Fraser 8
Eames 8
crater 8
nominate 8
Jordans 8
darkly 8
porch 8
Chaz 8
KIPP 8
Derartu 8
Tulu 8
Torosaurus 8
rejuvenation 8
midden 8
Durga 8
momma 7
1932 7
canning 7
unk@@ 7
breastfeeding 7
sewer 7
genus 7
algal 7
polluting 7
clocks 7
psychic 7
rated 7
lag 7
ur 7
ridden 7
lid 7
choreographer 7
skeletons 7
handmade 7
fearful 7
He@@ 7
Index 7
Environmental 7
Pres@@ 7
aggregating 7
seeks 7
Ver@@ 7
pandemics 7
1939 7
establishing 7
icy 7
IM@@ 7
cognitively 7
legendary 7
Program 7
maneuver 7
immigrants 7
nursery 7
Head 7
incarceration 7
Foods 7
teamwork 7
mined 7
residue 7
poisoned 7
traumatized 7
vets 7
Br@@ 7
gated 7
malls 7
cherry 7
18,000 7
interplay 7
screwing 7
ditch 7
Annan 7
dual 7
rugged 7
readable 7
vanilla 7
invading 7
microprocessor 7
pennies 7
communicates 7
communicated 7
aus@@ 7
Cynthia 7
747 7
dens 7
outweigh 7
liber@@ 7
mustn 7
paradoxically 7
filthy 7
Heidi 7
comprehension 7
tedious 7
ini 7
lesser 7
heightened 7
bundle 7
informs 7
embarked 7
secondhand 7
neutrino 7
shack 7
Shelf 7
McMurdo 7
let@@ 7
launches 7
apper 7
barefoot 7
observatory 7
arian 7
megabyte 7
Pond 7
Services 7
Goldberg 7
she@@ 7
Woods 7
archives 7
niches 7
takers 7
rollers 7
CBS 7
serenity 7
tenacious 7
fir@@ 7
dusty 7
erec@@ 7
rotting 7
micros@@ 7
inhal@@ 7
stomachs 7
sentient 7
archetype 7
wastes 7
A.D. 7
metaboli@@ 7
.org 7
chased 7
repel 7
elled 7
savanna 7
stark 7
rake 7
gravel 7
Disorder 7
nicest 7
diner 7
asi@@ 7
meadows 7
dries 7
chu@@ 7
ph 7
southeast 7
Rotterdam 7
dwarf 7
bean 7
conserved 7
Power 7
ids 7
reassure 7
Yorkers 7
MP3 7
irreversible 7
hardworking 7
eloquently 7
proposals 7
flocks 7
cleverer 7
Martian 7
infects 7
submission 7
creationism 7
61 7
eth@@ 7
modality 7
peripheral 7
rudimentary 7
soundtrack 7
ak 7
churn 7
sur@@ 7
banging 7
merged 7
colliding 7
Monet 7
Fish 7
max 7
bleak 7
violating 7
kisses 7
cite 7
confirms 7
cycling 7
Persian 7
reunited 7
outsider 7
recreating 7
depict 7
repeats 7
Committee 7
SK 7
hedge 7
derivative 7
estimating 7
humanizing 7
Calcutta 7
summers 7
Boys 7
oblivious 7
Tell 7
midair 7
Kermit 7
Frog 7
deformed 7
junction 7
familiarity 7
associations 7
OS 7
fireworks 7
bodied 7
shooter 7
trawling 7
bes 7
thorough 7
preceding 7
cruise 7
quarry 7
conversely 7
crossroads 7
supercomputers 7
mythic 7
gloomy 7
aters 7
sourcing 7
trustworthy 7
Tor@@ 7
ctives 7
protests 7
Descartes 7
redefining 7
Market 7
telepresence 7
Nice 7
shredder 7
IKEA 7
narration 7
porridge 7
Delta 7
compensate 7
restrictive 7
stresses 7
dic@@ 7
Philharmonic 7
conversational 7
impe@@ 7
Senegal 7
acquiring 7
ference 7
whispering 7
dexterity 7
fracture 7
discharge 7
Y2K 7
boomers 7
Catherine 7
Actually 7
Vienna 7
ick 7
brochure 7
sen@@ 7
achievable 7
cures 7
noses 7
green@@ 7
bins 7
confronting 7
colossal 7
proxy 7
intake 7
approximate 7
plotted 7
inspec@@ 7
depositing 7
cosmetic 7
Ten@@ 7
testicles 7
nutritious 7
gar 7
roadside 7
embryos 7
amber 7
ich 7
thigh 7
exchanging 7
sy@@ 7
formulas 7
Fluctus 7
underworld 7
goddess 7
Fran@@ 7
Cartesian 7
coordinates 7
accelerator 7
orbits 7
00@@ 7
San@@ 7
defensive 7
critter 7
inflated 7
Mid 7
kelp 7
Tahltan 7
ena 7
grizzly 7
farthest 7
shaman 7
unborn 7
9,@@ 7
calendars 7
66 7
retrieve 7
outlined 7
hau@@ 7
aps 7
coincidentally 7
jewel 7
possessions 7
bert 7
hus@@ 7
gging 7
carni@@ 7
consisted 7
tifying 7
SPECT 7
signaling 7
trainer 7
From 7
Innovation 7
Stuart 7
flavors 7
dessert 7
hamburgers 7
sour 7
oms 7
chatter 7
rested 7
correspon@@ 7
footnote 7
ford 7
domains 7
casts 7
locate 7
crisp 7
McCain 7
introduces 7
mangoes 7
Locke 7
Psycho 7
enhancing 7
gurus 7
orizing 7
radiologist 7
Watch 7
shaky 7
exercising 7
scribble 7
14@@ 7
pessimistic 7
spans 7
ckers 7
immoral 7
splendid 7
edly 7
atheism 7
preaching 7
negatively 7
sin@@ 7
See 7
cate 7
clari@@ 7
socio 7
financing 7
chy 7
pediatrician 7
Sagan 7
subscribe 7
Economic 7
prosecuted 7
Finance 7
4,500 7
telecoms 7
Beatrice 7
starved 7
telegraph 7
aus 7
vanity 7
retrieval 7
frameworks 7
mutates 7
trumpet 7
mutate 7
Rock 7
variant 7
homage 7
Idris 7
ass@@ 7
band@@ 7
dysfunctional 7
imported 7
neglected 7
tyranny 7
clicked 7
Iron 7
aspirational 7
journalistic 7
main@@ 7
climat@@ 7
copy@@ 7
sli@@ 7
clam 7
preparedness 7
oily 7
ample 7
P. 7
spilled 7
bailout 7
gym 7
circulate 7
bounces 7
hyperbole 7
tz 7
slaughtered 7
wholesale 7
doorstep 7
scrutiny 7
Education 7
mal 7
bloop 7
succeeds 7
Er@@ 7
barbaria 7
radic@@ 7
wanna 7
Lost 7
workings 7
glued 7
My@@ 7
Lin@@ 7
E.T. 7
III 7
sho@@ 7
bosses 7
publicity 7
ranked 7
protesting 7
min 7
Spe@@ 7
Emma 7
causality 7
outskirts 7
Mahabharata 7
Tibetan 7
meditate 7
Axis 7
freaking 7
Ger@@ 7
Marco 7
weaknesses 7
gam@@ 7
salts 7
noon 7
IRA 7
rowed 7
Brits 7
flung 7
segments 7
voluntarily 7
mosquitos 7
computable 7
Z. 7
dig@@ 7
ometric 7
blueprints 7
scape 7
sensuality 7
olo@@ 7
baskets 7
numbered 7
sanity 7
Kids 7
loneliness 7
tish 7
reversed 7
Cousteau 7
dice 7
Pixar 7
ridiculed 7
avatars 7
deathbed 7
vanished 7
renamed 7
congratulations 7
biting 7
val@@ 7
interstellar 7
dissipate 7
pin@@ 7
Derek 7
alleviate 7
inflection 7
symbolized 7
proton 7
Swahili 7
groom 7
ona 7
rotated 7
bi 7
mashed 7
burrow 7
shi@@ 7
bureaucrats 7
ishes 7
conquer 7
shocks 7
incoherent 7
Malaysia 7
navigating 7
spectacle 7
Guide 7
Study 7
heavier 7
economical 7
Gen 7
eled 7
geeks 7
bleep 7
applaud 7
Voyager 7
retreated 7
elliptical 7
three- 7
Bezos 7
supersonic 7
defects 7
Ju@@ 7
dah 7
biopsies 7
encies 7
teas 7
P.C. 7
forensic 7
opposing 7
accustomed 7
enforce 7
risked 7
clitoris 7
possession 7
mound 7
ashes 7
Hugo 7
Bro@@ 7
bloated 7
Utah 7
Tolstoy 7
vine 7
windshield 7
coating 7
breakup 7
jealous 7
peaked 7
Nikola 7
,@@ 7
humiliation 7
Bel@@ 7
hyperactivity 7
precursor 7
thrill 7
pede 7
perfected 7
RF 7
combines 7
sprayed 7
190 7
pitching 7
outset 7
hugging 7
lec@@ 7
surveyed 7
saddest 7
mush 7
isolate 7
Lisa 7
PSA 7
amplified 7
finger@@ 7
summoned 7
seduced 7
Bot@@ 7
comedian 7
waits 7
cau@@ 7
earth@@ 7
halves 7
intersect 7
gradient 7
Daddy 7
Petersburg 7
relocated 7
bothers 7
confessed 7
retreating 7
teamed 7
carts 7
capit@@ 7
purpos@@ 7
Album 7
lays 7
slap 7
credited 7
intern@@ 7
crayons 7
Pete 7
investigations 7
Engelbart 7
Veterans 7
ethos 7
connective 7
Croatia 7
Geoffrey 7
Purple 7
unaware 7
metaphorically 7
Pre@@ 7
hydrant 7
Italians 7
righting 7
temporarily 7
duplicate 7
cushions 7
distributes 7
northeastern 7
ories 7
Atlas 7
actress 7
gru@@ 7
organizers 7
S. 7
evangelical 7
um@@ 7
Gothic 7
limiting 7
frac@@ 7
tray 7
mills 7
Disease 7
bullets 7
borne 7
Authority 7
motorized 7
authorized 7
Cruz 7
uninhabited 7
distill 7
Turbo 7
reside 7
hubs 7
rebound 7
cus 7
originate 7
branded 7
conduit 7
prophecy 7
thetic 7
electoral 7
mediate 7
assay 7
Ritalin 7
bathing 7
pancreas 7
ency 7
cocktails 7
Portland 7
pit@@ 7
Cities 7
averages 7
guinea 7
debating 7
ank 7
decode 7
tinker 7
nugget 7
inserted 7
optically 7
igniting 7
complementary 7
troubles 7
cheetah 7
Fer@@ 7
ru@@ 7
biom@@ 7
hierarchical 7
Myhrvold 7
glide 7
oceanic 7
LL 7
drilled 7
Ur@@ 7
acidic 7
pun 7
eer 7
Josh 7
Bas@@ 7
redefined 7
Chen 7
curled 7
constituents 7
filament 7
vibrational 7
slam 7
Beau 7
diverge 7
personi@@ 7
storytellers 7
clou@@ 7
wildly 7
unveil 7
24,000 7
Hispanic 7
ct@@ 7
conceptually 7
agreeing 7
rounds 7
ai 7
secrecy 7
centrifuge 7
ther@@ 7
gripping 7
mercury 7
gic 7
stor@@ 7
uns@@ 7
oked 7
generative 7
USC 7
Motor 7
Karen 7
idealistic 7
waist 7
AMD 7
lowering 7
illiteracy 7
NBA 7
idiots 7
episodes 7
Mubarak 7
hurdle 7
motel 7
ddled 7
throne 7
pic@@ 7
quoting 7
red@@ 7
Then 7
Dis@@ 7
Iowa 7
unmanned 7
yers 7
handheld 7
petrochemicals 7
disproportionately 7
volantor 7
holders 7
horsepower 7
itor 7
T.V. 7
toxicity 7
formaldehyde 7
viewpoints 7
fidelity 7
microalgae 7
photo@@ 7
nationality 7
facilitated 7
sta@@ 7
propri@@ 7
coffeehouse 7
recurring 7
chim@@ 7
notoriously 7
Soviets 7
Je@@ 7
latte 7
Hungary 7
dine 7
localized 7
embarrass 7
Gail 7
Keene 7
untouched 7
ur@@ 7
universality 7
UNAIDS 7
ati@@ 7
Mercedes 7
grappling 7
dissect 7
ish@@ 7
Kevlar 7
sober 7
West@@ 7
revisit 7
gluten 7
leaven 7
bingo 7
virulent 7
shuts 7
Pop 7
nuns 7
&apos;am 7
beg 7
Palm 7
taps 7
FM 7
ety 7
shalt 7
templates 7
imperson@@ 7
adversaries 7
sulfuric 7
recreation 7
cture 7
pasta 7
Pei 7
compliment 7
retailers 7
Riverside 7
organizer 7
Lauren 7
risen 7
precipit@@ 7
fertilizers 7
parable 7
ands 7
AT 7
Opera 7
Feel 7
tages 7
Lucas 7
whaling 7
adrenaline 7
overlapping 7
wacky 7
materialistic 7
81 7
nat@@ 7
saliva 7
Dec@@ 7
linguists 7
lend 7
amused 7
suns 7
63 7
cheek 7
drip 7
liters 7
ometer 7
ji 7
mistaken 7
Richards 7
Bosnian 7
Rory 7
necks 7
Fildes 7
bunk 7
Farmer 7
Buick 7
Katie 7
13.7 7
peacefully 7
stuffed 7
costumes 7
Ren@@ 7
fringes 7
af@@ 7
upsetting 7
dubbed 7
kinder 7
Wonder 7
oring 7
gist 7
Other 7
tivity 7
momentarily 7
selfishness 7
merry 7
venue 7
aria 7
Joplin 7
microphones 7
Che@@ 7
podium 7
seventeenth 7
Wurman 7
dru@@ 7
anyways 7
augmentation 7
disrupt 7
barbaric 7
incompatible 7
thoughtful 7
deemed 7
trafficking 7
tured 7
paved 7
creations 7
chatting 7
Victor 7
Chevy 7
sculpted 7
usion 7
bullshit 7
screamed 7
divides 7
mod@@ 7
tic@@ 7
dest 7
Explorer 7
fingernails 7
rounded 7
restrictions 7
stool 7
antennas 7
Ram@@ 7
breeze 7
Sar@@ 7
accord 7
righteous 7
heartbreak 7
Sacramento 7
pious 7
Islamism 7
muse 7
nurtured 7
leaf@@ 7
tar@@ 7
displacement 7
Tamil 7
cle@@ 7
Ian 7
vis@@ 7
ham@@ 7
supporters 7
reforestation 7
egos 7
labyrinth 7
ologies 7
param@@ 7
Future 7
Indra 7
Over 7
hotspot 7
call@@ 7
dum 7
Music 7
hacked 7
individu@@ 7
K. 7
cali@@ 7
irregular 7
minim@@ 7
comparative 7
superficial 7
climbs 7
franchise 7
fications 7
carving 7
Nope 7
academy 7
Ha 7
aboard 7
uring 7
Christina 7
skyscrapers 7
Girl 7
Party 7
overlooking 7
lush 7
funky 7
drying 7
handbags 7
paused 7
LC 7
ammunition 7
spi@@ 7
Kal@@ 7
stripe 7
jumble 7
congre@@ 7
corrupted 7
kno@@ 7
Ladenism 7
.C. 7
Climate 7
humorous 7
stain 7
elect 7
appreciating 7
teachings 7
dizzy 7
migrating 7
anthrax 7
mitigate 7
baloney 7
Laurie 7
ahh 7
mp@@ 7
motto 7
epiphytes 7
ops 7
tadpoles 7
disclosure 7
protesters 7
brainwaves 7
gossip 7
cylinders 7
polarized 7
refrigerators 7
eter 7
trans 7
GM 7
tran@@ 7
forgery 7
interro@@ 7
Cage 7
ppers 7
weakest 7
guru 7
veg 7
dd@@ 7
ridiculously 7
withheld 7
curtains 7
enriched 7
dos 7
captive 7
Brand 7
pathogenic 7
flux 7
staple 7
Lunch 7
Treasure 7
watering 7
costume 7
gelatin 7
recommendations 7
constru@@ 7
jun@@ 7
kil@@ 7
thirst 7
bread@@ 7
eries 7
megawatt 7
deconstruct 7
piss 7
trivia 7
backstage 7
riders 7
Brent 7
ining 7
psych@@ 7
Lear 7
blockbuster 7
tains 7
Hippocrates 7
Marie 7
tur@@ 7
listing 7
categorize 7
Half 7
Mohamed 7
pie@@ 7
phoned 7
obligations 7
widening 7
sculpt 7
Dai 7
Manju 7
preference 7
destroys 7
conceivable 7
celebrations 7
integral 7
offset 7
customs 7
Snow 7
Pine 7
coronary 7
Campaign 7
gaga 7
correction 7
turret 7
foreman 7
drastic 7
va 7
interval 7
LP 7
unethical 7
vaccination 7
logistics 7
buffalo 7
eful 7
sergeant 7
sectarian 7
Fiji 7
Globe 7
fla@@ 7
hearted 7
epileptic 7
arrays 7
ctor 7
beforehand 7
orphaned 7
quadruple 7
turbulent 7
retrospective 7
trophy 7
Britannica 7
fooling 7
Carol 7
pessimism 7
Gabriel 7
uploading 7
Hyderabad 7
ited 7
mater 7
ko 7
propeller 7
Ke@@ 7
harming 7
Hunter 7
beads 7
Daphne 7
inexhaustible 7
lacked 7
Ear@@ 7
explodes 7
interpreting 7
incentivize 7
approximation 7
devastation 7
investor 7
person@@ 7
Selam 7
Sargasso 7
Heritage 7
bycatch 7
Census 7
vitamins 7
reboot 7
mandatory 7
freezes 7
oh@@ 7
Rosie 7
bots 7
Origin 7
Species 7
fatalities 7
anonymity 7
seismic 7
hy 7
dle 7
350,000 7
appliance 7
censored 7
censor 7
Aha 7
microblogging 7
remedy 7
tim@@ 7
osh 7
deflation 7
pulmonary 7
Robin 7
CC 7
fabricated 7
hmm 7
mute 7
sm@@ 7
Men@@ 7
coaches 7
dataset 7
Dark 7
giraffes 7
wingspan 7
jeweled 7
subscribers 7
psychopaths 7
LHC 7
Biafran 7
torque 7
chronically 7
Chambal 7
Shekhar 7
CDC 7
91 7
fat@@ 7
fats 7
Grail 7
550 7
heartbreaking 7
flare 7
constellations 7
Live 7
supervision 7
lou@@ 7
traffickers 7
DK 7
ELA 7
lawsuit 7
favela 7
99.9 7
nameless 7
rollercoaster 7
needy 7
thorium 7
geothermal 7
Arabs 7
filmmaking 7
orangutan 7
orangutans 7
intersections 7
contaminants 7
fallout 7
masonry 7
lia 7
astonished 7
lattice 7
supreme 7
Carmen 7
propellant 7
priced 7
roast 7
sensual 7
Seventy 7
learners 7
amphi@@ 7
reservation 7
Laramie 7
Robinson 7
1890 7
dim 7
shuffle 7
Australians 7
Him 7
Enron 7
Dam 7
airbags 7
dived 7
Ragu 7
Edwards 7
Records 7
committing 7
Essex 7
scraped 7
urbanism 7
greening 7
McQueen 7
Alvin 7
probes 7
lan@@ 7
Frankie 7
agony 7
flares 7
neutrality 7
hectares 7
civilizational 7
Canal 7
dged 7
Moriarty 7
denounce 7
gro@@ 7
tornadoes 7
latrine 7
cape 7
Cheetos 7
Torah 7
ibuprofen 7
rivals 7
Babylonian 7
truce 7
O2 7
Universal 7
flaps 7
G8 7
bers 7
Odyssey 7
yang 7
markings 7
deserved 7
uplifting 7
pedestrians 7
Malé 7
Goldilocks 7
syringes 7
prominent 7
TNCs 7
temes 7
Pra@@ 7
hypersonic 7
Aristotelian 7
meteorite 7
eb@@ 7
Planet 7
Seva 7
gens 7
scalp 7
Pleo 7
groupers 7
papercutting 7
marathons 7
levitation 7
participatory 7
canyon 7
ARES 7
gigabytes 7
neocortical 7
parainfluenza 7
rhinoviruses 7
cyborg 7
mumble 7
1.7 7
Hemlock 7
Mau 7
Hyperscore 7
Airstream 7
Balinese 7
fluorescence 7
antelope 7
Dracorex 7
janitors 7
Randy 7
ECX 7
sumness 7
otaku 7
disgusted 7
Heinz 7
fischeri 7
Oldenburg 7
Claes 7
T20 7
Bernoulli 7
Piero 7
HTTP 7
cleanliness 6
shellfish 6
hei@@ 6
paraly@@ 6
Rita 6
sparked 6
disrupted 6
Pl@@ 6
grips 6
aquarium 6
ped 6
inal 6
distinguishes 6
uns 6
avant 6
garde 6
renewed 6
pe 6
manipul@@ 6
irritated 6
brake 6
separately 6
dable 6
rhyme 6
reinvented 6
Bl@@ 6
essed 6
marketplaces 6
niece 6
rally 6
bot@@ 6
Sec@@ 6
instinctive 6
webcam 6
trades 6
professions 6
clinging 6
explosives 6
birthplace 6
.org. 6
productively 6
municipalities 6
demise 6
eling 6
pay@@ 6
stadiums 6
zz@@ 6
strawberries 6
pending 6
grey 6
baton 6
CFO 6
childlike 6
Gee 6
domin@@ 6
cusp 6
Fur@@ 6
q@@ 6
evacu@@ 6
Brooks 6
Spielberg 6
module 6
Hal@@ 6
eyeballs 6
Ritchie 6
Christie 6
mechanistic 6
ster@@ 6
insi@@ 6
Medicare 6
Medicaid 6
sliver 6
arians 6
doc 6
reminding 6
presidency 6
mad@@ 6
conditioned 6
puddle 6
extrinsic 6
kinetic 6
Maestro 6
refreshing 6
pli@@ 6
starter 6
sty@@ 6
ecologically 6
smashing 6
Siberian 6
retro 6
disks 6
guitars 6
Grateful 6
don@@ 6
digitization 6
humbled 6
angi@@ 6
unwanted 6
assem@@ 6
patriotic 6
bia 6
germin@@ 6
phot@@ 6
plurality 6
allocate 6
sequester 6
sacks 6
H1N1 6
entom@@ 6
morph 6
morphed 6
mum@@ 6
ition 6
Box 6
thered 6
credits 6
ologically 6
fix@@ 6
perfume 6
aisles 6
preview 6
mangroves 6
pollute 6
ponds 6
mangrove 6
wis@@ 6
varroa 6
Colony 6
healthiest 6
tal 6
Nile 6
Ka@@ 6
fertilize 6
orchard 6
pollinating 6
haired 6
Huh 6
Wester@@ 6
browsing 6
communicators 6
orchids 6
paragraph 6
toid 6
colonize 6
harmed 6
Everywhere 6
impro@@ 6
comedians 6
stumble 6
3rd 6
transferring 6
emergencies 6
Joyce 6
fools 6
optimized 6
redesigning 6
remarks 6
stewards 6
totalitarian 6
libertarian 6
serendipitous 6
Leslie 6
lancet 6
uni@@ 6
MacCready 6
vertebrae 6
wield 6
suicidal 6
wer 6
surrendered 6
interpretations 6
verses 6
sentiment 6
Son 6
Hindus 6
decorated 6
pul@@ 6
birdsong 6
eras 6
wobble 6
defle@@ 6
cannon 6
len@@ 6
eclipse 6
squeezing 6
squeezed 6
6,@@ 6
incarcerated 6
ord 6
incur@@ 6
transcends 6
sympathetic 6
sharper 6
ici@@ 6
timeless 6
Assembly 6
Safety 6
effec@@ 6
stumbling 6
alizes 6
che 6
das@@ 6
nephews 6
startled 6
concer@@ 6
psychotic 6
accuse 6
perceives 6
anterior 6
inferior 6
mentary 6
coherence 6
intensified 6
twinkling 6
pearls 6
pinwheel 6
techno 6
varying 6
pho@@ 6
fundamentals 6
upstream 6
propositions 6
businessman 6
inhabited 6
armies 6
professionally 6
categ@@ 6
naturalist 6
defeating 6
dependencies 6
Reformation 6
altruistic 6
port@@ 6
fiercely 6
illa 6
enriching 6
@ 6
fluidity 6
gon 6
graphy 6
Wong 6
mountain@@ 6
merger 6
canceled 6
perfecting 6
futile 6
cyclical 6
demo@@ 6
shred 6
house@@ 6
voila 6
evaluated 6
1977 6
Pot 6
Tse 6
impending 6
caloric 6
vely 6
Jung 6
unexpectedly 6
repressive 6
irs 6
awakening 6
Sistema 6
conducts 6
choirs 6
inspires 6
unconditional 6
housework 6
Arnold 6
Cook 6
bble 6
highlights 6
mediocre 6
uncanny 6
meds 6
pelvis 6
inspect 6
specifications 6
ang 6
insul@@ 6
Clean 6
vase 6
ulations 6
herds 6
petrified 6
Tyrannosaurus 6
oste@@ 6
collagen 6
ancestral 6
fingered 6
router 6
seldom 6
Mama 6
relegate 6
slick 6
bac@@ 6
ature 6
theorem 6
dodecahedron 6
understandings 6
Carson 6
freaky 6
Monaco 6
ples 6
Chi@@ 6
doctrine 6
endings 6
cartooning 6
prompted 6
blow@@ 6
tal@@ 6
Haw@@ 6
camping 6
vampire 6
Idaho 6
stance 6
1879 6
Lower 6
rant 6
zi 6
ciously 6
mythological 6
lore 6
folly 6
eyelids 6
homeland 6
yuck 6
polarization 6
Oil 6
dissertation 6
bowling 6
sided 6
topology 6
repairing 6
Moog 6
sophomore 6
mentoring 6
modulation 6
Aw 6
2.2 6
sq. 6
stove 6
neurologist 6
tumble 6
spectator 6
ony 6
neurotransmitters 6
retention 6
lab@@ 6
furry 6
pens 6
ender 6
tionary 6
berries 6
spices 6
swore 6
insecurity 6
laughs 6
Kurt 6
subtitles 6
recursive 6
syn@@ 6
ginger 6
Cam@@ 6
dyed 6
synonymous 6
Tyler 6
Ga@@ 6
norm@@ 6
flatten 6
overlook 6
emphasizes 6
On@@ 6
jo 6
assessing 6
Madrid 6
rebellious 6
vol@@ 6
bilingual 6
Davos 6
masse 6
sely 6
0.5 6
Full 6
coordinating 6
cen@@ 6
corrosive 6
stic 6
increment 6
insisting 6
Last 6
Biology 6
Asteroid 6
Killed 6
Dinosaurs 6
aled 6
big@@ 6
agu@@ 6
num@@ 6
AR@@ 6
5.5 6
fours 6
human@@ 6
grander 6
Nu@@ 6
outraged 6
strengthening 6
les@@ 6
openings 6
mini@@ 6
outsourcing 6
idealized 6
threatens 6
latch 6
Seth 6
contamination 6
definitively 6
sla@@ 6
Lesotho 6
Ivory 6
councils 6
privately 6
query 6
Yahoo 6
Tipper 6
motor@@ 6
dissolves 6
urchin 6
apocalyptic 6
plumes 6
boggling 6
stirring 6
reck@@ 6
oversight 6
deregulation 6
speculated 6
fantastically 6
otic 6
scrambled 6
conce@@ 6
squirt 6
evaporates 6
immerse 6
buckle 6
culinary 6
sil@@ 6
granddad 6
articulating 6
loudly 6
electri@@ 6
livers 6
ron 6
Isn 6
hog 6
Ko@@ 6
fear@@ 6
liqui@@ 6
channeled 6
mashup 6
apped 6
Salaam 6
departure 6
civilized 6
Mid@@ 6
stuntman 6
crippled 6
LM 6
ckle 6
Tunisian 6
violations 6
exec@@ 6
uting 6
aker 6
televisions 6
millisecond 6
ME@@ 6
ven 6
clinicians 6
sentimental 6
cultivating 6
lot@@ 6
Evil 6
hijack 6
Tzu 6
deceived 6
profiling 6
timer 6
Euro 6
ele 6
Can@@ 6
greet 6
blogged 6
circulating 6
margin@@ 6
hopped 6
inert 6
Cher@@ 6
blood@@ 6
vested 6
asymmetric 6
Today 6
technocratic 6
grids 6
modifications 6
ide 6
Upper 6
lus@@ 6
wines 6
ut 6
chops 6
bruised 6
bruises 6
bombarded 6
wns 6
cheer 6
underdog 6
graduating 6
Kolkata 6
celebrates 6
ett@@ 6
Karnataka 6
stair 6
forks 6
Bert 6
crossword 6
cab 6
Family 6
caffeine 6
recruiting 6
indefinitely 6
willpower 6
boosting 6
totality 6
Barrier 6
bleached 6
naively 6
Christine 6
sponges 6
slugs 6
characterize 6
form@@ 6
generalized 6
stitch 6
neurology 6
amygdala 6
exer@@ 6
amputation 6
Close 6
novelists 6
junkies 6
Express 6
ue 6
Eagle 6
spectacularly 6
displaying 6
Century 6
mindful 6
Her@@ 6
sted 6
hundredth 6
alter@@ 6
egalitarian 6
densely 6
ped@@ 6
wasps 6
Nyota 6
harmon@@ 6
eagerly 6
Clarke 6
Online 6
hable 6
ville 6
Lester 6
Bla@@ 6
mers 6
desolate 6
Columbus 6
inanimate 6
propagate 6
nighttime 6
voltage 6
veness 6
Thames 6
Foster 6
reckon 6
Fowler 6
Svalbard 6
intr@@ 6
si 6
Week 6
stimulators 6
prune 6
conceptualize 6
color@@ 6
stro@@ 6
synergy 6
L. 6
horizontally 6
jigsaw 6
Nintendo 6
Carrillo 6
sentenced 6
brevity 6
broad@@ 6
fallibility 6
poker 6
backlit 6
cour@@ 6
oppose 6
caution 6
Namaste 6
refusing 6
excav@@ 6
annihil@@ 6
ash@@ 6
Secret 6
tattooed 6
deputy 6
blankets 6
rejoice 6
coconut 6
iterations 6
wrinkle 6
Fulbright 6
ok@@ 6
Angola 6
Work 6
Springs 6
tutors 6
quick@@ 6
Bermuda 6
stra@@ 6
ketchup 6
Collins 6
coached 6
greatness 6
waterproof 6
175 6
nanometer 6
paddle 6
Parker 6
Powell 6
50@@ 6
harnessing 6
bet@@ 6
deposits 6
skulls 6
neurosurgeon 6
psychotherapy 6
deficits 6
mimicry 6
hopelessly 6
kangaroo 6
stabilizes 6
compliant 6
maneuverability 6
favors 6
cams 6
heats 6
cools 6
Carrie 6
nodding 6
mies 6
bathrooms 6
floss 6
uss 6
situated 6
repercussions 6
neatly 6
personalize 6
blossom 6
perpetu@@ 6
biochemistry 6
lambs 6
CPU 6
huddled 6
aah 6
antique 6
Walk 6
Gr@@ 6
subdivisions 6
ees 6
box@@ 6
pickup 6
submerged 6
incorporated 6
clustering 6
ordering 6
logos 6
ards 6
counties 6
mind@@ 6
Speed 6
viability 6
priesthood 6
membership 6
brainstorming 6
conver@@ 6
divergent 6
iter@@ 6
saucer 6
misunderstanding 6
administered 6
mommy 6
transi@@ 6
Diet 6
fal@@ 6
Ballet 6
absorbent 6
containment 6
intercept 6
inflatable 6
automate 6
center@@ 6
teammates 6
MySpace 6
uneasy 6
Ci@@ 6
AOL 6
successive 6
astonishment 6
Whirlwind 6
undertake 6
135 6
busted 6
gul@@ 6
Winky 6
Dink 6
proprietary 6
rigged 6
HyperCard 6
scripted 6
walker 6
ceramic 6
decorative 6
Antoine 6
seating 6
collage 6
rag 6
performs 6
mount 6
fuselage 6
preconceived 6
humanly 6
torso 6
headrest 6
cranial 6
loading 6
Far 6
bird@@ 6
ides 6
undo 6
warned 6
insidious 6
las@@ 6
craving 6
downloads 6
whomever 6
earns 6
reliance 6
downsides 6
mix@@ 6
Austrian 6
articulated 6
discreet 6
graphite 6
60@@ 6
gas@@ 6
rehydration 6
dams 6
myo@@ 6
healed 6
eigh@@ 6
inequalities 6
promoted 6
6.@@ 6
agribusiness 6
nan@@ 6
commanding 6
stat@@ 6
Cau@@ 6
han 6
CE 6
Albania 6
lifespans 6
comm@@ 6
bachelor 6
IGF 6
compartment 6
reinforces 6
dations 6
graded 6
distract 6
regulators 6
graft 6
incisions 6
transplanting 6
IPS 6
retinal 6
investigated 6
Libby 6
ante 6
Legacy 6
biopsy 6
tether 6
bed@@ 6
tionist 6
ballroom 6
notch 6
Viagra 6
marrying 6
motives 6
sinister 6
grandiose 6
unravel 6
diff@@ 6
receivers 6
nation@@ 6
izing 6
coupling 6
Block 6
Kasparov 6
grandmaster 6
panicked 6
refle@@ 6
cla@@ 6
isotopes 6
recorders 6
resembles 6
skeptic 6
Liberty 6
MTV 6
surreal 6
Vision 6
sings 6
documentaries 6
JN 6
warp 6
warps 6
neutrons 6
filaments 6
unification 6
fiddle 6
Matrix 6
fragility 6
composing 6
highlands 6
rhino 6
reproduced 6
illustrations 6
mobilization 6
synecdochically 6
archaeological 6
Diamond 6
brow 6
Anne 6
res 6
gratuitous 6
knobs 6
ration 6
eding 6
horn 6
specially 6
provisional 6
neutron 6
plumber 6
draining 6
deb@@ 6
Zappos 6
DMV 6
ached 6
hollowed 6
paraplegic 6
bumping 6
adored 6
grounding 6
instill 6
Humanity 6
kooks 6
stereotype 6
orphan 6
sky@@ 6
Dakota 6
rightness 6
troublemaker 6
Beth 6
bandages 6
baff@@ 6
translucent 6
advancements 6
11,000 6
concentrating 6
maid 6
impractical 6
fries 6
boy@@ 6
Real 6
Living 6
sizable 6
underpins 6
bonding 6
kid@@ 6
duh 6
bounty 6
Asi@@ 6
Terminator 6
flas@@ 6
ripple 6
shor@@ 6
furnaces 6
FAA 6
canals 6
safest 6
gation 6
eping 6
radiate 6
canned 6
fil@@ 6
pumped 6
afterlife 6
Mushroom 6
decompiculture 6
Timothy 6
capsules 6
cones 6
weeds 6
aquaculture 6
circulated 6
skim 6
325 6
humanistic 6
facilitator 6
elemental 6
Brother 6
gering 6
copious 6
passages 6
Ebola 6
derivatives 6
initiating 6
elimination 6
tracing 6
asis 6
granddaughter 6
withdrawn 6
enslaved 6
eleventh 6
laces 6
nucleic 6
replay 6
percentages 6
lam@@ 6
Peninsula 6
admittedly 6
synthesizing 6
memorizing 6
witnessing 6
Cour@@ 6
380 6
spigot 6
glands 6
fs 6
writings 6
roller 6
Parade 6
classification 6
replaces 6
somber 6
Mil@@ 6
Treaty 6
motive 6
weighing 6
fermentation 6
infuse 6
completing 6
tenure 6
multiplicity 6
gratifying 6
decibels 6
statistician 6
conditional 6
spotlight 6
academically 6
realism 6
climax 6
homosexual 6
mosques 6
royalties 6
chassis 6
miserably 6
deni@@ 6
nanotubes 6
buck@@ 6
nanom@@ 6
outgrowth 6
landers 6
rocky 6
swa@@ 6
Petri 6
guided 6
cran@@ 6
devoid 6
not@@ 6
ef@@ 6
avenue 6
eminent 6
digestive 6
screenshot 6
expres@@ 6
addicts 6
bid 6
strap 6
McNuggets 6
advocates 6
externalities 6
runoff 6
perimeter 6
Win@@ 6
stu@@ 6
swirl 6
eper 6
nun 6
Persians 6
1917 6
Story 6
visualizations 6
overtime 6
napkins 6
dispose 6
drown 6
tendencies 6
Kam@@ 6
Major 6
governing 6
slowness 6
Mat@@ 6
mono 6
consult 6
Conan 6
Doyle 6
postage 6
unkers 6
Ralph 6
locker 6
coarse 6
fro@@ 6
educator 6
annually 6
seams 6
entertain 6
ordin@@ 6
believers 6
Si@@ 6
outsiders 6
4Shbab 6
intolerance 6
owning 6
mach@@ 6
amplification 6
Wagner 6
blasted 6
Romantic 6
owl 6
hips 6
tery 6
Ambassador 6
urged 6
Sol@@ 6
Sel@@ 6
liar 6
collateral 6
aspiring 6
contracted 6
Towers 6
protested 6
laureate 6
prostitutes 6
Lenny 6
lords 6
sen 6
lame 6
anos 6
Deng 6
Bloomberg 6
Michelangelo 6
Tiburon 6
apocalypse 6
benches 6
swallows 6
accordingly 6
explorations 6
Fifth 6
artworks 6
prehistoric 6
proto 6
moder@@ 6
Blind 6
thanking 6
2025 6
Else 6
G20 6
Jessica 6
muck 6
shove 6
subs 6
airborne 6
detectable 6
sketching 6
ge 6
Puerto 6
Sleep 6
inde@@ 6
aunties 6
imam 6
religiosity 6
Im@@ 6
Serbian 6
deliberation 6
taboos 6
Grandma 6
paper@@ 6
doodles 6
colonized 6
reformed 6
lichens 6
imprint 6
migrations 6
hops 6
Ky@@ 6
gy@@ 6
osity 6
Dublin 6
grasping 6
livelihoods 6
Change 6
Krishna 6
factual 6
pointless 6
commandments 6
changer 6
yay 6
outlets 6
mock 6
Fl@@ 6
mammograms 6
orchestr@@ 6
ordinarily 6
reviewers 6
undergoing 6
newborns 6
uniqueness 6
vores 6
whiteboard 6
conviction 6
thrilling 6
hoc 6
hide@@ 6
Picture 6
sociology 6
hostage 6
nap 6
moonlight 6
Eiffel 6
thrusters 6
chewed 6
inged 6
Loves 6
visitor 6
peacekeeping 6
obje@@ 6
Some 6
glori@@ 6
jets 6
begs 6
handicap 6
bladders 6
lust 6
monstrous 6
deepened 6
microprocessors 6
horns 6
tives 6
rejecting 6
assimil@@ 6
harnessed 6
Ti@@ 6
Str@@ 6
elegantly 6
inward 6
deepening 6
Buddhas 6
Holiness 6
Lakshmi 6
Rel@@ 6
seizures 6
coughing 6
attenu@@ 6
medic@@ 6
Top 6
camp@@ 6
Not@@ 6
wl 6
sails 6
ome 6
tists 6
naughty 6
dier 6
resigned 6
impacting 6
25@@ 6
inhale 6
replenish 6
forefront 6
Report 6
dwelling 6
pebble 6
unlocked 6
Saul 6
nomad 6
ranking 6
territories 6
Sum@@ 6
3.8 6
tablets 6
Tree 6
unprotected 6
precipitation 6
outhouse 6
quadrillion 6
interfering 6
conveniently 6
endgame 6
Interval 6
validation 6
Meegeren 6
coaching 6
affair 6
iTunes 6
Gillian 6
lavish 6
reboxetine 6
tumbling 6
wers 6
hen 6
aurochs 6
Direct 6
clearing 6
falcon 6
IUCN 6
abs 6
tempt 6
Books 6
Upwake 6
renderings 6
apologizing 6
str@@ 6
conditioner 6
toothpaste 6
generalization 6
Sal 6
X. 6
Fargo 6
timed 6
refrigerated 6
JB 6
elevate 6
vending 6
pis@@ 6
squirrels 6
Baltimore 6
affili@@ 6
mockingbirds 6
til 6
mastur@@ 6
Kinsey 6
hygiene 6
conceivably 6
floral 6
Masters 6
corn@@ 6
tossing 6
idle 6
spiritually 6
tidied 6
tidying 6
Gogh 6
rim 6
slack 6
cosmological 6
repulsive 6
ggle 6
symphonies 6
lesion 6
progresses 6
wisely 6
utilizing 6
compensation 6
seized 6
progressed 6
denti@@ 6
robbery 6
psycho@@ 6
underwent 6
anesthetize 6
C.@@ 6
Kew 6
bank@@ 6
lumpy 6
Sinai 6
guga 6
presenter 6
chute 6
dead@@ 6
foyer 6
scrolling 6
Glasgow 6
migraines 6
discharged 6
volumetric 6
par 6
linearity 6
searchable 6
Wilkins 6
heli@@ 6
dele@@ 6
Uttar 6
complacency 6
gras@@ 6
landmark 6
faulty 6
regi@@ 6
han@@ 6
enshrined 6
rewire 6
shaft 6
Palace 6
sm 6
ato 6
alligator 6
convulsions 6
ferocious 6
demon@@ 6
adversity 6
tings 6
ean 6
eing 6
dictatorships 6
jump@@ 6
Pan@@ 6
playwright 6
rewrite 6
Bu@@ 6
Bri@@ 6
plat@@ 6
mindless 6
visibility 6
bum@@ 6
Nothing 6
formulation 6
Buckminster 6
Fuller 6
Morgan 6
parasitic 6
mammalian 6
epidemiologists 6
stagnation 6
interdependent 6
inadvertently 6
testament 6
bloo@@ 6
churning 6
loo 6
marbles 6
reversing 6
corrective 6
fixated 6
injectors 6
automation 6
tling 6
alumni 6
sprint 6
artisanal 6
disappointing 6
Sufi 6
1964 6
Xerox 6
transmitting 6
humbling 6
connectedness 6
raced 6
mel@@ 6
Coleridge 6
sunset 6
kilo 6
06 6
extrapolate 6
bounded 6
aggregates 6
jurisdiction 6
oceanographic 6
smuggled 6
nozzle 6
Sixty 6
unprepared 6
Bre@@ 6
swo@@ 6
courthouse 6
omni@@ 6
descends 6
Picchu 6
slopes 6
weave 6
condensed 6
receptacle 6
Netizens 6
commenting 6
tist 6
excite 6
unheard 6
Torvalds 6
buddies 6
eas@@ 6
Cambrian 6
Honey 6
cunning 6
Sundays 6
altitudes 6
5.@@ 6
valuation 6
marginal 6
Guild 6
Moderator 6
67 6
hol@@ 6
miscarriage 6
Liz 6
Tat@@ 6
Yesterday 6
subtly 6
hard@@ 6
Air@@ 6
ull 6
politely 6
rubbing 6
Sanskrit 6
high@@ 6
H. 6
Wayne 6
boardroom 6
ubuntu 6
speci@@ 6
airstrip 6
honeybee 6
probiotics 6
ino 6
diets 6
inst@@ 6
prefer@@ 6
cobras 6
utting 6
sights 6
rabbis 6
rod 6
hooves 6
bollocks 6
rulers 6
stomatopod 6
disparities 6
intelligently 6
slender 6
rude 6
premium 6
Ark 6
dignified 6
Goals 6
penetrated 6
senator 6
hugs 6
directing 6
masons 6
painfully 6
hydro 6
fis@@ 6
intrigue 6
generalize 6
aphid 6
scraping 6
Pat 6
thyself 6
nightmares 6
seminar 6
Roots 6
Shoots 6
lively 6
throughput 6
nam@@ 6
geographically 6
pencils 6
Collect 6
Like 6
AlloSphere 6
simulators 6
reckless 6
Back 6
cadence 6
Grier 6
pier 6
plaza 6
stadia 6
attributable 6
ala 6
Cloud 6
Wounded 6
Knee 6
subtraction 6
homemade 6
gamble 6
buttock 6
tacks 6
tectonics 6
redundant 6
magically 6
Juilliard 6
sa 6
void 6
feedbacks 6
shale 6
pits 6
120,000 6
engulfed 6
Majesty 6
Parikrma 6
Moskowitz 6
Plains 6
universals 6
subclinical 6
ADD 6
spiky 6
smack 6
labeling 6
farce 6
definite 6
obsessive 6
retrofitting 6
retrofits 6
napot 6
Miklos 6
upstate 6
Bartok 6
Juarez 6
Casa 6
imaginations 6
gobble 6
Cody 6
Himba 6
honoring 6
Rockies 6
Giacometti 6
ovarian 6
gypsum 6
bride 6
clamp 6
seeded 6
Moi 6
championships 6
Swaptree 6
ction@@ 6
FEMA 6
1,400 6
Superhero 6
Congolese 6
ouse 6
Noam 6
flushed 6
Boris 6
servants 6
scriptures 6
Granny 6
indiscriminately 6
morphology 6
calculates 6
FN 6
chopped 6
Ju 6
Carlton 6
Barcelona 6
Craigslist 6
Reddit 6
popularity 6
pupils 6
Wiki 6
Wales 6
verifiable 6
questionnaire 6
Rossy 6
oting 6
sled 6
dogmas 6
Shackleton 6
ax 6
portray 6
skylights 6
meditators 6
vanish 6
whirlwind 6
mitochondrial 6
truthful 6
Luxembourg 6
mint 6
recipients 6
damages 6
eyeball 6
eel 6
Peers 6
Inc. 6
Metrics 6
Ratan 6
Gandhian 6
extrasolar 6
Thursday 6
replicators 6
inspected 6
warehouses 6
fudge 6
endurance 6
counteract 6
Dirty 6
anagnorisis 6
zations 6
Bundy 6
childish 6
fuckin 6
declassified 6
PH 6
Exchange 6
esp@@ 6
orchid 6
snobbery 6
Harriet 6
Powers 6
bud 6
Isle 6
Bayesian 6
inferences 6
Olympus 6
pathologist 6
multiplexing 6
neuromodulators 6
terroir 6
rhinovirus 6
Ritz 6
electrogram 6
XML 6
MB 6
Mae 6
arse 6
Turkana 6
Judge 6
21,000 6
amphibians 6
aromatase 6
PJC 6
Monica 6
Hama 6
Motts 6
Milgram 6
Tewksbury 6
trailers 6
ligament 6
biologic 6
resonates 6
distracting 6
Depp 6
quartile 6
weblogs 6
Share 6
Clay 6
trustworthiness 6
Radcliffe 6
heh 6
Tamara 6
Ecosia 6
Faunal 6
Dizzy 6
gerontology 6
constants 6
phototherapy 6
FS 6
rete 6
astrolabes 6
Zullinger 6
piled 5
ges@@ 5
intolerable 5
NOAA 5
traced 5
copepods 5
distressed 5
receding 5
paranormal 5
sunrise 5
Basil 5
stilts 5
cavalry 5
ander 5
crate 5
hoop 5
Soros 5
Hawken 5
wiki 5
Chan@@ 5
Jacqueline 5
Partners 5
Motors 5
una 5
appropri@@ 5
Pal@@ 5
taxpayers 5
mountaintop 5
cough 5
emptied 5
manifesto 5
The@@ 5
Land@@ 5
landfills 5
diversion 5
hasten 5
cements 5
coinci@@ 5
newcomers 5
fers 5
environmentalists 5
retool 5
headmaster 5
techie 5
Thinking 5
bono 5
AC 5
adap@@ 5
pledged 5
Pong 5
Dyson 5
SI 5
nodded 5
regulates 5
weights 5
phonemes 5
2013 5
enz@@ 5
exaggerated 5
ements 5
riddled 5
Op@@ 5
dening 5
fabulously 5
plex@@ 5
coli@@ 5
triggering 5
electrochemical 5
piercing 5
consum@@ 5
acqu@@ 5
ques 5
blip 5
Atacama 5
perme@@ 5
gat@@ 5
repairs 5
Very 5
wr@@ 5
outwards 5
giga@@ 5
Kindle 5
Parks 5
Rube 5
kiosk 5
thorny 5
archival 5
pet@@ 5
protections 5
dging 5
overwhelm 5
55,000 5
ye@@ 5
spor@@ 5
Patrick 5
exhale 5
begets 5
crumble 5
420 5
dotted 5
paired 5
coli 5
extracts 5
succumb 5
stink 5
Horn 5
plantation 5
scourge 5
py 5
blower 5
revolt 5
yo@@ 5
nod 5
beehive 5
postal 5
rafts 5
migratory 5
é 5
Audience 5
reconnecting 5
Googled 5
burg 5
championship 5
tones 5
hah 5
aden@@ 5
.D. 5
alo@@ 5
Improv 5
Ride 5
cracking 5
funniest 5
criticisms 5
buster 5
ignores 5
preventive 5
hazards 5
reviewer 5
hilarious 5
plausible 5
cleverness 5
foresight 5
spooky 5
Mecca 5
Mi@@ 5
jack@@ 5
stall 5
counsel 5
evaluating 5
objection 5
fing 5
Maine 5
sanctity 5
ada 5
eardrum 5
eters 5
ductive 5
expan@@ 5
headphone 5
protectors 5
scal@@ 5
whichever 5
snapshots 5
sonic 5
trenches 5
ballistic 5
galactic 5
isi@@ 5
fourteen 5
plume 5
partnered 5
infra@@ 5
bland 5
endo@@ 5
anesthesiologist 5
swe@@ 5
accepts 5
cheer@@ 5
okes 5
compassionately 5
willingly 5
democratically 5
gor@@ 5
sigma 5
frees 5
volunteering 5
deteriorating 5
grandson 5
hyperactive 5
recapitulate 5
tus 5
notebooks 5
din@@ 5
scaring 5
tentacles 5
poking 5
brittle 5
anch@@ 5
contemplative 5
plunge 5
urging 5
breadth 5
secured 5
fittest 5
Smart 5
owed 5
tat 5
overpopulation 5
maximizing 5
forestry 5
mming 5
Fol@@ 5
foreigners 5
allevi@@ 5
carto@@ 5
Sisyphus 5
observers 5
dians 5
aching 5
Pol 5
notwithstanding 5
precedent 5
tutored 5
idyllic 5
int 5
law@@ 5
wor@@ 5
revised 5
counselor 5
violinist 5
distinctions 5
Teresa 5
patri@@ 5
humanism 5
pleasurable 5
wiggle 5
sco@@ 5
vintage 5
superimposed 5
Years 5
1946 5
proactive 5
institutionalization 5
Carpet 5
punctuated 5
scraps 5
biscuits 5
beasts 5
spinach 5
fe 5
halved 5
importing 5
ana@@ 5
ero@@ 5
digestion 5
depicts 5
sucking 5
doctoral 5
rs 5
classi@@ 5
archae@@ 5
walled 5
Salt 5
dishonest 5
recon@@ 5
Tran@@ 5
Frigoris 5
vic 5
mermaid 5
darling 5
az@@ 5
anian 5
Andromeda 5
Ven@@ 5
adjustments 5
icosahedron 5
ranch 5
9th 5
Lumin@@ 5
extrapol@@ 5
Carlos 5
mur@@ 5
ghosts 5
Ei@@ 5
cyberwar 5
spy 5
infiltrate 5
plunged 5
Chairman 5
imply 5
attacker 5
NATO 5
reacted 5
kl@@ 5
manta 5
lagoon 5
Some@@ 5
razor 5
barbs 5
Sherman 5
ruthless 5
Patch 5
storyline 5
Louvre 5
Canadians 5
Muir 5
Yosemite 5
tment 5
wolves 5
wheelchairs 5
withdraw 5
4,@@ 5
5,@@ 5
1959 5
7,@@ 5
creep 5
phenomenally 5
Buffalo 5
triangular 5
splits 5
domes 5
nar@@ 5
row@@ 5
joys 5
dangerously 5
fangs 5
electroencephalogram 5
mechanic 5
preschool 5
byproducts 5
drunken 5
cerebellum 5
256 5
youthful 5
Carroll 5
alcoholic 5
enrich 5
Kelley 5
Rich 5
MRIs 5
ational 5
nachos 5
cuisine 5
berry 5
lemonade 5
sodas 5
leapfrog 5
bale 5
dismantle 5
accounted 5
eclip@@ 5
Britney 5
Burke 5
snares 5
rodents 5
drastically 5
Joy 5
voc@@ 5
Rem@@ 5
patter@@ 5
nonverbal 5
dispense 5
tweets 5
EW 5
Fide 5
Fin@@ 5
consequently 5
noun 5
grandfathers 5
disagreed 5
passports 5
bedside 5
commen@@ 5
tiveness 5
substituting 5
adviser 5
ovaries 5
overly 5
frighten 5
hobbies 5
chi 5
Scandinavia 5
refining 5
inver@@ 5
exten@@ 5
revive 5
recovers 5
additive 5
windmills 5
CO@@ 5
Jr 5
quaint 5
devout 5
approve 5
incapable 5
Fa@@ 5
invoke 5
G. 5
concludes 5
inverse 5
intelligentsia 5
outing 5
recruitment 5
denying 5
Aveling 5
Sabbath 5
mob 5
tle 5
dread 5
desp@@ 5
dormant 5
finances 5
consolidated 5
employing 5
mass@@ 5
--@@ 5
bomb@@ 5
harnesses 5
mot@@ 5
encyclopedi@@ 5
characterizes 5
converging 5
fty 5
Berkley 5
prevail 5
hides 5
imaginable 5
vigorous 5
diluted 5
Emeka 5
connotes 5
nutshell 5
Diaspora 5
queues 5
zi@@ 5
1915 5
slideshow 5
we@@ 5
ques@@ 5
nominated 5
persuasion 5
dipped 5
measurably 5
8.1 5
sandals 5
sparkling 5
recreational 5
fleeing 5
ose 5
Valdez 5
hemispheric 5
ornith@@ 5
meltdown 5
lobbyists 5
neurotransmitter 5
insignificance 5
microscopes 5
synaptic 5
hypothesized 5
cherished 5
Zach 5
levitating 5
water@@ 5
braking 5
Jurvetson 5
conductive 5
sti@@ 5
foil 5
windy 5
Milk 5
odors 5
suffice 5
akin 5
Pat@@ 5
1812 5
conf@@ 5
fittingly 5
sweets 5
anguish 5
scor@@ 5
Carolyn 5
narcissistic 5
Kelvin 5
radios 5
patron 5
Power@@ 5
Obi 5
Kenobi 5
Graduate 5
masculinity 5
&apos;mon 5
unquote 5
leg@@ 5
sweetheart 5
Sorry 5
marketer 5
deeds 5
Kinect 5
console 5
Patagonia 5
travelers 5
brutally 5
detained 5
27th 5
handcuffed 5
panda 5
dryer 5
30@@ 5
hospice 5
Hum@@ 5
ential 5
watered 5
Asanga 5
patrol 5
rob 5
Pakistanis 5
ep 5
mustache 5
Phone 5
compulsive 5
ez 5
mug 5
5th 5
jails 5
sailor 5
lurking 5
Patriot 5
muster 5
trappings 5
cheering 5
involuntary 5
pon@@ 5
und@@ 5
ised 5
expects 5
deed 5
dominion 5
exhaust 5
saws 5
ambitions 5
oni@@ 5
Tudor 5
sounding 5
ano 5
juicy 5
sacrificing 5
foolish 5
nies 5
lobster 5
ama@@ 5
Bombay 5
carcass 5
.S. 5
sewing 5
culprit 5
salvaged 5
CalTech 5
amusement 5
retouched 5
spo@@ 5
hone 5
harsh@@ 5
gamer 5
Words 5
Crohn 5
diagnoses 5
bleaching 5
exhibited 5
Euclidean 5
longitude 5
Sil@@ 5
lettuce 5
formalized 5
asserting 5
inhibits 5
clenched 5
spasm 5
misguided 5
amputated 5
relieve 5
obeying 5
ddle 5
Buba 5
banged 5
Pu@@ 5
eruptions 5
continental 5
millionth 5
occupying 5
rier 5
pel@@ 5
bipedal 5
undertook 5
campfire 5
haircut 5
maneuvering 5
flake 5
cher@@ 5
chanting 5
coalitions 5
pathological 5
eradicating 5
fund@@ 5
cynicism 5
hopelessness 5
snippets 5
ll 5
Gallup 5
reforming 5
scattering 5
30th 5
Barry 5
metronome 5
Flash 5
atz 5
crumbling 5
thighs 5
Philips 5
trim 5
groomed 5
zy 5
Braun 5
rods 5
garages 5
rusty 5
1961 5
artillery 5
airlines 5
Branson 5
milestones 5
prun@@ 5
hallmark 5
malignant 5
intestinal 5
dietary 5
strawberry 5
cha 5
Discover 5
Rubik 5
sliding 5
overlaps 5
culprits 5
judicial 5
testified 5
Prison 5
280 5
Ellen 5
testify 5
Hemisphere 5
nudge 5
Honor 5
freed 5
necessity 5
saint 5
insides 5
hardened 5
tenderness 5
Sunitha 5
enslave 5
disadvantages 5
Masai 5
hyenas 5
unbearable 5
Cantor 5
subtracting 5
Benoit 5
Mandelbrot 5
pseudo 5
modul@@ 5
mysti@@ 5
geom@@ 5
Leibniz 5
De 5
Eno 5
percolate 5
likened 5
mornings 5
bows 5
overreaction 5
pus@@ 5
engraved 5
superhydrophobic 5
oils 5
gly 5
petty 5
Gell 5
Falls 5
neurosurgery 5
disturbances 5
dystonia 5
twisting 5
thermostat 5
advantageous 5
pogo 5
springy 5
actuators 5
hex@@ 5
Panama 5
tractor 5
suction 5
1.6 5
kerosene 5
thermo 5
commercialized 5
condenses 5
topped 5
flex@@ 5
Sit 5
marches 5
lian 5
oo@@ 5
Wol@@ 5
infl@@ 5
bumblebee 5
Des@@ 5
deduce 5
tes@@ 5
Lima 5
hens 5
graze 5
towed 5
gang@@ 5
gossiping 5
decomposing 5
bison 5
aw@@ 5
aper 5
typewriter 5
Ed@@ 5
structurally 5
coff@@ 5
tenor 5
oso 5
Orkut 5
Engineering 5
invitations 5
Montessori 5
Battle 5
bastards 5
low@@ 5
debit 5
experiment@@ 5
LinkedIn 5
cottage 5
ard@@ 5
Sound 5
4.@@ 5
observational 5
gent 5
waiter 5
ram 5
anagrams 5
skirt 5
individuality 5
sociologist 5
Tom@@ 5
Polish 5
Joan 5
vel 5
tacked 5
Protei 5
ji@@ 5
setup 5
Bom@@ 5
raid 5
enliven 5
Berry 5
erasing 5
aped 5
Industry 5
commerci@@ 5
confine 5
Berners 5
arize 5
dinners 5
ales 5
completion 5
broadcasters 5
cakes 5
flocked 5
formidable 5
Technorati 5
disputes 5
glo@@ 5
Rupert 5
Dow 5
eable 5
lofty 5
compositions 5
Buenos 5
Aires 5
correctness 5
Pet@@ 5
stares 5
Venice 5
shrine 5
factions 5
recognizable 5
unites 5
ens@@ 5
youngster 5
revolving 5
tractors 5
wristwatch 5
incrementally 5
ty@@ 5
hitchhiking 5
unequal 5
ingest 5
Napster 5
Monster 5
inbox 5
outlaw 5
oko 5
paddles 5
smoked 5
Borges 5
overtake 5
airtime 5
Yankees 5
Siemens 5
Otto 5
optimizing 5
Bateson 5
revert 5
direc@@ 5
trusses 5
monolithic 5
tooling 5
fecal 5
Bos@@ 5
favor@@ 5
malarial 5
stagnant 5
ampu@@ 5
deficiency 5
prosthetics 5
amplifier 5
reinnervation 5
eman 5
smo@@ 5
textures 5
lightest 5
Annie 5
Punta 5
Ninos 5
Current 5
informing 5
beak 5
violently 5
conquering 5
inhabiting 5
asing 5
Gen@@ 5
hierarchies 5
imperial 5
Kurdistan 5
Sunni 5
nial 5
tat@@ 5
decre@@ 5
mingle 5
Serbia 5
diminish 5
Sarkozy 5
Caucasus 5
och@@ 5
progeny 5
arisen 5
ken@@ 5
advertised 5
democratize 5
oversimp@@ 5
wasp 5
swat 5
quanti@@ 5
anno@@ 5
abnormalities 5
fting 5
dusk 5
tainted 5
grapple 5
pancreatic 5
Shin@@ 5
cardiology 5
mas 5
Quincy 5
Zander 5
titans 5
Batiuk 5
sicker 5
ounds 5
overdose 5
trite 5
boredom 5
Cra@@ 5
Wi@@ 5
hovering 5
Dra@@ 5
Galvani 5
lum@@ 5
Susana 5
fru@@ 5
nagging 5
reinforced 5
pauses 5
sniffing 5
combinatorial 5
Playstation 5
Route 5
freestyle 5
1000 5
Uni@@ 5
alisms 5
interdisciplinary 5
warms 5
anew 5
backdrop 5
Earle 5
chem@@ 5
Room 5
Donna 5
revolting 5
Paradise 5
bitterness 5
shorts 5
Ap@@ 5
Palo 5
Alto 5
Cin@@ 5
1919 5
transmits 5
viewpoint 5
clockwise 5
superstring 5
gravit@@ 5
reflections 5
unexplained 5
drifts 5
priori 5
prehistory 5
overestimate 5
door@@ 5
airbag 5
relied 5
arma@@ 5
ISAF 5
Rab@@ 5
memoirs 5
banning 5
defecation 5
protector 5
cooker 5
calibrate 5
faking 5
gee 5
wil@@ 5
light@@ 5
mut@@ 5
signage 5
mation 5
neurotic 5
utions 5
cystic 5
fibrosis 5
predis@@ 5
oncologist 5
responders 5
Budweiser 5
magni@@ 5
Laws 5
descending 5
snippet 5
mish 5
indul@@ 5
Vanier 5
Remen 5
fanciful 5
As@@ 5
Charter 5
Compassion 5
enabler 5
penetration 5
dialects 5
dawned 5
emptiness 5
thouse 5
materialism 5
widow 5
seless 5
FARC 5
seeding 5
irresponsible 5
generously 5
hel@@ 5
Himalayan 5
Bhutanese 5
GNH 5
bloodshed 5
Hy@@ 5
simulcast 5
Blackawton 5
insurgent 5
IED 5
insurgents 5
telltale 5
wizard 5
disproportionate 5
medal 5
smog 5
corrupts 5
rescuing 5
railroads 5
U.C. 5
parachutes 5
disintegrate 5
dissimilar 5
pajamas 5
ouses 5
sibling 5
manually 5
ola 5
Moss 5
ore@@ 5
evi@@ 5
Singh 5
railways 5
surpassed 5
lotteries 5
undertaken 5
superstar 5
arianism 5
flor@@ 5
unreliable 5
condense 5
Malthus 5
recorder 5
chemokines 5
evenings 5
furious 5
stupidest 5
fork 5
soak 5
mmed 5
Pluto 5
compartment@@ 5
simplification 5
heterosexual 5
106 5
conquest 5
princes 5
Sean 5
ballistics 5
demolition 5
afforded 5
facet 5
Basin 5
radii 5
sac 5
adhere 5
alanine 5
amenable 5
scytodes 5
merchandise 5
hir@@ 5
criticizing 5
patchwork 5
betray 5
logs 5
vation 5
doub@@ 5
appe@@ 5
resins 5
palate 5
glut@@ 5
evenly 5
sweats 5
rounding 5
ceases 5
sprouting 5
appeals 5
hush 5
leaned 5
nervously 5
affec@@ 5
bowls 5
evol@@ 5
mar 5
falsi@@ 5
narrowing 5
animates 5
limp 5
animators 5
requested 5
palsy 5
cont@@ 5
demolished 5
voicemail 5
Supp@@ 5
tinier 5
Pogue 5
mediocrity 5
crunch 5
Son@@ 5
empowers 5
Kleiner 5
kins 5
accelerators 5
nanotube 5
Randall 5
catalyze 5
antiviral 5
businessmen 5
notably 5
salient 5
exploiting 5
untapped 5
robotically 5
bow@@ 5
persisted 5
FBI 5
grueling 5
haunting 5
compli@@ 5
shafts 5
platinum 5
eater 5
Cheval 5
Blanc 5
blurred 5
amazes 5
virtuality 5
open@@ 5
calibrated 5
dragons 5
transparently 5
Fe@@ 5
cated 5
subsistence 5
Gul@@ 5
aligning 5
stating 5
authoring 5
part@@ 5
i.e. 5
Trojan 5
traverse 5
blush 5
affords 5
Mac@@ 5
fruition 5
intermission 5
whiskey 5
procession 5
Beckett 5
disregard 5
wig 5
intervals 5
omniscient 5
wallpaper 5
chronologically 5
tel 5
orderly 5
punctuation 5
chill 5
Haha 5
Wire 5
medically 5
tablecloth 5
humiliating 5
insur@@ 5
blizzard 5
relentlessly 5
affirmative 5
stabilized 5
bilateral 5
heresy 5
Sher@@ 5
botanical 5
percussion 5
cervical 5
disappoint 5
eerie 5
slipped 5
night@@ 5
perc@@ 5
Shermer 5
Shack 5
We@@ 5
ek@@ 5
UFOs 5
grainy 5
furthest 5
copic 5
iconography 5
backside 5
Mel@@ 5
pitiful 5
scooped 5
catcher 5
persuading 5
nickel 5
prosaic 5
Maxwell 5
charisma 5
reliability 5
succession 5
pivot 5
playfulness 5
lessness 5
Valentine 5
reciprocity 5
nested 5
culmin@@ 5
mystified 5
conc@@ 5
innov@@ 5
peering 5
evils 5
cle 5
onies 5
corrupting 5
destru@@ 5
reds 5
rede@@ 5
reared 5
mourn 5
paci@@ 5
precipice 5
redemption 5
deciphering 5
Twin 5
coworkers 5
repeatable 5
eric 5
plains 5
Leymah 5
ita 5
doughnut 5
scholarships 5
contention 5
Giant 5
jogging 5
possess 5
ghetto 5
jus@@ 5
antiquated 5
Ninth 5
Ward 5
narrowed 5
municipal 5
Xiaoping 5
swallowing 5
natives 5
operas 5
mmer 5
frustrations 5
tot@@ 5
terminology 5
craftsmanship 5
Platonic 5
isms 5
SUV 5
Malibu 5
qualifying 5
ail@@ 5
asy 5
BRD4 5
affectionately 5
incurable 5
texted 5
emphasized 5
PVC 5
workflow 5
philosophically 5
uniformity 5
virtuoso 5
interpre@@ 5
ation@@ 5
17,000 5
keepers 5
opponents 5
unparalleled 5
So@@ 5
holocaust 5
imminent 5
drags 5
enforcement 5
Something 5
custody 5
Operations 5
Special 5
essentials 5
Jansky 5
skis 5
accessories 5
embraces 5
polari@@ 5
gles 5
Sakena 5
shr@@ 5
ja@@ 5
dreamt 5
reservoirs 5
cafes 5
sleeps 5
mandated 5
circumcision 5
statesmen 5
Islamists 5
autocratic 5
froze 5
diatoms 5
flourished 5
hon@@ 5
escalated 5
parliamentary 5
provisions 5
escalating 5
resourced 5
setbacks 5
Ashaninka 5
Summit 5
aders 5
Sichuan 5
absol@@ 5
Step 5
invariably 5
Ja@@ 5
Blackberry 5
yacht 5
Milan 5
eve 5
moron 5
declines 5
menopause 5
depiction 5
inti@@ 5
entrenched 5
obsc@@ 5
manuscript 5
clearer 5
onics 5
Kant 5
appearances 5
Gods 5
Excel 5
penalty 5
tactic 5
fucked 5
Janeiro 5
Cop@@ 5
constitu@@ 5
negotiable 5
teasing 5
Jan@@ 5
turmoil 5
encompass 5
implicitly 5
After 5
latrines 5
Georges 5
clear@@ 5
absor@@ 5
insatiable 5
Dongguan 5
Sig@@ 5
1941 5
Ob@@ 5
Chin@@ 5
mand@@ 5
Satur@@ 5
erupting 5
intervening 5
droplets 5
salty 5
expanse 5
clump 5
sitcom 5
Song 5
Lisbon 5
reiterate 5
Technologies 5
Hoover 5
layering 5
Mujahideen 5
Welcome 5
Mei@@ 5
Mathare 5
hl@@ 5
concentrator 5
brushes 5
dwarfs 5
plac@@ 5
Chamber 5
AM 5
snacks 5
daydream 5
prose 5
hapless 5
tified 5
leans 5
Hy 5
Meyerowitz 5
mutated 5
berserk 5
quarantine 5
phony 5
stockpiles 5
malnourished 5
thermonuclear 5
motorcycles 5
jugglers 5
juggle 5
titude 5
Terry 5
mats 5
fragmentation 5
Tre@@ 5
catchment 5
dur@@ 5
resign 5
MP@@ 5
bel 5
seductive 5
narcosis 5
ier 5
jeopardy 5
misleading 5
invasively 5
chron@@ 5
dge@@ 5
Search 5
spaced 5
plotting 5
misuse 5
theology 5
oping 5
Edge 5
arid 5
mosaic 5
snowflake 5
latitudes 5
condi@@ 5
0,000 5
40@@ 5
69 5
pled 5
inkjet 5
Brazilians 5
bate 5
dir@@ 5
42,000 5
adventurous 5
Miko 5
Goering 5
spouses 5
cratic 5
Chagall 5
Daily 5
accredited 5
oxygen@@ 5
bugger 5
Cincinnati 5
cryo@@ 5
interspecies 5
avan 5
thrived 5
gorilla 5
gorillas 5
Tin@@ 5
cork 5
teeming 5
nematode 5
exceed 5
Jarrett 5
fort 5
Worcester 5
Alisch 5
kar@@ 5
sty 5
exclamation 5
albums 5
punk 5
physiologically 5
acoustician 5
ake 5
ctable 5
1930 5
unstoppable 5
finishes 5
indulge 5
bol@@ 5
generalizations 5
here@@ 5
alese 5
needn 5
mindsets 5
fraternal 5
awkwardness 5
nuisance 5
affir@@ 5
puri@@ 5
crystallization 5
Namibian 5
sweaty 5
locust 5
handout 5
unleashing 5
coupons 5
Lothar 5
Meggendorfer 5
depicting 5
itation 5
tack 5
netted 5
feeder 5
bam 5
slippage 5
Myesha 5
fon@@ 5
bonded 5
crews 5
cheesy 5
Disneyland 5
hiccu@@ 5
gynec@@ 5
ejac@@ 5
sow 5
unveiling 5
ludicrous 5
Haring 5
Magritte 5
scatter 5
ankle 5
envisioned 5
toddler 5
perpetrators 5
perpetrator 5
bodily 5
Electric 5
2,300 5
memoir 5
intergalactic 5
painstaking 5
inflationary 5
neu@@ 5
legends 5
consortium 5
trek 5
inequity 5
exaggerating 5
embroidery 5
sulfates 5
Pin@@ 5
levitated 5
osphere 5
hy@@ 5
undergo 5
vian 5
Campbell 5
Government 5
identifies 5
Happiness 5
avi@@ 5
materialist 5
allocated 5
smashed 5
landmine 5
specificity 5
enterprising 5
Cedars 5
Gaga 5
nanny 5
cutaway 5
zoomed 5
visualized 5
Bon@@ 5
thousandth 5
predicated 5
vendors 5
bun@@ 5
corrected 5
endure 5
flattening 5
electro 5
Bragg 5
rumor 5
qualifications 5
measles 5
capitalizing 5
BA 5
Dereck 5
CSI 5
cub 5
vac@@ 5
cubs 5
spins 5
impenetrable 5
commanded 5
Brownian 5
Abbott 5
rhinos 5
oceanography 5
businesspeople 5
octop@@ 5
Cala 5
boca 5
Alisa 5
Voices 5
Erik 5
bak@@ 5
cosmopolitan 5
pamphlet 5
Sen 5
diplomat 5
gel@@ 5
tian 5
eighteenth 5
amazement 5
obsessional 5
extingu@@ 5
reintegration 5
Resistance 5
Franco 5
humbly 5
wagon 5
linearly 5
parameter 5
thresholds 5
unnamed 5
gress 5
hanger 5
archeologists 5
contentious 5
generational 5
hurtling 5
inflicted 5
Aubrey 5
abuses 5
accountant 5
gin@@ 5
Pune 5
Kigali 5
learnt 5
confluence 5
wealthier 5
Lim@@ 5
Hen@@ 5
Again 5
alma 5
praised 5
protagonist 5
capricious 5
housed 5
cer 5
eyeglasses 5
gruesome 5
venereal 5
broker 5
disciplined 5
ffing 5
coercion 5
poised 5
temper 5
territorial 5
corps 5
grader 5
dless 5
cel@@ 5
Ivy 5
pulley 5
Nehru 5
diges@@ 5
moist 5
greenhouses 5
DB 5
tasking 5
microfluidic 5
equi@@ 5
linguistics 5
pathologies 5
firewood 5
Angeline 5
evaporated 5
restless 5
sleeves 5
ghettos 5
introverted 5
Tur@@ 5
uttered 5
elitist 5
kap@@ 5
remixing 5
tunes 5
infr@@ 5
misconceptions 5
Collusion 5
Pas@@ 5
suspend 5
artful 5
Airways 5
gridlock 5
sible 5
tango 5
cket 5
Grameen 5
WMAP 5
tiring 5
brained 5
seamounts 5
outdated 5
Dome 5
Freeman 5
curated 5
grieving 5
spiraling 5
Hansen 5
fundamentalists 5
Jagger 5
Cesar 5
detergent 5
Taniyama 5
entitlement 5
Cliff 5
Robot 5
dummies 5
Kurzweil 5
immediacy 5
semantic 5
Member 5
Thom 5
eal 5
organizes 5
enormity 5
flattened 5
occupies 5
nostalgia 5
jewels 5
navigators 5
Mind 5
stupidity 5
Elder 5
gol@@ 5
abandoning 5
harrowing 5
affirmation 5
husks 5
chilled 5
microbloggers 5
bribing 5
Holly 5
molding 5
legitimized 5
prosec@@ 5
Wyoming 5
MA 5
backbone 5
maturity 5
extensively 5
controversies 5
trespass 5
assassinated 5
internally 5
raping 5
advisor 5
VCs 5
conveying 5
dub 5
delegate 5
lunches 5
illustrating 5
journeyman 5
Rock@@ 5
spawned 5
Uncle 5
reassuring 5
chasm 5
trekking 5
Meth@@ 5
Tele@@ 5
affirming 5
fascinates 5
Belgium 5
Dhabi 5
cooperating 5
Helios 5
quotation 5
meditating 5
doings 5
Awesome 5
Equ@@ 5
symmetric 5
anarchy 5
Ekman 5
Sure 5
thirsty 5
rotors 5
retrofit 5
tilted 5
rotor 5
oted 5
stained 5
fallacy 5
hating 5
washes 5
hatch@@ 5
quieting 5
Atkins 5
recurrence 5
shortcuts 5
sculptors 5
appalling 5
flared 5
Suki 5
forager 5
slipping 5
follower 5
saints 5
emble@@ 5
readings 5
paras@@ 5
arium 5
jolly 5
genoci@@ 5
yaks 5
Nirvana 5
Aung 5
Suu 5
Kyi 5
fascism 5
marching 5
disgu@@ 5
ographers 5
Payne 5
adop@@ 5
World@@ 5
screen@@ 5
argues 5
theatre 5
boun@@ 5
brackets 5
analysts 5
Dictionary 5
metaphysical 5
outputs 5
Chip 5
ton@@ 5
lexicography 5
lexicographical 5
OED 5
inducted 5
carpenters 5
Kings 5
Madame 5
nieces 5
gigatons 5
spacing 5
lumps 5
subconscious 5
differs 5
Isaiah 5
Dads 5
Memorial 5
Robbins 5
manhood 5
ode 5
of@@ 5
ooze 5
dges 5
swims 5
und 5
beavers 5
Order 5
Vancouver 5
greenest 5
fab 5
TEDs 5
Zurich 5
battered 5
DC 5
hedon@@ 5
rapport 5
Corps 5
bestseller 5
highs 5
JS 5
categorized 5
Copper 5
gal@@ 5
anthrop@@ 5
prepaid 5
divert 5
bra 5
influencing 5
trendy 5
multic@@ 5
Kid 5
Leonard 5
hen@@ 5
stubborn 5
nonprofits 5
elli 5
contingent 5
Percent 5
Itay 5
Talgam 5
leagues 5
transitional 5
fit@@ 5
ords 5
Skid 5
Basel 5
tenant 5
Passage 5
permafrost 5
deviations 5
reductions 5
standstill 5
thicker 5
wrongs 5
maths 5
orphanages 5
McKinsey 5
formulated 5
Poupon 5
scouts 5
vivor 5
Vannevar 5
Daisy 5
squad 5
Fey 5
Perry 5
clean@@ 5
paro@@ 5
malpractice 5
tedness 5
mola 5
fashions 5
Preston 5
Brahmin 5
Vishnu 5
jaundice 5
Princess 5
Barricelli 5
numerical 5
Stacy 5
ared 5
gies 5
Kitchen 5
newsroom 5
Serious 5
whi@@ 5
socialization 5
cybercriminals 5
malware 5
Baron 5
sou@@ 5
Hungarians 5
Klan 5
Wofford 5
1903 5
Yugoslavia 5
indignant 5
ckets 5
vicinity 5
Milliken 5
exhausting 5
Alligator 5
anic 5
dwarfed 5
humongous 5
Roth 5
Edgar 5
objectivity 5
faring 5
gallbladder 5
hydrocarbon 5
eventual 5
reshaped 5
conserv@@ 5
autopsies 5
paragraphs 5
Novocure 5
GBM 5
quadrant 5
fueling 5
props 5
Sheila 5
Tol@@ 5
caste 5
Limpopo 5
trachoma 5
DryBath 5
arti@@ 5
supernormal 5
McKim 5
lounge 5
docs 5
cavitation 5
goddamn 5
rovers 5
buckets 5
Dharamsala 5
Huaorani 5
Kathmandu 5
voids 5
gracious 5
licensing 5
rically 5
recite 5
boundless 5
prayed 5
deconstructive 5
Keep 5
premier 5
Director 5
Muriel 5
moth 5
cham@@ 5
anesthetics 5
occupational 5
Nikolayevich 5
Hal 5
certainties 5
Belshazzar 5
overs 5
hap@@ 5
arbitrarily 5
favelas 5
workbench 5
astrology 5
Maker 5
saucers 5
ecstatic 5
YB 5
dismay 5
lamps 5
transplanted 5
regeneration 5
extra@@ 5
exemp@@ 5
lity 5
graphically 5
Confucius 5
rosy 5
cartel 5
Commerce 5
gir@@ 5
Penelope 5
doo 5
etes 5
Commentator 5
confer 5
Beau@@ 5
Goran 5
DD 5
Dietrich 5
Hedy 5
TMS 5
disconnection 5
springing 5
winged 5
Yad 5
Vashem 5
karma 5
bandstand 5
dragonfly 5
audit 5
wicked 5
ographic 5
3.2 5
Thaler 5
coffin 5
Nemo 5
Toy 5
cocoa 5
subsidy 5
Guizhou 5
mindfulness 5
CAPTCHAs 5
reCAPTCHA 5
Aqu@@ 5
evolvable 5
Frankenstein 5
specifics 5
nebul@@ 5
spectra 5
Effect 5
planner 5
renov@@ 5
Humberto 5
Bobo 5
zap 5
compulsory 5
Poetry 5
earrings 5
teme 5
fiddler 5
Donnell 5
Leahy 5
trader 5
tow 5
tritium 5
gnarly 5
Trinidad 5
sameness 5
cians 5
tribunal 5
spilling 5
SANCCOB 5
Scripture 5
escal@@ 5
hells 5
micrometeorites 5
Ruby 5
Permian 5
heparin 5
inaction 5
Chechnya 5
lov@@ 5
shedding 5
awry 5
destitute 5
outcry 5
Koko 5
Toys 5
urchins 5
herbivores 5
swirling 5
Small 5
meritocratic 5
acorn 5
healer 5
centerline 5
dissection 5
blockage 5
Capital 5
superconducting 5
retailer 5
interpersonal 5
reductionist 5
clonal 5
bluefin 5
kiloton 5
Noir 5
Mycoplasma 5
undefined 5
unpublished 5
Volta 5
electrolyte 5
Rico 5
prototyped 5
Robo@@ 5
PMTCT 5
distressing 5
GI 5
falafel 5
hexene 5
ess@@ 5
Sculpey 5
Hammett 5
crummy 5
necrophilia 5
Ig 5
sock 5
Forer 5
Whewell 5
captains 5
Elvis 5
Tyrone 5
Instagram 5
ontogeny 5
Basit 5
Amjad 5
Tendai 5
competitor 5
Abegg 5
Achill 5
differentiation 5
misled 5
partons 5
meniscus 5
interrupting 5
Ebert 5
Emergence 5
Portrait 5
4chan 5
TG 5
Ines 5
Musica 5
Stygimoloch 5
Clare 5
Ehrlich 5
cauliflower 5
Enrico 5
perverse 5
DRC 5
multicellular 5
Seligman 5
Ituri 5
Curitiba 5
golfing 5
greats 5
watermarks 5
patrollers 5
kludge 5
Siq 5
allegiances 5
icefall 5
Taji 5
Popcorn 5
Firefly 5
doublet 5
aphids 5
STriDER 5
DARwIn 5
Okolloh 5
Preity 5
Zinta 5
Worldchanging.com 5
Libra 5
Lamanites 5
ecologists 4
pollutant 4
blubber 4
crustaceans 4
func@@ 4
1931 4
intricately 4
slo@@ 4
aborig@@ 4
lac@@ 4
Adrian 4
Handspring 4
breathes 4
unch 4
miraculously 4
hoops 4
Morris 4
plowing 4
twigs 4
redesigned 4
tendon 4
Buffet 4
zeitgeist 4
singularity 4
inge 4
nephew 4
compares 4
shaving 4
laps 4
SA 4
Salinas 4
feats 4
workplaces 4
closure 4
clocked 4
schedules 4
permeated 4
Pew 4
Start 4
marketed 4
miner 4
goo 4
heath 4
solvers 4
ground@@ 4
ope 4
racetrack 4
intensi@@ 4
monuments 4
messes 4
hydroponics 4
customizing 4
AT@@ 4
prep 4
turkey 4
Cit@@ 4
rin 4
seasoned 4
Logo 4
keyboards 4
OLPC 4
bies 4
doll 4
mowing 4
chauvin@@ 4
Rodney 4
corpor@@ 4
colorings 4
scoring 4
ising 4
imitates 4
prohibit 4
docks 4
tweaks 4
barrage 4
mildly 4
Hamilton 4
primer 4
philosophies 4
discretionary 4
abortion 4
1948 4
redistribution 4
correcting 4
eses 4
noes 4
calamity 4
engra@@ 4
bypassing 4
OMG 4
mixtures 4
Ah@@ 4
hhh 4
Count 4
craftsman 4
swan 4
graceful 4
engender 4
fractions 4
snatch 4
exhilaration 4
fain@@ 4
cosmologists 4
greets 4
remnants 4
industri@@ 4
Amazon.com 4
mega@@ 4
tabs 4
specified 4
binder 4
ularly 4
newer 4
OCR 4
tonation 4
accessed 4
theatrical 4
inexpensively 4
archi@@ 4
Archive 4
gem 4
directional 4
mitig@@ 4
alia 4
filtration 4
cavities 4
bran@@ 4
leaps 4
sequestering 4
1859 4
Franz 4
2,200 4
ases 4
fungal 4
PA@@ 4
aromatic 4
spawn 4
Mason 4
alis 4
Agarikon 4
boiled 4
Earl 4
selectivity 4
dosage 4
homepage 4
onions 4
kernels 4
intermediary 4
biospheres 4
marsh 4
Test 4
choked 4
ensuing 4
maiden 4
gating 4
osp@@ 4
tandem 4
gasping 4
Mum 4
elated 4
viscerally 4
agon 4
Mir 4
biop@@ 4
hilic 4
throttle 4
diness 4
Prometheus 4
exhal@@ 4
Collapse 4
beehives 4
grave@@ 4
sis 4
Pos@@ 4
fronts 4
mond 4
[...]
